[PAD]
[UNK]
[CLS]
[SEP]
[MASK]
!
"
#
$
%
&
'
(
)
*
+
,
-
.
/
0
1
2
3
4
5
6
7
8
9
:
;
<
=
>
?
@
[
\
]
^
_
`
a
b
c
d
e
f
g
h
i
j
k
l
m
n
o
p
q
r
s
t
u
v
w
x
y
z
{
|
}
~
¡
£
¤
¥
¦
¨
©
«
®
°
±
²
³
´
µ
·
¹
º
»
¼
½
×
ß
æ
ð
÷
ø
þ
đ
ı
ł
ŋ
œ
ɑ
ɔ
ə
ɛ
ɪ
ʃ
ʔ
ʻ
ʼ
ˈ
ˊ
ː
ˑ
˙
˚
˝
ˮ
΄
α
β
γ
δ
ε
ζ
η
θ
ι
κ
λ
μ
ν
ξ
ο
π
ρ
ς
σ
τ
υ
φ
χ
ψ
ω
а
б
в
г
д
е
ж
з
и
к
л
м
н
о
п
р
с
т
у
ф
х
ц
ч
ш
щ
ы
ь
э
ю
я
і
҉
ү
ө
ա
א
ב
ה
ו
י
ל
מ
ר
ש
ת
ا
ب
ة
ت
ج
ح
خ
د
ر
ز
س
ش
ص
ط
ع
غ
ـ
ف
ق
ك
ل
م
ن
ه
و
ي
ک
ی
۰
क
ग
प
र
ल
स
ा
੦
ન
ર
લ
க
த
ல
ா
ி
ก
ค
ง
จ
ต
ท
น
ม
ย
ร
ล
ว
ส
ห
อ
ะ
า
เ
ใ
ა
ი
ᄀ
ᄁ
ᄂ
ᄃ
ᄄ
ᄅ
ᄆ
ᄇ
ᄈ
ᄉ
ᄊ
ᄋ
ᄌ
ᄍ
ᄎ
ᄏ
ᄐ
ᄑ
ᄒ
ᄠ
ᄡ
ᄫ
ᄭ
ᄯ
ᄲ
ᄶ
ᅀ
ᅌ
ᅠ
ᅡ
ᅢ
ᅣ
ᅤ
ᅥ
ᅦ
ᅧ
ᅨ
ᅩ
ᅪ
ᅫ
ᅬ
ᅭ
ᅮ
ᅯ
ᅰ
ᅱ
ᅲ
ᅳ
ᅴ
ᅵ
ᆔ
ᆞ
ᆡ
ᆨ
ᆩ
ᆪ
ᆫ
ᆬ
ᆭ
ᆮ
ᆯ
ᆰ
ᆱ
ᆲ
ᆳ
ᆴ
ᆵ
ᆶ
ᆷ
ᆸ
ᆹ
ᆺ
ᆻ
ᆼ
ᆽ
ᆾ
ᆿ
ᇀ
ᇁ
ᇂ
ᇰ
ᐧ
‐
‑
‒
–
—
―
‘
’
‚
‛
“
”
„
†
‡
•
‣
․
‥
…
‧
‰
‱
′
″
‵
‹
›
※
⁃
⁍
⁕
₂
₃
₤
₩
€
⃞
⃣
℃
℉
ℓ
™
⅓
⅔
ⅰ
ⅱ
ⅲ
ⅳ
ⅴ
ⅵ
ⅶ
ⅷ
ⅸ
ⅹ
←
↑
→
↓
↔
↖
↗
↘
↙
↳
⇒
⇔
⇢
⇧
⇨
∀
∎
−
∕
∗
∘
∙
∣
∥
∨
∴
∼
≒
≪
≫
⊙
⌀
⌈
⌋
⌜
⌟
⏏
①
②
③
④
⑤
⑥
⑦
⑧
⑨
⑩
⑪
⑫
⑬
⑭
⑮
⑯
⑰
⑱
⑲
⑳
⑴
⑵
⑶
⑷
⑸
⒜
⒝
ⓐ
ⓑ
ⓒ
ⓓ
ⓔ
ⓗ
ⓛ
ⓡ
ⓧ
⓵
⓶
⓷
─
━
│
┃
└
┗
├
┠
┣
┤
┼
╸
╺
█
▍
▎
▒
■
□
▢
▣
▤
▦
▧
▨
▩
▪
▫
▮
▲
△
▴
▵
▶
▷
▸
▹
►
▻
▼
▽
◀
◁
◆
◇
◈
◉
○
◌
◎
●
◐
◑
◦
◯
◻
◼
◾
♀
♂
♡
♤
♧
♨
♬
⚪
⚫
⚬
✅
✍
✓
✔
✕
✨
❍
❏
❐
❑
❒
❖
❗
❘
❙
❚
❤
❶
❷
❸
❹
❺
❻
➀
➁
➂
➃
➄
➅
➊
➋
➌
➍
➎
➏
➐
➑
➔
➜
➝
➞
➠
➡
⟪
⟫
⟶
⠀
⦁
⧠
⨯
⭐
⸱
、
。
〃
々
〇
〈
〉
《
》
「
」
『
』
【
】
〓
〔
〕
〚
〛
〜
〮
ぁ
あ
ぃ
い
ぅ
う
ぇ
え
ぉ
お
か
き
く
け
こ
さ
し
す
せ
そ
た
ち
っ
つ
て
と
な
に
ぬ
ね
の
は
ひ
ふ
へ
ほ
ま
み
む
め
も
ゃ
や
ゅ
ゆ
ょ
よ
ら
り
る
れ
ろ
わ
を
ん
ァ
ア
ィ
イ
ゥ
ウ
ェ
エ
ォ
オ
カ
キ
ク
ケ
コ
サ
シ
ス
セ
ソ
タ
チ
ッ
ツ
テ
ト
ナ
ニ
ヌ
ネ
ノ
ハ
ヒ
フ
ヘ
ホ
マ
ミ
ム
メ
モ
ャ
ヤ
ュ
ユ
ョ
ヨ
ラ
リ
ル
レ
ロ
ワ
ヲ
ン
ヶ
・
ー
ㄱ
ㄲ
ㄴ
ㄷ
ㄸ
ㄹ
ㅁ
ㅂ
ㅃ
ㅄ
ㅅ
ㅆ
ㅇ
ㅈ
ㅉ
ㅊ
ㅋ
ㅌ
ㅍ
ㅎ
ㅏ
ㅐ
ㅑ
ㅓ
ㅔ
ㅕ
ㅖ
ㅗ
ㅚ
ㅛ
ㅜ
ㅟ
ㅠ
ㅡ
ㅢ
ㅣ
ㅤ
ㅿ
ㆍ
㈀
㈁
㈂
㈃
㈎
㈏
㈐
㈑
㈔
㈜
㉑
㉒
㉓
㉔
㉕
㉖
㉗
㉠
㉡
㉢
㉣
㉤
㉮
㉯
㉰
㉱
㉲
㎉
㎍
㎎
㎏
㎐
㎒
㎓
㎕
㎖
㎗
㎘
㎚
㎛
㎜
㎝
㎞
㎟
㎠
㎡
㎢
㎤
㎥
㎧
㎸
㎾
㎿
㏄
㏈
㏊
一
丁
七
万
丈
三
上
下
不
与
丑
且
世
丘
丙
业
东
丞
両
並
个
中
串
丸
丹
为
主
乃
久
么
之
乎
乏
乐
乗
乘
乙
九
乞
也
乭
乱
乳
乾
亀
亂
了
予
争
事
二
于
云
互
五
井
亜
亞
亡
交
亥
亦
产
亨
享
京
亭
亮
人
什
仁
仇
今
介
仍
仏
仕
他
仗
付
仙
代
令
以
们
仮
仰
仲
件
任
企
伊
伍
伎
伏
伐
休
会
伝
伯
伴
伸
似
伽
但
位
低
住
佐
佑
体
何
余
佛
作
你
佩
佳
使
來
例
侍
供
依
侮
侯
侵
便
係
促
俄
俊
俎
俗
保
俠
信
修
俯
俱
俸
俺
倂
倉
個
倍
倒
候
借
倡
値
倫
倭
倻
假
偈
偉
偏
做
停
健
側
偶
傅
傍
傑
傘
備
催
傲
傳
債
傷
傾
僉
像
僕
僖
僚
僞
僧
價
僻
儀
億
儉
儒
儚
償
優
儲
儺
儿
兀
允
元
兄
充
兆
先
光
克
免
兎
児
兒
党
兜
兢
入
內
全
兩
兪
八
公
六
兮
共
关
兵
其
具
典
兼
冀
内
円
冊
再
冒
冕
写
军
冠
冥
冬
冶
冷
准
凉
凌
凍
凛
凝
凞
几
凡
処
凰
凱
凶
凸
凹
出
函
刀
刃
分
切
刊
刑
列
初
判
別
利
到
制
刷
券
刹
刺
刻
則
削
剌
前
剛
剣
剩
剪
副
割
創
劃
劇
劉
劍
劑
劒
力
功
加
务
劣
动
助
努
劫
効
劾
勁
勃
勅
勇
勉
勒
動
勖
勘
務
勝
勞
募
勢
勤
勳
勵
勸
勺
勿
包
化
北
匠
匡
匣
匹
区
医
匿
區
十
千
升
午
半
卍
华
卑
卒
卓
協
单
南
単
博
卜
卞
占
卦
卯
印
危
即
却
卵
卷
卽
卿
厄
厚
原
厥
厭
厲
厳
去
县
参
參
又
叉
及
友
双
反
发
叔
取
受
变
叛
叢
口
古
句
叩
只
叫
召
可
台
叱
史
右
叶
号
司
各
合
吉
同
名
后
吏
吐
向
君
吟
否
含
吳
吸
吹
吾
呂
呈
告
呑
员
周
呪
味
呼
命
和
咨
咲
咸
哀
品
哈
哉
員
哥
哭
哲
唄
唐
唯
唱
商
問
啓
善
喆
喉
喚
喜
喝
喩
喪
喬
單
喵
嗚
嗣
嘆
嘉
嘗
嘘
器
嚴
囊
囑
囚
四
回
因
团
団
园
困
図
固
国
圃
圈
國
圍
園
圓
圖
團
土
在
圭
地
场
址
坂
均
坊
坎
坐
坑
坡
坤
坦
坪
坫
垂
垈
型
垠
垢
垣
埋
城
域
執
培
基
埼
堀
堂
堅
堆
堡
堤
堪
堯
堰
報
場
塊
塑
塔
塗
塘
塚
塞
塡
塩
塵
塾
境
墓
増
增
墟
墨
墮
墳
墻
壁
壇
壊
壎
壓
壞
壤
士
壬
壯
声
売
壹
壺
壻
壽
変
夏
夕
外
多
夜
夢
大
天
太
夫
央
失
头
夷
夾
奇
奈
奉
奎
奏
契
奔
奚
奠
奥
奧
奪
奬
奭
奮
女
奴
奸
好
如
妃
妄
妓
妖
妙
妣
妹
妻
妾
姉
始
姑
姓
委
姚
姜
姦
姪
姫
姬
姻
姿
威
娘
娥
娶
娼
婁
婆
婚
婢
婦
媒
媛
嫁
嫌
嫡
嬉
嬪
嬰
子
孔
字
存
孚
孝
孟
季
孤
学
孫
學
宅
宇
守
安
宋
完
宏
宗
官
宙
定
宛
宜
宝
実
客
宣
室
宥
宦
宮
宰
害
宴
宵
家
宸
容
宿
寂
寃
寄
寅
密
寇
富
寒
寓
寛
寝
察
寡
寢
實
寧
審
寫
寬
寮
寵
寶
寸
对
寺
导
対
寿
封
専
射
将
將
專
尉
尊
尋
對
導
小
少
尔
尖
尙
尚
尤
就
尸
尹
尺
尼
尽
尾
尿
局
居
屈
届
屋
屍
展
屛
属
屠
層
履
屬
屯
山
岐
岑
岛
岡
岩
岬
岳
岸
峙
峨
峯
峰
峴
島
峻
峽
崇
崎
崑
崔
崖
崗
崙
崩
嵌
嵐
嵩
嶋
嶺
嶽
巖
川
州
巡
巢
工
左
巧
巨
巫
差
己
已
巳
巴
巷
巻
巾
市
布
帆
希
帖
帛
帝
帥
師
席
帯
帰
帳
帶
常
帽
幀
幄
幅
幌
幕
幡
幢
幣
干
平
年
幷
幸
幹
幻
幼
幽
幾
广
広
庄
庇
床
序
底
店
庚
府
度
座
庫
庭
庵
庶
康
庸
庾
廉
廊
廐
廓
廛
廟
廡
廢
廣
廬
廳
延
廷
建
廻
开
弁
弄
弊
式
弓
弔
引
弗
弘
弟
张
弥
弦
弧
弩
弱
張
強
强
弼
弾
彈
彌
当
彙
彝
形
彦
彩
彫
彬
彭
彰
影
役
彼
往
征
待
律
後
徐
徑
徒
従
得
從
御
復
循
微
徳
徵
德
徹
徽
心
必
忌
忍
志
忘
応
忠
快
念
忽
怒
怖
思
怠
怡
急
性
怨
怪
怯
总
恋
恐
恒
恕
恣
恤
恥
恨
恩
恭
息
恵
悅
悉
悌
悔
悖
悟
悠
患
悩
悪
悲
悳
悼
情
惑
惜
惟
惠
惡
惱
想
愁
愈
愍
意
愚
愛
感
愼
慄
慈
態
慕
慢
慣
慧
慮
慰
慶
慾
憂
憎
憐
憑
憤
憲
憶
應
懋
懲
懶
懷
懸
懺
懼
懿
戀
戈
戊
戌
戍
戎
成
我
戒
或
战
戚
戦
戰
戱
戴
戶
戸
戻
房
所
扁
扇
扈
扉
手
才
打
托
扮
扶
批
承
技
抄
把
抑
投
抗
折
抜
报
抱
抵
抹
押
抽
拂
拉
拍
拒
拓
拔
拘
拙
招
拜
括
拳
拾
持
指
按
挑
振
挺
挾
捐
捕
捧
捨
捷
掃
授
掌
排
掘
掛
採
探
接
控
推
掩
措
掴
揆
描
提
揖
揚
換
握
揭
揮
援
揺
損
搖
搜
搬
摘
摠
摩
撃
撒
撤
撫
播
撮
撰
擇
擊
操
擔
據
擧
擬
擴
擾
攝
支
收
攷
攸
改
攻
放
政
故
效
敍
敎
敏
救
敗
教
敢
散
敦
敬
数
整
敵
敷
數
斂
文
斌
斎
斐
斑
斗
料
斛
斜
斡
斤
斥
斧
斬
断
斯
新
斷
方
於
施
旅
旋
旌
族
旗
无
旣
日
旦
旧
旨
早
旬
旭
旱
时
旺
旿
昆
昇
昊
昌
明
昏
易
昔
星
映
春
昧
昨
昭
是
昱
昶
昻
時
晃
晉
晋
晏
晝
晟
晤
晦
晨
晩
普
景
晴
晶
晷
智
暇
暎
暑
暖
暗
暮
暴
曆
曇
曉
曙
曜
曦
曰
曲
更
書
曹
曺
曼
曾
替
最
會
月
有
朋
服
朔
朕
朗
望
朝
期
木
未
末
本
札
朱
朴
机
朽
杆
杉
李
杏
材
村
杓
杖
杜
杞
束
条
来
杭
杯
杰
東
松
板
析
枕
林
枚
果
枝
枯
架
柄
柏
某
染
柔
柱
柳
柴
柵
査
栄
栗
校
栢
株
核
根
格
栽
桂
桃
案
桐
桑
桓
桜
梁
梅
梓
條
梦
梧
梨
械
梵
棄
棋
棒
棗
棘
棚
棟
森
棲
棺
植
椒
検
椿
楊
楓
楚
楞
楡
業
楮
極
楷
楼
楽
榜
榮
槃
構
槍
槐
様
槨
槪
槽
樂
樑
樓
標
樞
模
樣
権
横
樹
橋
橘
機
橫
檀
檜
檢
櫻
欄
權
欠
次
欣
欲
欺
欽
款
歌
歎
歐
歡
止
正
此
步
武
歩
歪
歲
歳
歴
歷
歸
死
殉
殊
残
殖
殘
殯
段
殷
殺
殼
殿
毁
毅
毋
母
毎
每
毒
比
毗
毘
毛
毫
毬
氏
民
気
氣
水
氷
永
汀
汁
求
汉
汎
汐
汗
汚
汝
江
池
汪
汰
汲
汶
決
汽
沂
沃
沈
沒
沖
沙
沛
沢
沮
河
沸
油
治
沼
沿
況
泄
泉
泊
法
泗
泡
波
泣
泥
注
泰
泳
洋
洑
洗
洙
洛
洞
津
洪
洲
洵
活
洽
派
流
浅
浙
浚
浜
浦
浩
浪
浮
浴
海
浸
涅
消
涉
涙
涯
液
涵
涼
淑
淚
淡
淨
淫
淮
深
淳
淵
混
淸
淺
添
清
済
渋
渚
減
渠
渡
渤
温
測
渭
港
渴
游
渾
湖
湘
湛
湜
湧
湯
湲
湾
満
源
準
溜
溝
溟
溢
溪
溫
溶
溺
滄
滅
滉
滋
滑
滝
滯
滴
滿
漁
漂
漆
漏
漑
演
漕
漠
漢
漫
漸
潔
潘
潛
潜
潤
潭
潮
澄
澈
澗
澤
澮
激
濁
濃
濊
濕
濟
濡
濤
濫
濬
濯
濱
瀆
瀉
瀋
瀑
瀛
瀬
灌
灘
灣
火
灯
灰
灸
灼
災
炅
炎
炫
炭
炯
炳
点
為
烈
烏
烟
烽
焉
焚
無
焦
焰
然
焼
煉
煌
煙
煥
照
煩
煮
熊
熙
熟
熱
熹
燁
燃
燈
燒
燕
營
燥
燦
燧
燭
燮
爆
爐
爛
爪
爭
爱
爲
爵
父
爻
爽
爾
片
版
牌
牒
牙
牛
牟
牡
牢
牧
物
牲
特
牽
犀
犧
犬
犯
状
狀
狂
狄
狐
狗
狩
独
狹
狼
猛
猪
猫
猶
猷
猿
獄
獅
獎
獣
獨
獲
獵
獸
獻
玄
率
玉
王
玩
玲
玹
珉
珍
珖
珠
珥
珪
班
現
球
理
琉
琓
琦
琪
琳
琴
琵
琶
瑕
瑛
瑜
瑞
瑟
瑠
瑤
瑩
瑾
璃
璋
璘
璜
璟
璧
環
璽
璿
瓊
瓚
瓜
瓣
瓦
甁
甄
甑
甕
甘
甚
生
産
用
甫
田
由
甲
申
电
男
甸
町
画
界
畏
畓
畔
留
畜
畝
畢
略
番
畫
異
畵
當
畿
疆
疊
疎
疏
疑
疫
疲
疵
疾
病
症
痕
痛
痰
痴
瘡
療
癌
癒
癖
癡
癸
発
登
發
白
百
的
皆
皇
皐
皓
皮
皿
盆
盈
益
盒
盛
盜
盞
盟
盡
監
盤
盥
盧
目
盲
直
相
盾
省
眉
看
県
眞
真
眠
眩
眼
着
睡
督
睦
睿
瞬
瞳
瞻
矛
矢
矣
知
矩
短
矯
石
砂
研
砕
砲
破
硏
硝
硬
硯
碍
碎
碑
碗
碣
碧
碩
確
磁
磐
磨
磬
磯
礁
礎
礪
示
礼
社
祀
祇
祈
祉
祐
祔
祕
祖
祗
祚
祝
神
祠
祥
票
祭
祿
禁
禍
禎
福
禔
禦
禧
禪
禮
禰
禱
禹
禽
禾
禿
秀
私
秉
秋
科
秒
秘
租
秦
秩
移
稀
稅
程
稚
稟
稧
種
稱
稲
稷
稻
稽
稿
穀
穂
穆
積
穡
穩
穴
究
空
穿
突
窓
窟
窩
窮
窯
立
站
竜
竝
竟
章
童
竪
竭
端
競
竹
竺
竿
笏
笑
笛
笞
笠
符
第
筆
等
筋
筑
筒
答
策
筵
箇
箋
箕
算
箚
管
箭
箱
箴
節
範
篆
篇
築
篚
篠
篤
簡
簿
籍
籠
米
粉
粒
粗
粘
粟
粧
粹
精
糖
糞
糧
糸
系
糾
紀
紂
約
紅
紋
納
純
紗
紙
級
紛
素
紡
索
紫
紬
累
細
紳
紹
紺
終
絃
組
絆
経
結
絞
絡
給
統
絲
絵
絶
絹
綏
經
継
続
綜
綠
綬
維
綱
網
綴
綵
綸
綺
綾
綿
緊
緋
総
緑
緒
緖
線
締
緣
編
緩
緯
練
縛
縣
縮
縱
總
績
繁
繋
織
繕
繡
繩
繪
繫
繰
繼
纂
續
纏
红
线
组
经
缺
罍
网
罔
罕
罪
置
罰
署
罷
羅
羊
羌
美
羞
群
義
羲
羽
翁
翊
習
翔
翟
翠
翰
翼
耀
老
考
者
耆
而
耐
耕
耗
耳
耶
耽
耿
聃
聖
聘
聚
聞
聯
聰
聲
聴
職
聽
肄
肅
肇
肉
肌
肖
肝
股
肢
肥
肩
肯
育
肺
胃
胄
背
胎
胞
胡
胤
胥
胴
胸
能
脂
脇
脈
脊
脘
脚
脩
脫
脯
脱
脳
脾
腎
腐
腑
腕
腦
腫
腰
腸
腹
腺
膏
膜
膝
膳
膺
膽
臘
臟
臣
臥
臨
自
臭
至
致
臺
臼
與
興
舊
舌
舍
舎
舒
舜
舞
舟
航
般
舰
舶
船
艦
艮
良
色
艾
芒
芙
芝
芬
花
芳
芸
芽
苑
苗
若
苦
苧
英
茂
范
茅
茶
荀
草
荊
荒
荷
莉
莊
莖
莘
莫
菅
菊
菌
菓
菜
菟
菩
華
菱
菴
萊
萌
萩
萬
萱
落
葉
著
葛
董
葬
葵
蒙
蒲
蒸
蒼
蓄
蓉
蓋
蓬
蓮
蔘
蔚
蔡
蔣
蔭
蔵
蔽
蕃
蕩
蕭
薄
薇
薛
薦
薩
薪
薬
薰
藁
藍
藏
藝
藤
藥
藩
藪
藻
蘆
蘇
蘊
蘭
蘿
虎
虐
處
虚
虛
虜
虞
號
虫
虹
蛇
蜀
蜂
蜜
蝕
蝶
融
螺
蟲
蟹
蠟
蠶
蠻
血
衆
行
衍
術
街
衙
衛
衝
衡
衣
表
衫
衰
衷
衿
袁
袋
袍
袖
袞
被
裁
裂
装
裏
裔
裕
補
裝
裡
裨
裳
裴
裵
裸
製
複
褒
襄
襲
西
要
覆
覇
覈
見
規
視
覚
親
観
覺
覽
觀
角
解
触
觸
言
訂
訃
計
訊
討
訓
託
記
訟
訣
訥
訪
設
許
訴
訶
診
註
証
詐
詔
評
詞
詠
試
詩
詮
詰
話
該
詳
詵
詹
誅
誇
誌
認
誓
誕
誘
語
誠
誣
誤
誥
誦
說
説
読
誰
課
誼
誾
調
談
請
諍
論
諡
諦
諧
諫
諭
諱
諸
諺
諾
謀
謁
謂
謄
謙
講
謝
謠
謨
謹
證
識
譚
譜
警
譯
議
譴
護
譽
讀
變
讐
讓
讖
讚
谷
豆
豈
豊
豐
豚
象
豪
豫
豹
貂
貊
貌
貝
貞
負
財
貢
貧
貨
販
貪
貫
責
貯
貴
貶
買
貸
費
貿
賀
賃
資
賈
賊
賑
賓
賜
賞
賠
賢
賣
賤
賦
質
賴
賻
購
贈
贊
贍
贓
贖
资
赤
赦
赫
走
赴
起
超
越
趙
趣
足
趺
趾
跋
距
跡
跪
路
跳
踊
踏
踐
蹂
蹄
蹟
躍
身
躬
車
軌
軍
軒
軟
転
軸
軽
軾
較
載
輔
輕
輛
輝
輦
輩
輪
輯
輸
輿
轄
轉
轍
车
较
辛
辟
辦
辨
辭
辯
辰
辱
農
辺
込
辿
迅
过
迎
近
返
这
进
迦
迪
迫
述
迷
迹
追
退
送
适
逃
逆
选
逍
透
逐
途
這
通
逝
速
造
逢
連
週
進
逸
遁
遂
遅
遇
遊
運
遍
過
道
達
違
遙
遜
遞
遠
遣
遥
適
遮
遲
遵
遷
選
遺
遼
避
還
邊
邑
邢
那
邦
邪
邱
邵
邸
郁
郊
郎
郞
郡
部
郭
郵
郷
都
鄒
鄕
鄧
鄭
酉
酋
酌
配
酒
酬
酷
酸
醉
醒
醜
醞
醫
醬
醮
醴
采
釉
釋
里
重
野
量
金
釘
釜
針
釣
鈍
鈔
鈴
鉄
鉉
鉛
鉢
銀
銃
銅
銓
銘
銜
銳
鋒
鋪
鋼
錄
錐
錢
錦
錫
錯
録
鍊
鍋
鍵
鍼
鍾
鎌
鎔
鎖
鎬
鎭
鎮
鎰
鏞
鏡
鐘
鐵
鐸
鑄
鑑
鑛
铁
長
长
門
閃
閉
開
閏
閑
閒
間
閔
関
閣
閤
閥
閨
閭
閱
閻
闇
闕
闘
關
闢
门
间
阜
阪
阮
防
阳
阻
阿
陀
附
降
限
陜
陝
陟
院
陣
除
陪
陰
陳
陵
陶
陷
陸
険
陽
隅
隆
隊
隋
隍
階
隔
隙
際
障
隠
隣
隨
險
隱
隷
隸
雀
雁
雄
雅
集
雇
雉
雍
雑
雕
雖
雙
雜
離
難
雨
雪
雲
零
雷
電
需
震
霊
霜
霞
霧
露
霸
靈
靑
青
靖
静
靜
非
面
革
靴
鞋
鞍
鞠
鞫
鞭
韋
韓
韩
音
韶
韻
響
頁
頂
頃
項
順
須
頌
預
頑
頒
頓
領
頤
頭
頸
頼
題
額
顔
願
顚
類
顧
顯
领
题
風
风
飛
飜
食
飡
飢
飮
飯
飲
飼
飽
飾
養
餐
餓
餘
餠
館
饌
饒
饔
首
香
馥
馨
馬
馮
馳
駄
駅
駆
駐
駒
駕
駱
駿
騎
騒
験
騰
騷
驅
驗
驚
驛
驪
马
骨
骸
髓
體
高
髪
髮
髻
鬪
鬱
鬼
魁
魂
魄
魅
魏
魔
魚
魯
鮑
鮮
鰲
鱗
鲁
鳥
鳩
鳳
鳴
鴨
鴻
鵬
鶴
鷄
鷲
鷹
鸞
鹵
鹽
鹿
麒
麗
麟
麥
麵
麻
麾
黃
黄
黎
黑
黒
黔
默
黙
黜
點
黨
鼎
鼓
鼠
鼻
齊
齋
齒
齡
龍
龕
龙
龜
！
＂
＃
％
＆
＇
（
）
＊
＋
，
－
．
／
０
１
２
３
４
５
６
７
８
９
：
；
＜
＝
＞
？
＠
［
＼
］
＾
ａ
ｂ
ｃ
ｄ
ｅ
ｇ
ｈ
ｉ
ｍ
ｎ
ｏ
ｒ
ｓ
ｔ
ｗ
ｘ
｜
～
｡
｢
｣
､
･
ｯ
ｰ
ｱ
ｲ
ｶ
ｷ
ｸ
ｺ
ｼ
ｽ
ﾀ
ﾁ
ﾃ
ﾄ
ﾊ
ﾋ
ﾌ
ﾎ
ﾏ
ﾒ
ﾗ
ﾘ
ﾙ
ﾜ
ﾝ
ﾞ
ﾟ
ﾠ
￣
￥
￦
￭
￮
￿
🌏
🏻
👉
💀
💕
😊
🙂
##ᅢ
##ᄇ
##ᅵ
##ᆫ
##ᄋ
##8
##1
##ᅯ
##ᆯ
##ᄉ
##ᅩ
##ᄀ
##ᅪ
##ᅳ
##ᄐ
##ᅧ
##ᆻ
##ᄌ
##ᄆ
##ᅡ
##ᅥ
##ᆷ
##2
##p
##ᆸ
##ᆨ
##ᄒ
##ᆭ
##ᅭ
##ᅮ
##ᆼ
##ᅦ
##ᅣ
##ᅱ
##ᄅ
##ᄂ
##ᅴ
##ᄎ
##ᄃ
##ᄑ
##ᄈ
##ᅬ
##i
##a
##e
##ᆺ
##ᅨ
##ᇁ
##ᄏ
##c
##s
##3
##9
##6
##7
##ᄍ
##4
##y
##r
##g
##ᅲ
##村
##o
##x
##天
##成
##象
##0
##ᆮ
##ᄊ
##善
##大
##夫
##吏
##曹
##參
##判
##兼
##同
##知
##經
##筵
##事
##u
##q
##5
##ᄁ
##標
##納
##戸
##蔵
##隣
##屋
##普
##請
##控
##m
##t
##l
##f
##≫
##ᅫ
##n
##度
##氷
##行
##程
##曆
##母
##v
##㈜
##作
##ᄄ
##k
##谷
##う
##も
##あ
##り
##か
##と
##ᆬ
##ᇂ
##ᇀ
##ı
##b
##z
##ㆍ
##㎡
##ᆰ
##綱
##五
##常
##ᆾ
##ᅰ
##獄
##の
##門
##d
##ᆿ
##h
##液
##形
##文
##熹
##甲
##ᆴ
##○
##ᆩ
##◇
##秀
##w
##率
##ᆹ
##→
##▲
##∼
##虎
##尾
##を
##踏
##む
##男
##達
##心
##氣
##ᆞ
##ー
##ウ
##シ
##ュ
##邑
##縣
##ᆽ
##用
##侵
##害
##單
##純
##代
##數
##つ
##н
##д
##и
##в
##у
##а
##л
##ь
##ы
##良
##㎢
##山
##監
##す
##き
##面
##っ
##覚
##え
##て
##し
##ま
##た
##ⅱ
##ᆶ
##二
##輸
##一
##治
##三
##主
##權
##悲
##㏊
##²
##ト
##ロ
##い
##j
##罪
##≪
##麵
##局
##非
##得
##失
##申
##生
##動
##°
##禮
##傳
##通
##解
##續
##光
##寺
##は
##負
##け
##る
##ち
##ょ
##～
##㎍
##×
##旧
##江
##城
##写
##真
##カ
##ラ
##ス
##原
##板
##ゅ
##ほ
##ろ
##ᆲ
##─
##切
##な
##人
##へ
##降
##始
##設
##決
##定
##望
##巴
##刺
##〇
##祥
##ッ
##テ
##頭
##閱
##爲
##ᆱ
##㎏
##痴
##久
##持
##賴
##循
##環
##卯
##默
##不
##縛
##鎖
##ン
##ヒ
##ニ
##雜
##誌
##合
##日
##々
##住
##地
##理
##重
##滿
##廉
##②
##景
##⅔
##ん
##ね
##錦
##試
##溪
##遺
##集
##耳
##洞
##克
##手
##戶
##臺
##玩
##月
##本
##物
##ア
##ホ
##ク
##リ
##フ
##ァ
##川
##先
##△
##補
##士
##ː
##ᅤ
##㎞
##樓
##列
##次
##分
##野
##圖
##强
##姦
##哲
##雨
##帥
##子
##鴻
##來
##鎔
##池
##修
##委
##員
##學
##さ
##律
##論
##ツ
##神
##錢
##十
##年
##せ
##③
##床
##傑
##船
##匠
##ル
##マ
##ナ
##義
##ㄴ
##世
##界
##ł
##ひ
##恩
##如
##賃
##金
##低
##價
##格
##モ
##漁
##難
##會
##問
##的
##統
##銘
##◆
##㎒
##龍
##旗
##異
##老
##所
##中
##竹
##水
##ｂ
##嶺
##萬
##◎
##潤
##明
##守
##紅
##牌
##家
##術
##詩
##選
##津
##藩
##鍾
##亭
##鶴
##上
##符
##ø
##送
##や
##過
##材
##廳
##王
##色
##弟
##伝
##奏
##至
##正
##使
##璃
##之
##歌
##域
##仙
##沼
##陽
##君
##羅
##漢
##祭
##北
##長
##風
##█
##麗
##後
##像
##官
##壽
##草
##防
##㎿
##東
##醫
##寶
##鑑
##炎
##培
##示
##種
##徽
##狐
##社
##鼠
##位
##語
##音
##夏
##ᆪ
##博
##海
##条
##件
##関
##数
##方
##領
##戒
##幹
##産
##業
##禎
##林
##ᆵ
##以
##健
##英
##幻
##星
##↗
##米
##●
##州
##史
##爪
##田
##秩
##注
##聞
##ㅡ
##敬
##順
##父
##朝
##從
##火
##蕃
##牛
##国
##食
##飽
##有
##相
##ᆡ
##楊
##敏
##公
##尊
##榜
##民
##托
##都
##桑
##八
##百
##株
##め
##姫
##⑤
##師
##平
##洋
##題
##硏
##究
##桓
##例
##①
##■
##冬
##ㅣ
##活
##字
##衛
##制
##▶
##政
##四
##流
##殼
##層
##に
##燃
##痕
##七
##ェ
##こ
##女
##奴
##開
##熙
##尙
##寧
##費
##琳
##室
##渾
##隷
##也
##眼
##袖
##舞
##付
##∙
##湖
##思
##追
##ム
##省
##几
##杖
##序
##㎥
##姿
##佑
##喜
##娘
##岛
##㎝
##れ
##そ
##描
##く
##ハ
##訴
##提
##起
##處
##伯
##根
##泉
##❙
##號
##タ
##よ
##京
##式
##育
##部
##法
##ⅲ
##怒
##鄕
##安
##國
##馬
##韓
##唱
##時
##交
##差
##点
##残
##м
##е
##ш
##к
##麻
##利
##伏
##院
##軍
##云
##木
##元
##勢
##欲
##錯
##雀
##深
##宮
##喬
##ぅ
##戱
##場
##商
##弘
##柱
##對
##讀
##電
##機
##興
##確
##前
##返
##畢
##則
##命
##兵
##德
##淵
##＞
##乘
##歸
##取
##稚
##菜
##駅
##空
##蘭
##西
##ə
##證
##唯
##謙
##风
##億
##約
##書
##篇
##祀
##製
##ㄱ
##彩
##壤
##智
##源
##抵
##劾
##韶
##蓮
##華
##卷
##六
##酉
##譜
##㎕
##出
##˙
##個
##講
##↔
##速
##整
##喪
##我
##™
##節
##小
##孝
##阮
##レ
##浩
##捨
##間
##＝
##私
##下
##存
##図
##蠶
##絲
##臟
##病
##胞
##體
##④
##サ
##メ
##ぬ
##罰
##阪
##擧
##逢
##洪
##錫
##積
##殷
##植
##福
##æ
##僉
##贊
##豹
##營
##杜
##姪
##今
##お
##わ
##慢
##除
##宿
##完
##能
##石
##太
##郞
##勝
##俊
##武
##錄
##勳
##儀
##軌
##妃
##慶
##南
##昌
##在
##毒
##眞
##極
##說
##季
##玄
##章
##曰
##園
##令
##發
##布
##ｍ
##壓
##滅
##倭
##夷
##親
##宴
##廷
##ᄲ
##氏
##古
##斷
##隔
##陰
##腎
##準
##尤
##考
##鳳
##基
##赫
##弼
##首
##香
##揆
##洙
##会
##场
##㎓
##息
##性
##愛
##症
##羲
##卦
##似
##仁
##僕
##強
##者
##誰
##凍
##ら
##町
##庸
##濕
##熱
##濟
##靈
##ㅜ
##敎
##府
##凡
##改
##革
##紋
##協
##細
##爐
##橋
##奉
##磬
##聲
##®
##蝶
##㎾
##化
##市
##團
##此
##処
##際
##紛
##爭
##緒
##買
##ャ
##祚
##議
##救
##呼
##ふ
##声
##足
##継
##希
##亮
##刀
##少
##冒
##類
##賦
##μ
##信
##託
##益
##向
##⅓
##質
##р
##о
##х
##土
##砂
##目
##葉
##汗
##籍
##致
##遠
##催
##給
##㎎
##等
##沙
##般
##當
##其
##衣
##冠
##齒
##刻
##み
##セ
##顔
##晟
##舟
##償
##配
##惟
##教
##嚴
##弓
##満
##イ
##チ
##ソ
##棺
##僧
##ィ
##⑷
##關
##係
##念
##阿
##彌
##車
##オ
##初
##超
##球
##網
##微
##笑
##感
##裝
##忍
##郡
##絶
##債
##堪
##比
##倫
##境
##坦
##奮
##置
##憲
##鋪
##己
##組
##立
##ᆳ
##增
##倍
##級
##п
##с
##º
##筆
##寫
##牙
##版
##勇
##功
##ヘ
##廣
##靑
##練
##施
##運
##條
##案
##対
##蒼
##泳
##±
##九
##品
##惑
##貨
##待
##詔
##審
##発
##見
##皆
##可
##堯
##舜
##畵
##ᅀ
##ᄫ
##轉
##戌
##於
##副
##σ
##ο
##ς
##宗
##實
##℃
##因
##胡
##情
##居
##限
##點
##瞳
##宙
##保
##卓
##ש
##ר
##ו
##封
##雲
##ミ
##引
##込
##魅
##力
##調
##査
##落
##曲
##越
##消
##署
##故
##波
##ワ
##外
##肝
##及
##祉
##觀
##自
##求
##禪
##諺
##体
##㎜
##綠
##珠
##賢
##秋
##戚
##銀
##河
##漆
##匣
##庵
##應
##丘
##美
##覺
##言
##停
##´
##由
##科
##司
##道
##結
##果
##魚
##т
##廟
##ℓ
##雄
##祗
##婦
##沢
##ﾟ
##ﾃ
##ﾞ
##ｰ
##鋒
##煥
##ㅋ
##ㅂ
##ㅊ
##別
##勵
##型
##易
##夜
##啓
##頁
##新
##精
##÷
##族
##閤
##将
##棋
##將
##鮮
##展
##羽
##工
##資
##無
##鬼
##殿
##互
##ゆ
##身
##腦
##危
##包
##♡
##臣
##柳
##惠
##孫
##典
##巖
##計
##而
##喆
##釋
##警
##察
##露
##績
##荷
##才
##永
##∣
##耕
##角
##把
##附
##丸
##底
##口
##壺
##盡
##印
##堂
##意
##ر
##ف
##ع
##務
##述
##㈏
##叛
##亂
##跡
##剛
##禁
##変
##淳
##擊
##銃
##左
##♬
##期
##↑
##俄
##戰
##著
##晴
##湘
##园
##記
##葛
##里
##柴
##郎
##帳
##彝
##跳
##加
##再
##遷
##怖
##ᇰ
##煮
##糧
##吳
##汪
##浪
##賜
##喝
##刊
##尺
##松
##骨
##▪
##艦
##隊
##器
##κ
##街
##紫
##宸
##壁
##軒
##震
##災
##復
##升
##群
##只
##圓
##墨
##潮
##◦
##瑕
##誠
##督
##属
##ㅇ
##ㅅ
##串
##浦
##服
##勿
##鳥
##✓
##∨
##鋼
##胄
##維
##宅
##和
##炳
##ケ
##适
##汶
##劃
##区
##ร
##ย
##ท
##淑
##后
##井
##伸
##ʼ
##飛
##御
##策
##宝
##花
##高
##校
##容
##汚
##染
##指
##□
##任
##奇
##燮
##聖
##г
##ч
##棗
##茂
##志
##帖
##険
##肖
##😊
##慰
##萊
##註
##唐
##誘
##激
##漸
##摩
##就
##旅
##抄
##乳
##坂
##謂
##県
##紺
##綾
##兎
##袋
##ⅳ
##早
##亡
##厚
##怨
##備
##疫
##聚
##儿
##摠
##館
##鐵
##姻
##浴
##瓣
##素
##紗
##衫
##總
##管
##輩
##奎
##泰
##鉉
##巫
##桃
##殘
##舊
##是
##屬
##貢
##辛
##渡
##破
##姉
##様
##学
##ㅓ
##龜
##ᄡ
##ぁ
##ゃ
##載
##鈴
##短
##⇒
##│
##鰲
##峰
##巾
##藏
##留
##➊
##㎘
##璘
##畿
##楓
##鼎
##允
##閣
##放
##兒
##偉
##聘
##齋
##屈
##愚
##吐
##ｱ
##ｲ
##券
##壇
##直
##圍
##枝
##コ
##岩
##衆
##港
##ㅎ
##魔
##徒
##吉
##爵
##榮
##並
##稅
##佛
##更
##豫
##算
##額
##側
##預
##黜
##陟
##孔
##誤
##區
##裂
##疑
##値
##徐
##劍
##α
##λ
##γ
##ξ
##凞
##穿
##干
##驛
##想
##護
##θ
##航
##募
##農
##李
##醒
##辭
##˚
##恒
##㎧
##験
##俗
##課
##㏈
##鄭
##範
##瓜
##㎚
##認
##要
##減
##奥
##名
##陵
##碑
##急
##朴
##誾
##丁
##澄
##峴
##犯
##夢
##建
##þ
##派
##緣
##台
##ㄹ
##ㅌ
##助
##均
##千
##料
##廢
##止
##鷹
##椒
##線
##広
##然
##圃
##烈
##祠
##隠
##他
##婚
##往
##◈
##賀
##競
##盤
##址
##佐
##咲
##ф
##乱
##造
##盟
##紙
##絵
##詞
##茶
##店
##張
##厄
##樞
##线
##务
##仮
##鏡
##樂
##願
##寂
##尉
##菱
##µ
##洗
##談
##淸
##涼
##段
##還
##叶
##欽
##鵬
##胎
##鷄
##慧
##郭
##宇
##依
##気
##藥
##蹟
##刑
##囚
##熊
##介
##末
##影
##近
##友
##幕
##握
##含
##届
##內
##貴
##ᄯ
##淨
##識
##寅
##エ
##菩
##薩
##勒
##多
##塔
##輿
##于
##２
##０
##何
##吸
##又
##黨
##鞋
##υ
##ν
##ｔ
##肉
##束
##狀
##徵
##硝
##蔘
##皇
##帝
##采
##ㅈ
##密
##裏
##接
##触
##樣
##系
##貞
##㎖
##閔
##量
##楽
##ゥ
##戦
##略
##與
##移
##築
##ㅐ
##受
##紀
##淡
##島
##巨
##腸
##閑
##晩
##乐
##宋
##崔
##藤
##祐
##㉢
##映
##耆
##支
##亨
##ヌ
##奪
##連
##兩
##塩
##毅
##瑛
##勞
##障
##報
##猶
##獲
##輪
##辺
##来
##趙
##孟
##為
##探
##鍵
##片
##尿
##祖
##ォ
##ノ
##共
##歩
##入
##酸
##效
##糸
##ʻ
##劉
##全
##迷
##磨
##耗
##柏
##盜
##駆
##抜
##姬
##楚
##瀬
##雅
##陶
##ⅰ
##創
##踊
##閏
##ヨ
##椿
##菓
##◌
##穀
##斂
##５
##ｎ
##６
##瑟
##琪
##棘
##座
##无
##休
##便
##衙
##企
##恨
##優
##卵
##薬
##坐
##編
##沂
##洛
##駕
##ι
##δ
##ε
##栗
##柄
##綸
##丹
##兪
##看
##淺
##祿
##丞
##乗
##遅
##鳴
##梵
##邊
##疏
##征
##斗
##⑥
##歷
##陳
##栄
##構
##ﾝ
##ﾁ
##寬
##森
##告
##瞻
##窮
##і
##威
##窟
##毘
##盧
##遮
##那
##ㄷ
##味
##♀
##蘿
##笠
##晝
##ᄭ
##朕
##焉
##妹
##俺
##殺
##拍
##仕
##第
##話
##庄
##右
##㏄
##奈
##温
##η
##捕
##彦
##㎛
##隆
##散
##屍
##疆
##肅
##岸
##菊
##醬
##斛
##簡
##了
##崖
##稱
##油
##巻
##洽
##秘
##∕
##房
##周
##忠
##邪
##竜
##ㅁ
##契
##財
##某
##鼓
##血
##暗
##坊
##瞬
##歲
##ぇ
##弦
##班
##澤
##➁
##⑦
##秉
##弊
##崇
##賓
##侍
##清
##輔
##敵
##絹
##叱
##況
##酒
##鴨
##飾
##現
##瑠
##棲
##嘘
##昧
##表
##隱
##織
##去
##寮
##番
##斜
##帶
##進
##潜
##答
##擇
##脩
##圭
##ж
##爛
##漫
##玹
##撮
##倻
##腹
##陸
##着
##莘
##昏
##驗
##路
##延
##寢
##珍
##裁
##逆
##㎉
##装
##特
##傍
##好
##絡
##康
##尋
##靖
##槽
##窓
##塾
##芳
##樑
##架
##祈
##渴
##黃
##я
##割
##断
##坪
##妻
##倉
##奭
##彫
##撃
##猫
##邦
##开
##餐
##么
##尹
##亥
##弄
##項
##替
##仲
##帆
##ب
##ت
##承
##旨
##甘
##実
##詮
##纂
##ா
##க
##皮
##韻
##彙
##鲁
##聯
##墳
##銅
##具
##佩
##玲
##械
##忽
##滄
##析
##ᅠ
##｜
##肥
##白
##稲
##毛
##謀
##彰
##桜
##樹
##棄
##◯
##τ
##週
##凝
##沈
##叢
##攷
##ㅕ
##ㅠ
##射
##叔
##愼
##札
##雖
##須
##責
##研
##羊
##詰
##妖
##彼
##春
##ヤ
##變
##瑞
##蘇
##掴
##贓
##磁
##回
##鎭
##胃
##虛
##寒
##渠
##珉
##嬉
##檢
##э
##拂
##走
##矩
##⨯
##灣
##否
##东
##站
##号
##岡
##舍
##睦
##↓
##濱
##腑
##齊
##賠
##４
##衡
##繩
##弾
##頼
##到
##括
##悠
##鹿
##哈
##ი
##←
##萌
##恵
##寃
##嫁
##職
##你
##躍
##寸
##導
##ｷ
##蓉
##藝
##キ
##曾
##這
##璟
##贈
##陣
##習
##雁
##辦
##芝
##歳
##紹
##庶
##岳
##泊
##死
##假
##肢
##痛
##த
##跋
##懷
##嘆
##敗
##辿
##禹
##韋
##登
##謝
##梁
##−
##伊
##訪
##芸
##転
##穴
##掘
##敦
##哉
##乎
##擾
##浜
##滝
##楞
##零
##饔
##団
##検
##医
##峯
##経
##嬪
##ا
##م
##ی
##و
##苦
##ぉ
##儉
##玉
##虞
##險
##幡
##璧
##燥
##傷
##効
##呂
##➋
##党
##憶
##冥
##辰
##賣
##菴
##許
##打
##斬
##虜
##庭
##訓
##鐘
##折
##必
##▒
##ネ
##慄
##哀
##蟲
##若
##悔
##涯
##稽
##豆
##午
##矢
##青
##闇
##鹽
##喩
##韩
##赴
##齡
##嶽
##殊
##癖
##讐
##竺
##内
##絃
##彈
##每
##濡
##魂
##翼
##β
##秦
##凶
##忌
##途
##燈
##兜
##靜
##婢
##侯
##檀
##髪
##黒
##鎬
##ユ
##熟
##嘉
##盆
##葬
##劫
##技
##狗
##悟
##獻
##鉄
##湧
##迅
##兮
##豊
##固
##遜
##₂
##牧
##詳
##已
##帽
##稷
##宥
##ョ
##竝
##碧
##π
##ζ
##琴
##演
##拙
##衍
##紬
##批
##評
##伴
##漑
##溫
##墓
##▽
##幸
##損
##甫
##棟
##劇
##坡
##堆
##旋
##▼
##宣
##莫
##曉
##祝
##酌
##牒
##屠
##畜
##ⓒ
##眉
##当
##万
##灰
##適
##雷
##发
##产
##ß
##偈
##与
##妙
##刹
##葵
##尼
##领
##导
##姚
##賞
##军
##总
##勤
##勺
##屯
##攻
##丙
##荒
##毁
##忘
##揭
##規
##抽
##ヲ
##斎
##屛
##沖
##最
##惡
##続
##顯
##⌟
##未
##辨
##巧
##凰
##乃
##即
##恐
##溜
##沛
##伽
##抱
##▴
##悪
##端
##顧
##鍊
##昇
##模
##ﾗ
##ｯ
##振
##慣
##煙
##状
##態
##▷
##梧
##欣
##↘
##肩
##衝
##背
##♤
##د
##ن
##擔
##訂
##徑
##妾
##繡
##袍
##ﾄ
##ﾙ
##籠
##独
##卍
##为
##脇
##赤
##χ
##隙
##⑩
##胤
##ｒ
##輕
##錐
##丈
##孤
##脊
##杉
##半
##違
##暴
##ｸ
##ｽ
##履
##爾
##门
##隸
##ي
##ك
##笛
##⑮
##收
##泣
##蘆
##蟹
##昭
##湯
##胸
##薪
##ㅑ
##揚
##鎮
##養
##賊
##刃
##鼻
##卒
##坤
##ა
##脈
##س
##宜
##蜜
##经
##凌
##莖
##７
##━
##乞
##懺
##姑
##兄
##庫
##掌
##召
##洲
##隨
##筋
##頃
##傅
##潭
##偏
##叫
##謁
##奔
##驚
##晃
##操
##席
##雕
##晋
##梅
##輛
##刷
##晉
##恋
##巡
##烏
##促
##倒
##９
##８
##視
##餘
##矣
##坫
##盒
##旭
##呪
##糖
##倂
##崎
##梨
##长
##组
##拔
##突
##爆
##専
##兆
##遊
##爽
##骸
##对
##充
##薦
##諸
##退
##幌
##邱
##叉
##姓
##画
##稧
##諫
##ﾌ
##焼
##雍
##竟
##ŋ
##繼
##粉
##據
##杭
##飯
##襲
##＋
##客
##慕
##狩
##謠
##щ
##推
##吾
##腫
##哥
##湜
##煩
##増
##ｏ
##€
##悅
##♂
##終
##童
##✕
##倡
##硯
##翰
##逸
##耶
##候
##貌
##麟
##佳
##押
##舶
##➌
##犀
##仇
##壻
##碎
##乙
##逃
##誕
##譽
##儒
##赦
##爱
##盛
##网
##播
##簿
##芒
##ω
##累
##禍
##б
##頓
##諦
##脾
##釉
##幷
##霧
##芬
##祕
##聽
##１
##円
##困
##汐
##執
##欺
##瓊
##殖
##懼
##杏
##暮
##汁
##鈔
##▨
##藻
##雪
##猛
##▤
##鬪
##鍼
##窯
##捧
##蜀
##嘗
##敍
##予
##乾
##ㅃ
##这
##淚
##閉
##肺
##疾
##患
##脘
##搜
##療
##恭
##塚
##溝
##溟
##箚
##莊
##懿
##獣
##卿
##繕
##曼
##耽
##桐
##塘
##宏
##廻
##誓
##ⅵ
##瑩
##㎠
##ρ
##帰
##唄
##堅
##槪
##閒
##闘
##ه
##峽
##宵
##閥
##岐
##滯
##昊
##苧
##夕
##漠
##朱
##撫
##慈
##頌
##距
##離
##◑
##劒
##軸
##裔
##狄
##步
##选
##轄
##騎
##怪
##授
##ぃ
##范
##央
##幼
##ﾒ
##譯
##电
##业
##ص
##禱
##徹
##馳
##彬
##甚
##避
##弩
##亜
##該
##莉
##駄
##悩
##覇
##嗣
##誦
##瑜
##鉢
##拘
##ⅹ
##卽
##筒
##φ
##專
##犬
##郷
##臭
##ˑ
##駐
##丑
##时
##间
##豚
##総
##綜
##騰
##謄
##歴
##狹
##恣
##斑
##拉
##堀
##綴
##寇
##憐
##揮
##婆
##伍
##腺
##訟
##按
##排
##巢
##逐
##被
##掩
##蓋
##酬
##削
##措
##翊
##珪
##借
##貫
##仍
##㎐
##涉
##趺
##応
##翁
##淫
##懸
##役
##ل
##游
##覽
##峙
##塞
##奧
##מ
##א
##燕
##栢
##冷
##甑
##紂
##壹
##ⅶ
##脫
##仗
##響
##狂
##濤
##照
##ش
##麒
##砕
##宰
##楷
##舌
##髮
##戊
##戀
##尔
##з
##妓
##⑴
##▩
##ц
##冊
##迫
##秒
##膳
##権
##富
##斯
##杯
##投
##ɔ
##朗
##战
##篤
##昨
##亦
##ㅍ
##診
##ᄠ
##飮
##冕
##陀
##劑
##浮
##黎
##勸
##僞
##箱
##閭
##盲
##覆
##剩
##霊
##燦
##免
##各
##勁
##獨
##混
##弁
##巷
##ヶ
##掛
##ｺ
##抗
##諭
##寛
##⃞
##耐
##竿
##膜
##勅
##烟
##焦
##ⅴ
##腐
##灯
##悳
##睿
##函
##窩
##槃
##諱
##桂
##ﾀ
##ﾏ
##鏞
##奬
##勉
##怠
##〓
##巳
##複
##篆
##針
##弥
##厥
##棒
##枯
##ㅏ
##観
##藍
##ⓡ
##句
##魯
##瑤
##僚
##堤
##渚
##換
##缺
##尽
##黑
##瘡
##幣
##貯
##ｼ
##舎
##鱗
##迎
##塗
##螺
##拜
##濫
##ग
##ा
##藪
##薇
##欄
##辯
##壊
##３
##幄
##遇
##讓
##吹
##ल
##क
##輝
##寄
##貧
##酷
##ق
##騒
##需
##徳
##勘
##釘
##砲
##敢
##龙
##⇔
##饌
##招
##沒
##衰
##毋
##裳
##寓
##綺
##或
##階
##遙
##泥
##貪
##溺
##壬
##头
##穆
##睡
##ｅ
##ת
##菟
##凱
##荊
##粒
##塊
##核
##幅
##耀
##⟶
##股
##叩
##岬
##疎
##ط
##賻
##⇧
##紡
##غ
##甁
##融
##眠
##煉
##漕
##腕
##稟
##嫌
##ｃ
##ｶ
##奠
##弔
##愁
##臨
##个
##雇
##凸
##詠
##餠
##朔
##स
##廊
##晶
##輦
##≒
##醞
##供
##⚫
##县
##妄
##歎
##璿
##雙
##崩
##畫
##र
##碍
##ல
##嵐
##癸
##ａ
##膺
##〮
##垂
##証
##慮
##闕
##琓
##埋
##盈
##￥
##菌
##嬰
##朋
##静
##曇
##悉
##蕭
##索
##庇
##俱
##歡
##誥
##擬
##烽
##梓
##蜂
##㈎
##仰
##溶
##囊
##脳
##碩
##杆
##寿
##憑
##ｇ
##⑨
##©
##綏
##豪
##襄
##墟
##殉
##反
##傘
##团
##垣
##蠻
##ʃ
##閃
##箭
##苑
##卑
##亞
##票
##ⓔ
##黄
##戎
##壯
##呈
##题
##廬
##ج
##享
##ة
##謹
##㈀
##弱
##衷
##裕
##厳
##朽
##婁
##占
##蔭
##涅
##歪
##弗
##礼
##薄
##疲
##铁
##ל
##瀑
##庚
##璋
##楡
##悌
##ﾎ
##◉
##翟
##禾
##快
##頂
##垈
##ю
##毗
##枕
##ˮ
##却
##♧
##禧
##箕
##³
##斥
##蛇
##˝
##稿
##測
##曺
##炅
##滋
##哭
##ﾊ
##漏
##🏻
##ɪ
##蒙
##妣
##槐
##遼
##幽
##ð
##爻
##謨
##翔
##軟
##ү
##◁
##魁
##讚
##餓
##媒
##旿
##棚
##款
##余
##郁
##獸
##盞
##ˈ
##伐
##崗
##軽
##汉
##扉
##剣
##⑪
##撰
##罔
##鍋
##馮
##魄
##苗
##縱
##躬
##ա
##红
##们
##斧
##俠
##旺
##両
##薰
##礁
##吟
##蒸
##黙
##阻
##姜
##⭐
##贖
##沃
##垠
##剌
##綬
##汽
##訣
##⦁
##蓄
##滑
##遂
##帯
##鸞
##膏
##粟
##緖
##禰
##緊
##脱
##説
##顚
##萱
##暎
##澈
##傾
##珥
##訥
##峨
##瓦
##誇
##鑛
##ㅔ
##₃
##ㅗ
##踐
##遲
##懲
##嵌
##槨
##抑
##舰
##杓
##豐
##➡
##鳩
##輯
##塑
##浚
##趣
##亀
##郵
##💕
##添
##晷
##昆
##衿
##諡
##掃
##蕩
##揺
##頸
##単
##虫
##儚
##癡
##荀
##暖
##堡
##拳
##旦
##塡
##蠟
##拾
##橫
##駒
##誼
##偶
##沿
##ㄲ
##駿
##坑
##挺
##泗
##觸
##繋
##租
##蒲
##藁
##禽
##❚
##横
##⑧
##醮
##＜
##炫
##虐
##暇
##浙
##ｘ
##援
##緯
##燁
##霜
##禦
##燧
##沮
##畓
##圈
##涙
##賤
##憂
##凉
##竪
##痰
##ﾜ
##牟
##賈
##报
##摘
##柔
##ح
##霞
##楼
##坎
##怯
##扇
##槍
##柵
##汝
##ค
##ว
##เ
##ส
##ต
##า
##准
##璜
##崙
##裴
##璽
##♨
##渤
##敷
##麾
##❤
##恥
##勃
##脚
##馨
##双
##梦
##溢
##読
##冀
##嶋
##遵
##◀
##戴
##⊙
##魏
##晦
##撒
##垢
##膽
##ㅆ
##灌
##阳
##⑭
##斤
##匹
##臼
##机
##汀
##販
##売
##廡
##誣
##礎
##賑
##什
##瀉
##猿
##廐
##詵
##贍
##銓
##ـ
##迦
##昔
##討
##变
##华
##幾
##阜
##夾
##褒
##ล
##慾
##捷
##虚
##炯
##儲
##濯
##ʔ
##น
##ก
##嵩
##綿
##┼
##┤
##旬
##粧
##芽
##糾
##鞫
##ม
##ใ
##恤
##猪
##濬
##透
##胴
##塵
##灘
##厭
##鬱
##繪
##卞
##甸
##尸
##墻
##҉
##濁
##貿
##迹
##燒
##遁
##ב
##ה
##毫
##硬
##ᅌ
##泄
##昱
##毎
##车
##ө
##斡
##隍
##晨
##扶
##臥
##緩
##髓
##马
##牢
##冶
##霸
##翠
##飼
##孚
##鞠
##磐
##遣
##肯
##趾
##ㅤ
##ㅖ
##蓬
##ง
##脂
##ⓐ
##欠
##絆
##❷
##扈
##琵
##琶
##捐
##愈
##娥
##隅
##壞
##⑸
##剪
##辱
##蝕
##矛
##眩
##宛
##芙
##怡
##岑
##諧
##อ
##宦
##勖
##鷲
##昶
##ﾘ
##遍
##庾
##且
##箴
##½
##絞
##膝
##甕
##猷
##拓
##癒
##蹄
##繰
##∥
##聴
##资
##焚
##焰
##蔽
##橘
##録
##恕
##狼
##靴
##员
##湛
##臘
##લ
##獵
##迪
##虹
##愍
##雑
##瓚
##譚
##羌
##兢
##⑵
##▵
##动
##搖
##蘊
##ک
##浸
##麥
##۰
##遞
##خ
##廓
##旌
##皓
##泡
##済
##貊
##櫻
##袁
##粗
##ி
##兀
##劣
##縮
##鉛
##飲
##ﾠ
##鹵
##穂
##醜
##飡
##挑
##搬
##呑
##笞
##傲
##ｈ
##締
##澗
##乏
##❍
##罕
##咸
##貶
##頑
##隋
##竭
##ㅛ
##跪
##墮
##聰
##甄
##¨
##鈍
##✨
##碗
##煌
##児
##栽
##詹
##詐
##懋
##茅
##歐
##曜
##豈
##ｓ
##ɑ
##汰
##努
##較
##⃣
##諾
##羞
##滴
##繁
##驪
##馥
##י
##攝
##┃
##❘
##参
##争
##箋
##ᄶ
##杰
##枚
##貸
##寝
##卜
##驅
##蔡
##浅
##过
##釜
##廛
##牲
##俸
##惜
##进
##矯
##腰
##琉
##幢
##做
##伎
##肌
##艾
##侮
##軾
##鄧
##攸
##尚
##貝
##➀
##笏
##ｉ
##戻
##ˊ
##醉
##∘
##帛
##媛
##⑰
##燭
##广
##➂
##匡
##禿
##暑
##单
##擴
##牽
##駱
##❗
##❶
##ψ
##潔
##⇨
##裸
##炭
##潛
##➄
##乭
##扮
##ﾋ
##£
##ｄ
##娶
##ર
##黔
##寵
##邵
##儺
##峻
##皐
##肇
##銜
##⑫
##耿
##ᐧ
##閻
##俎
##￿
##咨
##諍
##稀
##灼
##罷
##俯
##撤
##ห
##濃
##关
##琦
##瑾
##獅
##❻
##斌
##凹
##鮑
##畏
##ز
##崑
##ⅸ
##斐
##粹
##湾
##➅
##昻
##聃
##囑
##鐸
##闢
##讖
##犧
##悼
##寡
##磯
##戍
##糞
##℉
##奸
##◻
##纏
##畝
##拒
##舒
##œ
##鞍
##胥
##頤
##盾
##仏
##碣
##淮
##㉰
##ㅉ
##➃
##∀
##酋
##ะ
##脯
##鄒
##㎸
##汎
##轍
##喚
##ｗ
##繫
##陷
##箇
##↖
##戈
##飜
##鞭
##騷
##筑
##艮
##弧
##癌
##ⓑ
##裡
##瀛
##➎
##紳
##จ
##髻
##銳
##惱
##雉
##粘
##採
##郊
##埼
##畔
##¹
##彭
##堰
##▦
##✅
##ㅚ
##幀
##辟
##皿
##従
##➍
##洑
##鎰
##ɛ
##¥
##＾
##抹
##▣
##僖
##❸
##旱
##➝
##誅
##遥
##涵
##鎌
##旣
##緋
##憤
##嗚
##逝
##僻
##訶
##疊
##邸
##奚
##檜
##瀆
##肄
##菅
##悖
##张
##嫡
##↙
##厲
##牡
##晏
##毬
##⒜
##娼
##挾
##獎
##篚
##鑄
##喉
##￣
##祇
##洵
##凛
##飢
##ㄸ
##揖
##釣
##▸
##㎤
##￦
##饒
##貂
##ᆔ
##◐
##ⅷ
##❹
##匿
##灸
##陪
##杞
##緑
##₩
##⑬
##覈
##प
##沸
##但
##邢
##薛
##稻
##龕
##较
##΄
##尖
##❺
##蔚
##憎
##蔣
##⑲
##ન
##澮
##㉲
##扁
##滉
##裨
##篠
##▢
##渭
##綵
##汲
##購
##疵
##⇢
##㈔
##袞
##¼
##㉠
##渋
##董
##└
##罍
##頒
##訃
##逍
##懶
##∗
##ㅿ
##裵
##楮
##੦
##穡
##㈐
##訊
##▫
##⠀
##ⓧ
##潘
##瀋
##㉯
##㎟
##礪
##曦
##曙
##萩
##㉮
##晤
##ㅟ
##濊
##醴
##₤
##⓷
##閨
##¤
##禔
##穩
##￭
##漂
##殯
##đ
##➜
##➏
##⑱
##∴
##⑶
##㎗
##珖
##㉱
##⑯
##盥
##▮
##ㅢ
##⚪
##┗
##⧠
##陜
##▻
##喵
##▹
##ㅄ
##陝
##蹂
##⓶
##⓵
##►
##➞
##💀
##▧
##⒝
##湲
##├
##祔
##⌜
##➔
##➐
##❏
##㉡
##🙂
##∎
##壎
##譴
##➑
##㉖
##ⓛ
##⑳
##✔
##❑
##👉
##⌀
##㉣
##으
##ᅡᆫ
##이
##다
##ᅳᆫ
이
##는
##하
##에
##ᅡᆼ
##ᅳᆯ
##을
##서
##의
##로
##고
##지
##ᅥᆫ
##ᅧᆫ
##가
##어
##ᅧᆼ
##시
##ᅩᆼ
##ᅮᆫ
##해
##저
##한
##ᆻ다
##은
##ᅡᆯ
##를
##리
##도
##기
##ᅮᆯ
##ᅯᆫ
##니
그
##과
지
시
##ᅳᆼ
가
##라
##자
거
##스
##여
아
##인
하
사
##으로
저
##요
##게
##ᅮᆨ
##ᅩᆨ
##사
수
있
##원
##정
대
##나
주
어
##장
기
##들
##ᅳᆷ
##아
##에서
##ᅩᆫ
##ᅢᆼ
##화
##부
제
##되
##면
것
##ᆸ니
자
##적
##려
##러
##야
##ᆸ니다
##대
##만
##ᅧᆯ
##제
##상
서
과
나
보
전
다
위
##주
##ᅢᆨ
한
마
미
##회
##성
바
##와
##치
##업
##하는
##용
##일
##수
정
##유
##보
조
화
모
등
##조
해
##구
##년
경
##거
고
부
##전
##버
##하고
##미
##우
##ᅳᆨ
여
##할
공
되
의
일
중
##계
##국
##하여
##관
이ᄅ
인
관
##문
상
##산
##소
##동
##비
오
##데
##터
##했다
##며
있다
##처
##ᅣᆼ
##까
##행
##신
유
##무
##이다
##간
내
##습니다
도
##ᆷ을
소
##드
##위
##진
##워
##명
##래
##트
비
##체
차
##금
있는
20
##공
개
없
##분
우
##마
말
##히
##ᆨ을
##세
##었다
때
않
구
##된
##개
##단
버
처
노
국
##그
생
##ᆷ이
##안
신
##차
##법
##당
##재
##생
연
피
예
##내
발
##선
##한다
##경
이름
##실
##역
안
원
방
및
##교
##물
##음
따
##월
또
선
세
추
통
무
##르
##방
##료
##학
##력
그러
##항
##호
만
##록
##오
##지만
##ᅧᆨ
##운
##식
동
##ᅥᆷ
##었
##타
##에게
아니
##하게
##바
##ᅦ이
##에는
실
##민
##영
##통
##른
##들이
##건
문
같
##00
더
##던
##연
##류
교
장
계
##각
현
##속
##적으로
분
성
에
진
요
##설
영
것이
##ᅮᆷ
결
##청
##출
##적인
확
##양
##까지
최
대한
감
##해서
경우
재
##모
사라
##발
스
##난
치
한다
##급
특
적
##반
불
강
##부터
##표
와
당
##중
##능
##련
##ᅳ로
##권
많
받
##키
건
들
##작
##후
알
매
##했
##든
설
후
##하기
위원
##육
##혀
반
단
우리
##술
##져
##울
##령
##준
행
##심
법
##라고
##직
##티
##본
##면서
##ᇂ게
201
##질
배
##는데
##ᆻ습니다
##종
할
운
##합
라
##별
회
##런
##입
##형
포
물
##번
##결
##증
##천
##피
##테
##격
##품
##린
##포
드
##억
##두
##디
필
때문
사업
입
있습니다
증
하는
남
야
따라
##께
19
두
본
##태
사람
작
##프
##점
직
##매
위해
##토
##약
참
평
##리고
학
##험
##도록
10
##석
못
##더
출
각
##레
##하지
##획
규
##립
활
##으며
##들은
산
그런
역
외
##군
##복
명
##량
호
##환
##ᅥᆯ
##책
##하다
함
##함
##크
##것
집
##임
금
제1
##라는
사용
파
심
올
##님
지원
##루
생각
타
##았다
##들의
##감
##론
검
변
달
##ᆫ다
청
종
어ᄄ
필요
##노
같은
##외
##녀
것으로
목
##규
지금
판
##족
환
하고
통해
##향
로
##등
간
##황
혀
양
##파
초
또는
코
새
##강
##기를
##판
##되는
앞
##란
지역
지난
##편
##에서는
좋
##달
관련
##축
것이다
이러
##입니다
체
다른
##남
것은
##례
임
잘
##이나
##날
##절
살
업
열
문제
때문에
이상
##들을
##근
들어
자신
##망
##목
##활
가지
##에도
한국
것을
##추
위한
투
약
높
은
##위원
며
서울
을
너
##돼
그래
##택
하나
##겨
##송
질
있어
12
##네
머
##씨
##기도
점
민
총
##액
표
취
##배
200
##보다
협
채
농
##병
##거나
함께
##랑
##습
##사를
##현
근
##대로
맞
그리고
운영
##되어
##였다
는
손
밝
를
제2
##변
데
##집
##카
형
##리를
부분
이런
##예
##된다
##율
가능
교육
##하면
다음
##기에
편
속
##코
##희
##지는
##담
##률
돌
##자가
##찰
##하며
##견
히
##럼
리
정도
했다
##초
없다
군
뒤
##쳐
11
##았
사실
번
##리는
##림
걸
##사업
##광
##승
##자는
##머
##느
김
발생
복
##온
##합니다
또한
광
아이
토
게
된다
##너
충
##득
등을
가장
##셔
누
순
애
만들
식
준
항
##성을
##정을
진행
시작
##즈
밝혀
완
##말
##자의
없는
##해야
눈
이후
##지를
관계
##투
이번
현재
연구
날
##장은
카
##푸
크
##접
##겠습니다
여러
관한
많은
창
했
느
사회
이용
효
##ᆸ니까
추진
보고
허
끄
관리
있었다
##애
##력을
##하였다
음
메
시간
줄
용
절
##는다
결과
내용
##극
##ᆸ게
##름
다시
##언
대상
##허
##이고
계획
##기관
모두
##독
얼
담
##존
언
프로
시행
##평
대해
합
독
하지만
##염
따른
해당
##받
모든
##장을
##색
##냐
##처럼
될
##될
권
면
##시키
기업
국가
예산
##으면
승
15
상황
##ᆯ리
##쟁
태
##씀
찾
향
패
##ᆺ이
네
말씀
##협
바라
##악
##조제
##메
##째
어려
말했다
##응
책
##기가
##비스
##락
그래서
대표
##니까
대해서
디
##ᆫ터
박
큰
접
그것
많이
##션
##성이
온
##북
##브
##ᆻ고
정부
##라도
그러나
밝혔다
기술
이어
전문
30
삼
##쪽
등의
개발
정보
다양
어떠
##ᆯ이
나타
##인이
제공
있었
제3
어떤
##관리
방법
##위원회
포함
확인
백
중요
미국
뉴
쓰
돼
##졌다
병
##끼
천
있을
##박
아니라
##되고
##상을
친
##불
저희
라고
##겠
##장이
있고
세계
좀
특히
기준
규정
##ᅦᆫ
##들에게
##검
##객
18
##학교
싶
사이
##스트
이렇게
갖
##켜
##통령
새로
##익
##레이
환경
##기는
그렇
평가
##화를
안전
죽
존
##사가
##늘
대통령
국민
##으나
북
##시설
##서는
##ᅯᆯ
일반
이를
##순
그는
##므로
##의를
별
##죠
같이
##층
경제
##하면서
있도록
##사는
개정
##자를
##백
겨
업무
지방
수도
##됐다
##기업
##인의
##어나
볼
넘
##랴
범
행정
##되었다
일부
##교육
다양한
##원이
##er
설명
##가는
끝
##겠다
##범
##때
가지고
##막
##츠
이것
되어
그런데
##리가
논
##없
하여
##ᆯ을
##ᆻ던
##이는
중국
이유
참여
모습
잡
캐
실시
어떻게
일본
##ᆺ을
13
##ᆷ에
14
##원을
되는
설치
철
##써
##0년
##확
사항
##이었다
##칙
16
증가
##스테
문화
##ᆫ드
##굴
##사의
##융
커
보면
국내
##창
##음을
글
티
##플
활용
사건
쉬
##on
그렇게
홍
##에서도
##채
활동
##다는
100
이야
##렸다
##회의
##최
조사
##앙
구성
학교
##ᆷ의
##원의
나오
서비스
##그래
##케
프
예정
##ᆯ라
계속
늘
빠
17
산업
추가
된
시장
측
않고
나는
도시
##패
##취
플
##략
특별
적용
먹
떠
##탁
상기
축
##되었
##센터
받아
결정
있으며
제가
폐
개선
필요한
자신의
합니다
##로나
##치를
당시
경기도
정책
기록
주시
##균
내가
왜
##지고
어느
##침
##도를
##길
뜨
좋은
귀
이러한
상태
치료
##다고
202
##원은
시설
##페
이미
##in
푸
기자
##시간
##력이
트
##큼
직접
##열
##착
법률
벌
##주의
##살
해서
위해서
21
##년도
전체
첫
동안
경우에는
주요
##들과
테
##벌
자료
투자
이에
##이며
급
##이라
베
##ᆺ한
난
있는데
이날
없이
이라고
바로
##아가
갈
사람이
강화
##커
아무
올해
확대
폭
코로나
##19
엄
피해
##조의
키
막
답
##어요
않은
효과
아닌
25
의미
등이
##징
몇
마련
##측
따르
##탄
브
처음
##짜
##지가
레
등에
새로운
곳
잠
##00만
흐
만들어
왕
지속
이하
##인데
##릴
##시는
이제
##식을
##기로
최근
##ᆻ는데
##하거나
##위를
##인을
##철
##퍼
##ᆩ에
위원님
생활
힘
즉
너무
이루
##다가
기본
꼬
육
보여
나가
경기
먼
느끼
앞으로
인정
생산
##부장
물론
제4
사랑
영향
신청
##ᅥᆯ어
##효
##베
기간
학생
분야
##계획
##항에
싸
##팅
##이라고
##친
##욱
씨
희
##ᆻ을
얻
##충
있다는
##제로
그의
##회를
##기술
##왕
으로
한편
##스러
않는
혼
휴
판단
시민
개인
극
다만
##산업
여성
그녀
응
##리에
발전
기대
##지역
##했던
이는
##어서
이해
자체
##도가
여기
유지
요구
과정
199
프로그래
낮
나와
국제
##환경
##하여야
##찬
##곡
##로서
게이
##정보
기능
나타나
않았다
고려
##이라는
##엔
높은
월
##습니까
##봉
있다고
기관
황
분석
##ᆻ는
##총
##되지
##혼
##부분
뿐
##도로
상당
##ᆯ로
공동
##물을
##특
##인지
##가지
에서
##at
준비
금융
건강
알고
선정
오늘
##흥
악
돈
능
##시에
존재
바ᄁ
자기
##답
##수를
적극
22
상대
터
주민
##드리
놓
의견
수준
50
하지
인간
클
되었다
것도
##농
조금
전국
##하도록
##주는
따르면
대하여
있어서
##명을
##ᆷ은
중심
##지원
##밀
##시아
보호
침
##글
지난해
##시장
##명이
##죄
24
판매
##제를
모르
마음
##조제1
##인은
둘
##an
알려
공공
부산
이라
##or
무어
23
##연구
발표
최고
##긴
##하려
##안을
지정
##운데
개최
역시
방송
매우
##상이
하면
##개발
##8년
현장
##ᆻ으며
보내
##널
대비
얼마
선택
대구
찾아
##슨
따라서
##치는
울
##부를
않는다
먼저
##단체
##계를
기존
##곳
도우
우리가
까
역할
##나라
해야
아직
더욱
##수가
제출
##5년
##지에
##스를
##금을
위하여
일이
##문화
의한
봐
##손
최대
##지도
가족
##보고
올라
확보
##서를
##무원
탄
##점을
노력
각각
##7년
감사
구축
검토
얘
변경
코로나19
##누
##세요
결국
##복지
##놓
공개
만나
##이가
성공
##가를
헤
##9년
##념
중앙
인해
자연
품
것입니다
##인다
##ᆨ스
가운데
떨어
라는
의원
길
##으로써
말을
받은
##같
시스테
##ᆸ을
돌아
수행
##냥
##en
괴
대부분
##시스
##6년
##했고
예방
지적
풍
지급
##없이
##동을
소비
때문이다
##진다
##전에
들어가
밀
##블
그러면
000
지나
자동
방문
골
규모
lt
##이트
##ar
##000
##부는
경찰
미래
##로부터
의료
건설
뭐
혈
긴
##탈
##혁
##마다
대학
##품을
되고
피고
29
gt
##장님
##ᅥᆷ프
블
중요한
삶
##수는
##정이
##럽
##시켜
##하겠다
조례
##페이
영화
##께서
되었
##도의
##사에
##선을
감염
##랜드
비로
송
어린
##촌
##이었
##관은
이루어
##소를
데이
##잡
않았
##스로
##일부터
##드는
##전히
##새
자유
##들도
혹
##리아
제5
오래
##2년
##ᆻ지만
##상의
변화
##지요
##혈
##아요
꾸
##자료
깨
얼굴
해외
없었다
##개월
제작
##1년
크게
처리
##십
##al
##원에
정말
당신
##자치
팔
##대를
##정책
##정한
28
장애
##씩
##장의
고객
##람
##심을
오후
해결
##도는
목표
질의
##4년
##명의
감소
##폭
##머니
##문을
##사회
##동안
제외
석
제품
##더라도
그리
어디
서로
##지의
않을
있으
##칭
31
대응
##한다고
##했다고
##안전
##조제1항
사고
##으로서
##든지
인터
공급
규정에
26
콘
조직
관광
우선
27
말이
주장
조성
외국
붙
수가
##권을
신고
위치
경쟁
풀
##덕
후보
정치
##과의
문제가
착
집행
성장
방식
정신
##자인
바이
오는
##3년
##링
바랍니다
##숙
웃
내려
거의
즐
듯
공격
##es
같다
암
징
의해
##로는
대상으로
혁
##기간
봉
조선
##걸
교통
핵
##러스
전에
##귀
40
##각을
격
##찌
맡
##수의
##마트
찌
충분
구조
##메일
##훈
부족
##억원
##기의
대해서는
뉴시스
한번
##전을
시험
##아서
검사
뛰
예상
##부의
##감을
##돌
##가가
기반
거래
마지
몰
이메일
##즌
듣
##뿐
##뢰
배우
##일까지
##흐
##벽
##ᆷ직
비교
헌
답변
등장
##줄
활성
누구
##자에게
믿
표현
##조사
##느냐
##다면
집중
##대의
##부에
일을
사무
##릭
##자로
제주
가격
##음이
##자와
##트를
제한
반영
탈
##올
##밖에
갑
##촉
강조
정확
압
종합
##려고
##적이
##풍
##왔다
협력
만큼
홈
형태
##비를
##볼
예정이다
제1항
홍보
경영
##어가
감독
##인가
##하다고
##폰
마지막
공간
##국장
##슬
하겠습니다
보건
##턴
##소년
##한다는
우리는
받고
주로
있게
##도시
##ic
요청
니
때는
등록
담당
##약을
##틀
##룹
짜
계약
사례
발견
12월
우수
##하시
위반
##폐
친구
됩니다
##스는
##라이
주변
아래
나온
성과
전남
좋아
보이
현대
인천
아니다
##스터
써
##너지
깊
##업을
##텐
비용
잔
사람들이
영향을
##으로는
##스의
##라인
번째
윤
이야기
##암
스타
##린다
상승
보다
여러분
3월
노동
있던
##it
##성과
등으로
사진
##하자
있지만
##탕
앞서
의사
납
가까
소속
이전
##하는데
6월
##봐
##척
##사항
##격을
##압
제6
모습을
##대에
##먼
녹
나서
민간
수출
하며
##부가
##시험
건축
##뜨
연결
##임을
사람은
##위에
##어야
##관이
제시
##헌
데이터
##위원장
회의
##물이
페
도로
컨
방향
하루
##역을
##심이
마치
읽
정하는
흔
광주
웨
##험을
##공사
자리
수립
##조에
9월
##거리
##세를
선거
그대로
아주
##완
퇴
때에는
##웨
설립
이동
1년
궁
##점이
##클
##물의
견
평균
염
##쉬
도입
언제
##관계
사업을
##국의
북한
7월
나라
##경제
중소
##필
##칠
다음과
맞ᄎ
##무를
10월
쪽
##르는
단계
현실
좌
##끄
##상에
과거
4월
##갈
##은행
자신이
절차
계획이다
보인다
통한
##이를
통합
아버
않아
##벤
##님이
##장에서
##스가
드리
1월
있기
주택
다르
##하셔
주시기
##원에서
##개를
5월
그냥
##었던
##정에
뇌
참석
업체
게임
뜻
##참
달리
행사
행복
촉
루
##자에
대신
퍼
숙
공무원
이게
역할을
청년
구체
끌
##한테
빨
##거든
목적
##의회
위험
판결
기타
기획
알아
##량을
삼성
바다
##슈
##어난
작은
소유
가능한
과학
##으니
고용
##자리
제대로
이와
관계자는
넣
##별로
확진
순간
저는
##ᆯ러
전망
##구를
##움
##쿠
##교통
사망
##넷
드러
##스크
##ᆸ고
전문가
갖고
##잖
그다
역사
슬
##생활
정도로
작성
스마트
하는데
198
죄
제조
그때
인사
##ᆻ음
##궁
가진
혁신
##기준
최초
스스로
잘모
파악
##하지만
##했습니다
##장에
러
##le
살아
##원으로
##증을
##됩니다
가져
사회적
운동
하였다
##st
무엇
실제
##치가
작품
8월
그가
##ou
##자들이
##핑
안정
라며
망
되면
11월
단체
##건을
##구하고
글로
이르
오전
##하던
민주
##센
훈
의하여
##에서의
있음
##고를
불가
##이기
뉴스
몸
동시에
##획을
중에
소방
움직
근로
무슨
농업
만든
저희가
##성에
자동차
밖
60
해도
워
마을
프로그램
신규
주는
전기
##오는
##개의
생각을
##와의
곧
##령으로
##혜
##주택
일어나
직원
##있는
##디어
인한
##업체
##ᆯ레
행위
##음에
그것은
##옥
##뉴
##들에
##동산
비스
제도
전자
내용을
##만큼
제7
공유
##통신
영업
##골
동일
구매
##ᆨ트
어려운
##꼬
부모
팀
##지로
##휘
##털
여행
##단을
없어
##리의
선수
거쳐
##ion
##회가
##욕
효율
수입
못한
##대한
우려
됐다
땅
이라며
##되며
서울시
시즌
##좌
청구
아마
펼
##빠
각종
우리나라
사실을
회사
##ᆸ다
꼭
##라면
특징
##드를
제안
활성화
##평가
##움을
##대가
차지
최종
앉
모데
가스
비해
책임
분명
##등학교
대한민
##하고자
시간이
##행정
해당하는
빈
청소년
행동
수요
부담
휘
경험
위해서는
출연
##제가
##펴
##상은
##관을
얘기
두고
##혹
참가
받을
##만원
빼
##리지
중심으로
형성
조정
전혀
상당히
매출
##중에
##보다는
말한다
소개
글로벌
##스타
##투자
자세
논의
##팀
쉽게
2월
불구하고
이내
반응
덕
##하신
받았다
##거래
참고
최소
##지지
##텐츠
지도
이것은
경우가
보는
국회
##듯
낙
##내는
기초
있지
##냈다
th
##했을
국토
##ct
##꺼
나ᄂ
##ᆻ으나
재산
소재
##함으로써
확산
하기
현황
억
##히려
##으로부터
실제로
##맹
그러니까
##거든요
년
엔
##식이
벗
생각이
##ᆼ이
##드시
슈
##어도
금액
##시키는
달라
말씀을
전환
한다는
되지
기억
것에
살펴
묻
협의
술
대체
브랜드
예를
전달
##퇴
오히려
##했지만
##껴
##휴
그것을
##괴
심사
팬
##함을
##일에
관련된
##서비스
수는
##예요
전략
##회사
얼마나
도움이
사유
목소
근거
##분을
꺼
재정
전통
과정에서
##20
##었고
특정
##붙
##조제2
일단
##안에
정보를
겪
지하
없고
차량
상품
##하다는
인증
못하고
가는
그럼
마찬
원을
##시오
##하기로
체결
예술
플래
##대상
##비가
질문
##육을
영상
곡
색
##규모
##보는
##활동
재판
3년
##춘
##보호
혹은
작업
##줘
범위
연계
당연
##즘
반드시
모양
부동산
밖에
주식
##바이
숨
그동안
해양
향후
라이
부분에
적절
##더니
보유
칼
##회는
쏘
원고
단순
이상의
하다
##특별
핵심
##캐
아파
빛
##딩
##정의
검찰
##과학
받는
공연
점검
고민
시스템
대책
제8
##료를
마찬가지
##꾸
##사무
익
아니고
음악
중소기업
##하기도
지방자치
잘못
##50
##행위
##도에
문제를
##쳤다
잃
##납
찬
결혼
내년
##10
##주시
장관
흥
대전
##튼
현지
이사
지원을
##대표
어린이
##릭터
이야기를
유럽
보통
##나는
제기
기다
확정
##어를
좋게
##흡
##만이
##ed
부정
아까
어머니
복지
구분
더불
회복
00
그림
시간을
전시
##단계
필요가
만약
흘
##ing
##체를
##ᆻ어요
##om
##되면
##법을
##ᆼ장
희망
장기
쿠
배출
설정
##el
정상
결과를
##과는
##괄
2년
선고
바뀌
이라는
캐릭터
이행
##et
전쟁
##쇄
##자들은
##자원
신경
##는지
노래
##싸
사람을
느껴
##힌
##주고
##렴
전부
##보면
##르게
엄마
반면
사전
섬
설계
더불어
대법
##먹
##짝
가능성이
열린
옆
경우에
옥
없습니다
독립
##일을
쇼
##품이
욕
없을
##리로
##량이
##삼
플레이
##성은
대한민국
##ᅦ이션
##었습니다
의무
표시
정당
프랑
##에요
인식
##했으며
출시
##자들의
○위원장
제2항
체험
힘들
보험
##닝
##낸
##가의
사람의
싶은
스트
##페이지
쓸
기여
##소가
##성의
70
근무
##이드
취득
##로운
자주
##사와
에너지
것처럼
창업
##받은
##회에
삭
##권의
음식
##얼
##소에
액
선생
언급
##만을
##ac
자치
충분히
딸
##라마
공식
여기에
##킬
조치
안에
분위
##적을
흡
하면서
##하겠습니다
##르고
그다음에
걱
##겼다
##쩌
굉장
주고
끼
일으
유명
의견을
않다
관하여
##이자
아름
##장과
부분이
##학생
in
특수
설명했다
사람들은
뉴스1
##구의
##수록
적이
불러
넓
##문제
공정
이뤄
##대학교
진단
꽃
##빛
##같이
2차
197
##물질
##is
##인과
습
##식품
##우는
멀
보조
##30
체계
것이라고
##구가
##소득
##보험
내부
영국
냉
저희들이
##기와
소득
##몬
묘
독일
##실을
공부
조합
출신
##알
마음을
접근
혜
##서에
유통
중인
##분이
주인
거기
힘을
인터넷
수익
지켜
대로
##개정
##정부
공사
컴
##진흥
##과장
##호의
훈련
##정은
분류
덤프
비율
건물
##기관의
##화가
##운동
##려는
##대는
하게
##씨는
##예산
##ol
##쇼
##적이고
##회에서
##픽
##프트
##웠다
탐
발굴
국립
디지
머리
35
##처리
전반
##단의
##웃
##구역
나머
나누
##스티
##끌
##따
이때
##시고
범죄
##디오
2020년
##했다는
자격
첨
##나무
##톤
##분의
능력
가입
남아
오른
재미
많다
명의
여전히
거기에
##튜
금지
시청
##제는
##자체
가정
끊
여자
온라인
##익을
통과
##하였고
##대비
항상
겁니다
##대학
##씬
##했는데
굉장히
것과
##re
꿈
하나의
##트로
유치
##감이
편성
##치고
옮
##험이
뽀
제9
불법
활동을
자신을
레이
토지
##벨
##ᅪᆯ
높아
비롯
통해서
##ay
80
전투
##대책
속에서
##사로
##간의
한다고
부분은
손을
균
##금이
위에
##ᆰ은
있으면
바탕
그게
##인으로
자는
##겠지만
##am
##리즈
자가
다니
시작했다
##네요
나를
강력
##만의
##ᆺ포
캠
밤
수밖에
원래
##as
식품
방안
##장으로
내지
서비스를
떠나
나무
나타났다
측정
헌법
##분에
선발
2015년
##담을
1일
##맥
##벼
완료
##시스테
##12
센터
있었던
아니면
##행을
추천
##ᆻ기
##잖아요
언론
##덤프
##관의
시절
##상으로
측면
생략
##제의
##렌
졸
틀
인도
종류
택
##조제2항
36
제거
원칙
보니까
선보
##방법
디지털
##자기
하늘
임대
##일이
그것이
반대
사이에
##ᅪᆯ영
##엄
##본부
콘텐츠
##짓
완전히
##계약
있어요
에이
빌
젊
일자리
신뢰
##전의
2017년
재난
소리
조건
아동
##이어
##석을
##에선
신설
##끔
##명으로
던
우리의
특허
사용하는
지속적으로
##으므로
##지와
똑
점을
##쓰
2016년
호의
부여
장애인
##신을
2018년
동의
##산물
쌓
보였다
달러
일정
놀라
지식
기재
만족
진출
##에게는
국민의
엄청
##픈
##콘
보이는
수상
##bs
페이
취업
##킹
##ᆷ버
공모
5년
##스러운
##나가
전했다
실질
부과
혼자
돈을
비판
마이
기념
##없는
나오는
##인트
대형
##ᆸ지
매년
이거
##시가
지방자치단체
이끌
##수도
했습니다
본격
##계의
##ᆭ은
맥
##사고
공포
외부
지금까지
##멸
보니
생기
안내
광고
상담
상호
관심을
##빈
##재산
돌아가
후에
sk
st
##겠다는
심각
##되면서
##그룹
소통
하셔
문제는
못하는
만드는
덧
이것이
케이
##주를
기준으로
##님의
자료를
프로제
##해도
1차
##전자
넘어
그래도
196
주의
왔다
항공
대통령령으로
강조했다
지키
##프로
전년
##ot
##맨
##있
끝나
1만
완화
유사
##조합
규제
##수로
##아야
##조를
##목을
##호를
밑
했는데
하락
진짜
##같은
쳐
확실
솔
몸을
아파트
중에서
##명은
찍
수사
##시킬
불편
지자체
나의
불안
초기
인생
만에
##섯
앞에
##용을
##텔
32
정의
##하였으며
프리
##어들
없다고
부탁
향상
##선거
달성
융
경우는
아름다
증거
취소
사용할
훨
방법을
정비
##금의
배치
##준다
##되기
##인에
##권이
지지
합의
계획을
##서의
##진을
2019년
있는지
##해를
있다면
##고요
##화된
##하였습니다
변호
##쯤
##풀
인력
없다는
디자인
##구나
시도
그를
약물
##퓨
직업
낮은
전화
##기획
##id
##른다
늦
정리
둔
##종의
투입
##반기
훨씬
##었는데
##시를
##스럽게
lg
흑
##군의
이유는
##곤
소송
육성
##체의
대답
인물
가치
##단이
수술
##하려는
보도
표준
은행
가능하다
##포츠
무료
##란다
##으면서
##뷰
눈을
##이지만
이벤
##어로
##어진
##마는
가서
주거
법령
##금융
굳
##건설
비롯한
##랙
##이지
##소의
속에
예비
수용
등은
500
특별한
길이
34
의결
플랫포
##등록
신속
##세가
##조정
쓴
허용
부분을
카드
탑
거예요
대중
방역
##체가
못했다
##부와
산림
##리스
혐의
##까지는
괘
마케
질병
관심
지구
직무
##질을
##두고
예산을
짧
##차를
##ᆻ다고
래
맞는
약속
##협력
입장
사는
정부는
듣고
##킨
##면을
거주
보장
통신
##세대
허가
##한다면
심의
##류를
33
##ᆺ데
생태
##ro
유형
촬영
있어야
단위
##단은
제10
##나요
연속
여기서
철저
실패
##뮤
##부장관
##간에
2014년
##드리겠습니다
러시아
##워크
이다
일반적으로
이곳
##실장
채용
나머지
토론
발생할
빠져
면서
짓
뒷
the
자본
미리
추정
##관광
남자
샤
당사
도움을
##회계
창출
학습
##ad
섭
tv
000만
교수
구입
그룹
받았
##인에게
절대
##묘
타이
##비는
##쁘
##세기
##내고
질환
##민주
##춰
2000
마음이
##듯이
##전문
바탕으로
빨리
않으면
방지
사항을
벤
뚜
말씀드
##조차
상황을
좋다
##병원
10년
불과
잠시
필요하다
들어서
본다
##잔
경남
##지사
임시
##함이
아울
##점에서
1억
지니
##든가
##만으로
놀
그들은
지역의
강원
으
대출
같습니다
제일
덧붙
체육
외국인
##계가
옛
##컬
벽
해석
기능을
##주가
##경을
계산
##달러
그녀의
성격
굴
권한
스토
간단
##역시
객
들고
##닥
##경기
되는데
##신청
##ᆫ차
##리카
곤
사항은
고개를
##데이
적극적으로
##ec
노력을
모델
##시키고
##il
##위는
##번째
일부를
내에
이름을
여름
##법에
그녀는
##겠다고
##ᆻ다는
수정
불가능
참조
환자
세부
아울러
생각해
90
##깨
반복
자원
젊은
주인공
##되어야
##단에
롯데
남편
it
동물
장소
제1항에
말고
##하실
상황에서
기회를
##ig
완성
##률이
목적으로
시리즈
드라마
다음은
거리
##분기
실천
갑자기
노인
##ent
프랑스
##과정
발생한
##까요
45
##운드
3일
고통
##인증
3개
가르
타고
##ap
계시
##싱
자산
원하는
까지
뿌
##심히
##쁜
##결과
긍
내용은
##섭
수고
유일
##뿐만
차이가
##선이
도와
딱
##액을
명령
위탁
확인할
운용
시대
##경찰
마무
채권
경과
이것을
그러한
당부
않도록
##구는
뭔
그에
##리와
##홀
2008
작년
군사
평화
부문
##놓고
포함한
##홍
##려면
향해
개별
발생하는
##형을
나이
획
##로를
이들은
발행
누가
개의
걱정
곳이
전해
긴급
예측
장비
자녀
것이었다
일상
올려
##프라
##몰
##어져
대법원
##듬
##갑
중이다
걸쳐
##ᆨ시
공무
업무를
##학을
달려
##도와
##em
##nd
영역
##분야
##였던
놓고
의원은
##둔
##스와
##제1
##체계
이번에
비슷한
##컨
갖추
##검사
##됨
친환경
##렬
정기
접수
다가
##가족
케
정부의
##체육
대기
일은
맞춰
##들로
##룡
싫
바꾸
그들의
##수산
통계
잊
나아가
##학적
연장
##리기
전라
적절한
##웅
##ᆻ으면
##구에
바에
방식으로
프로젝트
이외
##장애
내용이
##리한
컴퓨
##당한
##우고
아시아
차례
##전이
##함에
지금은
울산
보수
외교
유니
##심의
##조의2
##ᆨ이
사실상
##간다
효과를
떠오
수집
##화에
둘러
##호에
##보건
즐거
##금은
##oc
조치를
초과
뒤에
늘어나
##크로
비중
##점으로
##원과
##군은
신체
자체가
##문이
단지
##리그
##기고
힘이
멤버
##트는
전용
심리
##1조
최선을
##서가
##스에
했던
##방송
이로
중단
##조건
싱
##니터
쪼
맺
##값
기울
이유로
37
38
미국의
이들
보상
2013년
국방
소관
품질
동료
양성
##항의
법인
자율
눈에
겸
강한
국회의
##샤
##윤
발언
지난달
##위가
실현
회원
##지방
시행령
2013
##0년대
##마을
나왔다
바란다
도서
##이익
정부가
논란
##움이
보급
##면에
당해
경우도
##정으로
제공하는
##ᆸ은
노출
##op
아프
인공
교육을
##bc
것이고
아내
든
승인
상황이
##니아
접촉
최신
##소는
쓰는
효과가
하더라도
##지게
차별
겨울
##이란
않습니다
자리를
맞춤
##둥
##ation
앞으로도
##지어
주관
##재를
방안을
##구조
아무리
300
화장
종사
지배
취약
##액은
집단
##이면
최고의
맛
##학과
##록을
##액이
과정을
졸업
몰라
도민
나갈
열심히
##트워크
##선의
##낼
매일
신용
두려
방법으로
##점에
##인들이
했지만
잇
##번호
##켓
뿐만
##리어
##릉
##발전
대부분의
##당이
##임이
의심
위원회
##청은
등과
외의
##제품
적합
##가에
말에
통일
모집
결합
줘
긍정
앞에서
##있다
거부
##실에서
##군이
종교
농촌
웹
조절
마케팅
해소
스페
검사를
##빙
바이러스
받지
민족
없었
##엘
대표는
##조치
폐기
##본부장
빅
물질
##제한
##운영
피부
##율이
메이
관할
##바일
남북
##표를
있으나
때까지
##맞
##지면
잡아
십
컴퓨터
##11
##0만
오랜
나온다
ai
이래
실행
주목
이란
##트가
특성
5일
널
그렇지
인근
##니스
##소송
##감사
##us
있으므로
30일
백신
깊은
보완
비상
##3조
생명
병원
아니한
##다니
##개소
##죽
거야
어찌
##지기
편의
##2조
##od
당연히
##치지
##사업을
##해져
##광역시
명확
##하나
길을
##어버
##비용
성능
감정
가득
##롭게
연기
##았던
##제에
말하는
사실은
모니터
도착
##안이
##연합
만한
코스
사업에
##해진
##테이
##담당
척
##노동
기술을
##뇨
책을
##라우
2012년
##제도
많아
##녕
##륙
10일
멈
##해주
누군
따로
##시의
처음으로
##하라
##스토
분리
이른
##법이
펼쳐
이의
기업의
##공원
##쪽에
꾸준
##공무원
세워
알게
##위의
접종
쥐
보기
명이
고양
점점
소비자
내에서
##령이
평생
생각합니다
##안은
대화
##하려고
점이
정확한
항목
##문에
빠른
##베이
##드립니다
##점은
덧붙였다
##돈
하이
최초로
생겨
모바일
194
##이의
홈페이지
##절차
맨
여부
원이
사태
그럴
확장
주차
채무
오염
##계에
다소
에게
혜택
삭제
정도의
삶의
아는
그린
##ᆷ으로
유발
39
##셔서
마무리
종료
빠르게
##량은
벗어나
개인정보
프로그램을
맞아
여부를
##남도
제정
요즘
기록했다
흘러
이익
##씨가
점에서
##업무
##리며
7일
즉시
적은
날부터
##만한
호흡
촉진
##ᆸ이
도내
발달
##력은
규칙
세종
##증이
수원
##대회
알려져
##많은
##받는
지역에
##카드
혈액
15일
##둘
상대로
1인
##ᆯ링
화학
5개
##히는
##보자
간의
하자
손해
예산이
48
인구
구청
걷
##os
출발
##조제3
##유의
모습이
스트레
물리
##으니까
부칙
##직을
##트의
##4조
아쉬
베이
##당은
중간
어째
##식으로
통하여
대리
##가스
태양
삶을
뽑
##증권
화재
극복
주문
소외
관심이
사업이
교육청
##십시오
##수에
스포츠
195
고정
위로
부르
##랄
도전
시기
시범
권리
##의료
##율을
2일
꽤
입니다
당초
무려
대단
갈등
값
우승
2010년
끌어
어렵
포기
아침
형사
보건복지
것인지
##리오
2016
운전
##5조
2014
피해를
구체적인
대회
##진이
숲
20일
기후
들었다
과연
##되었고
마찬가지로
##락을
뮤
합리
##럼프
통보
##이라도
칭
##림픽
##iv
##ch
##말로
소설
##하셨습니다
##훈련
전북
인간의
평가를
아닙니다
작용
2개
##티브
강남
법무
구속
와서
2015
##6조
보여주
필수
##팔
##국이
떨
들여
##가능
##하니
##국은
때마다
상대방
수많은
되겠습니다
자금
42
무기
증상이
##고는
##꽃
전날
사람들
괜차
##7조
궁금
##께서는
##ᆻ는지
실험
##상황
보관
인상
##im
##받고
##ia
쏟
##력과
집에
세상
안에서
##보았다
##쪽으로
그걸
of
4일
완벽
배경
##우스
제2조
##갔다
아닌가
미세
쌍
##핵
있습니까
##주민
##시스템
##플레이
혹시
자랑
수도권
시각
##적으로는
월드
저장
##ᆼ한
스마트폰
이탈
나중에
조기
무역
세포
##위원회의
##론을
시정
하시
해주
##ᅢᆼ크
##ᅥᆫ드
##개선
##km
이하의
섭취
침해
##듀
강력한
이유가
명칭
##주로
의혹
밥
컬
동일한
##칼
기계
##님을
##물로
트럼프
연출
그러면서
그렇다면
하천
증명
영어
##등급
가까운
분양
##드러
##협회
##하시는
##큐
부서
##향을
연간
응답
##15
4개
물어
모르는
##관에
##김
대통령은
##지면서
##위로
입을
유전
14일
##지에서
##문의
흔들
##컵
##만에
##물에
##ns
##신고
##부에서
상황에
곳에
##녁
먹고
파괴
말이다
전개
##토록
##세계
2011
거짓
의하면
관찰
##담이
##중한
##ᆼ크
경상
언어
후반
실적
수수
##헤
유기
건립
##부터는
2018
##했으나
않게
##션을
네트워크
인수
된다고
##규칙
가로
44
##법인
대규모
##연구원
##하였음
앉아
##키는
있었습니다
돌려
##8조
##했음
위치한
쓰고
방침
55
지출
직장
##량의
아닐
##었을
##심판
장면
소요
##난다
제3항
##었지만
##력의
시행한다
국무
##학년
주도
##보니
##13
2011년
보존
채널
##버스
##상공
기사
##식의
서울특별
65
이건
##화의
낭
한정
상처
있었고
##공단
버스
덜
텐
세입
최저
생각한다
##산을
##ce
흐름
43
처분
##전에서
##비로
된다는
옷
##틴
위협
서류
게다가
납부
사업은
재배
국정
##이사
하나에
보안
가벼
그건
나도
##와는
아름다운
수질
맹
글을
중요합니다
외에
##되었으며
28일
##드로
사장
심지어
회계
훌
면역
원인
있음을
벼
사람들의
6개월
답변을
저도
작가
때도
약간
##케이
##실에
##랜
형태로
누구나
투표
추가로
성과를
##비의
출입
##명에
앨
모여
요소
교류
##ul
인터뷰
##질환
방어
환자의
광역
메시
##법은
청와
않습니까
남성
##당을
높이
증상
교체
맞추
생각하는
이용한
##언론
공직
kt
만들고
부처
75
비롯해
##률을
##웨어
##경영
아버지
때에
아들
챙
취급
##약품
##신이
얼굴을
맞춤형
리더
다이
경북
##건이
장관은
선언
띄
##생을
완전
##콩
##공간
##작을
그려
능력을
감안
휴대
2017
상관
초반
한국의
##드가
자세한
구간
보아
소리를
조사를
##깐
우주
개방
##기구
##친다
##스코
##허가
8일
정한다
것이라는
##덤
25일
숫
증상을
흉
##칸
공감
23일
ch
류
27일
##단지
##당의
##cm
##이라면
46
안타
유도
실무
##심사
미술
비슷
52
##9조
식으로
22일
고마
##물은
2009
1회
##ut
사상
생각하고
그만
했고
마스크
엄청난
그저
##데이트
이용하여
관계를
##메라
##부모
차단
용역
##ᆷ과
받아들
바이오
제고
##시대
##받아
제품을
##ow
보이고
시군
보이지
21일
남은
26일
49
민원
##세의
##예술
##찍
뜻을
47
무시
##ong
##드의
인지
아니었다
네이
못할
그거
선박
관련해
복잡
##겠습니까
인하여
이내에
엘
##자동
어떠한
등에서
일시
가치를
검색
인기
수업
지원하는
상징
##중앙
##40
##읍
할인
저녁
##터를
24일
##식에
##건강
임명
왼
##요일
##공감
지휘
##건의
제1항의
##이에
16일
2007
위원장
##시다
6일
##뷔
##년도에
센
##이기도
##보를
운행
영양
##길을
세월
부터
말은
깔
18일
17일
유튜
방법은
짐
변화를
건의
99
##받을
운영하는
##칙을
##재단
듯한
##차가
무엇이
드리겠습니다
##밍
기존의
묵
디자
명예
벌어
그들이
진술
떨어져
12일
9일
전파
##았고
1명
비록
11일
장치
제외한
카페
책임을
규정을
감염병
무엇보다
탁
칠
##봇
이용해
의해서
커피
복합
따뜨
플랫폼
##청구
몽
준수
공공기관
별로
##율은
진입
생존
규모의
대변
193
##솔
밝히
사용하여
##낙
힘든
심각한
인권
어려움을
아닙니까
아이테
사실이
회장
원내
얻을
자리에
##라든지
공소
13일
재활
모니터링
29일
##부로
##바이러스
##하세요
아예
문을
협약
저작
##적이다
사업의
대해서도
쌀
##식은
입주
##보증
소프트
최대한
기금
차원에서
##일까
마법
입법
##자산
필요하다고
옳
##까지의
##실이
2010
##논
말해
##상품
대표적인
새롭게
19일
있었는데
##기기
원활
##서울
싶다
생물
둘째
에는
이벤트
관련해서
##위원회는
착용
갔다
나올
2019
개편
##공개
적어도
아무런
심판
슈퍼
다운
추경
살고
업데이트
폐지
사과
##껏
생성
##내용
방법이
이제는
창조
끝에
##률은
다루
##if
자극
존경
##진은
국토교통
대통령이
마침
분명히
평소
애니
##방을
##책을
나름
##하다가
##ᆻ어
농림
적극적인
인프라
##는가
알레
비행
##묵
외에도
춘
이상으로
##해양
##안의
충북
하나는
유리
억제
##공을
아이디어
서울특별시
밖의
##ur
##리라
단속
##지구
바닥
##짐
받아야
덕분에
어깨
##제2
##셜
##un
개녀
##오염
##연을
##활동을
얘기를
##면서도
##ag
보증
##16
고위
##다른
##혁신
##시면
##들어
상당한
모두가
##um
앞두고
##계획을
당신이
##나마
##향이
수급
##하기를
네가
모아
고등학교
##핀
##화로
반도
물을
구현
혐
2만
##아의
##호가
##종합
##하므로
비밀
멸
2020
잡고
방향으로
##권에
##치게
수고하셨습니다
떼
포인트
##치료
이론
상상
의미를
데뷔
##설팅
블랙
##능력
##침을
##꾼
##미를
##공감언론
기ᄈ
확충
강제
성립
만들기
되기
192
##ᆺ은
전문개정
맛이
호텔
경제적
운영에
##항공
통상
##처분
##화는
##대에서
치료를
##시킨
##가로
어렵다
##인들의
의회
◎공감언론
위원장님
##해가
부족한
상고
징역
열고
##롱
파견
멋
입장을
꾸준히
##제와
##기능
갖춘
근본
획득
유입
##일정
있으니
pc
지표
현행
##몽
정한
##효과
알려졌다
시작한
자리에서
발급
머리를
어쩌
방사
##류의
경험을
베트
기부
##아이
합병
##18
일본의
시스템을
금년
##려서
##군을
개정한다
##자금
문제에
가공
##14
마지막으로
공시
그리스
폭발
다행
56
결코
좋지
마음에
2012
##어날
대사
하나로
기회
가까이
##ᆻ든
##첨
사법
하니
진흥
##석이
##지며
임금
축구
재무
올리
차이
비즈
##세포
2021년
##ip
2008년
##이한
충분한
가을
득
##상태
##령을
주장했다
관리를
##쾌
##님은
오픈
같은데
##비에
가고
##등의
리그
눈이
같아요
##마저
점차
##ᆷ플
##뮤니
연합
검증
협조
##최신
양도
우려가
##모데
설명을
첫째
분노
마주
##명한
##종을
운영을
균형
걸로
뉴욕
들어오
좋아하는
목표로
위원이
좋습니다
다녀
##화와
##야말로
제목
오르
사람에게
찾는
변동
##공부
선임
명시
매매
정규
문화재
먹는
손에
나눠
지상
##관에서
##국에
##아버
포함한다
##항을
##했기
정책을
기상
##전은
지속적인
##듭
제12
의식
##시로
##체는
##망을
위기
산정
58
채택
싶어
받는다
공익
활용한
패턴
##하겠다는
나선
##성으로
튀
봄
##면으로
2009년
들어와
동반
##건에
##미터
승리
검은
##성장
##력으로
4년
교사
쏟아
낳
징수
##엽
상대적으로
상태에서
높다
운영하고
##자들을
95
군수
##거운
왜냐
72
애플
##이용
53
##사에서
결과가
주셔
철도
그곳
##악을
##이었던
##직원
준다
의거
덮
법은
##력에
##이니
##시켰다
주제로
꼽
그렇죠
어려워
##것도
것이며
몬
어ᄍ
뛰어
##질의
##보기
같았다
옮겨
##실로
추진하고
##에만
##건축
세출
대처
구체적으로
##농업
쫓
##떠
풍부
개설
사람들을
상위
본인
방침이다
##ᆺ에
법적
베트남
그렇지만
공통
##해졌다
59
re
##주년
##라고요
태어나
보고서
통제
도는
##가요
실태
##ᆷ프
2억
실내
##조사를
계열
이중
##렀다
##계층
##만은
54
등급
것인가
가면
선도
##작용
##국을
중요하다
신문
원의
##ir
갤러
사람들에게
거죠
법정
제어
##쥐
증권
브라
유저
##기반
헬
들려
처벌
##수와
바꿔
##자들에게
하여금
##ᆷ새
주신
편집
괜찮
##어는
만들었다
##번에
이처럼
##바로
느낄
연락
##분석
연습
##유를
전면
##탑
고시
의미가
가구
##천만
아빠
준용
##성도
상임
##방향
##선은
일반적인
계속해서
스위
##뇌
선포
간담
인재
##퀴
앱
##릿
입고
내게
어울
지적했다
##놓은
매입
드러나
계약을
##끄러
합동
하도록
57
대상이
창의
돕
희생
중국의
캠페
그렇습니다
사랑을
다음에
그러므로
매각
훌류
20년
파트
##싼
시행일
구성된
개념
에서는
총괄
##가고
란
거듭
##판을
##검을
##봉사
뛰어난
##더라
멀리
##증의
4차
말할
##ps
업계
64
소리가
제1조
아직도
쓰레
진료
넘는
다섯
사이의
셈
##적의
##자들
주기
비정
문서
무서
노후
##대와
1개
소년
단순히
무르
시는
##권은
##게임
##테크
가야
세상을
고려하여
별도로
혐의로
한반
##ab
카메라
과태
##지능
잠깐
##철도
##소에서
##질이
##선에
응급
고속
선물
과학기술
##해요
##ᆻ으니
가리
절차를
정보통신
깊이
초등학교
쪽으로
지연
##낸다
ap
오늘날
뒤로
##ᅰ손
##가락
발전을
발휘
유명한
소화
몸이
이후에
##여서
관련하여
지역사회
무엇을
짧은
활발
##17
열어
##민의
깨끄
##치의
플라
건강한
미치는
##집행
역량
유튜브
##로의
이용할
안전한
횡
적정
##하고는
##누리
신종
도망
##로서의
##조직
선진
##0조
모른다
##데이터
ar
이전에
죽은
##어의
질문을
말씀하신
기준을
##땅
위원님께서
근육
대통령의
당신의
측은
다르게
기반으로
시켜
##리게
##억원을
우수한
##하의
500만
발매
##기지
회의를
##세에
기업이
미세먼
커뮤니
##뚜
게시
관련한
##트에
아르
##학의
##감독
객관
뭔가
시작으로
##결을
관람
콜
2005
엉
62
##톡
현지시간
소녀
얻어
생긴
##하려면
녹색
녀
물었다
150
되었습니다
교환
쩜
타당
엘리
가끔
왜냐하면
##액의
국장님
물러
##유가
##억을
미디어
##금에
연령
##씨의
줄어들
문의
위원님들
입은
분포
임상
걸어
합격
가게
그것도
사전에
충족
너무나
관광객
없지만
번역
묶
##ᆺ째
##급여
폴
쓰러
매수
현재까지
##책임
##부장관은
##th
##여성
스태
사회복지
입력
소상공
당장
혼란
행위를
집을
##숨을
확진자
단독
##양의
컨설팅
##되었습니다
##법의
법에
하거나
퇴직
수록
##사용
수소
결산
누적
for
경우에도
##진의
있겠
##넘
과제
역대
추구
400
경계
##님께서
66
##일은
6개
##재정
지역에서
한다면
##카오
정착
##사업의
너희
##르기
칸
분들이
않을까
돈이
크로
받게
##ov
대하여는
##우가
##펜
제13
상태를
과도
그와
##하면서도
못한다
쇼핑
sns
가능성을
아이가
##사례
##호는
委員
포함하는
##전거
방해
개혁
당선
재생
전망이다
##트리
120
##술을
##물관
전력
담배
없어서
직후
##로가
##추어
3차
활약
##닉
원으로
했을
##동의
쾌
뿐이다
비난
##재판
정치적
##자동차
##쩍
상세
소멸
##되도록
1조
##신의
때가
일에
##재생
##시설의
##앤
사진을
10시
보충
떨어진
##앉
트레
하나가
언제나
그녀가
놀이
개인의
100만
수준의
이탈리아
기회가
행사를
##상과
것이라
비교적
##었다고
알겠습니다
섞
##기록
분쟁
곁
공장
수치
붉은
행정사무
홀
도모
##일의
관객
해제
##ra
쉽지
하겠다
사후
3개월
자꾸
##되거나
이루어져
##명과
그만큼
실시간
봉사
없도록
넘어가
결정을
##시설을
하여야
정확하게
85
어두
전남도
##연금
##체에
서서
일이다
유사한
1000
##집니다
비대
신라
이상을
정확히
그중
규정하고
현장에서
sp
##시행
현재는
##전략
##럭
##얀
조용
##픔
sh
참고로
쇠
##가격
##복을
절반
머물
부지
입찰
##산화
조각
##등을
이익을
예수
편안
##현황
자문
파이
의뢰
대기업
##류가
그렇다고
옆에
as
##기까지
보고를
##공동
동생
회사의
##략을
##시와
트위
소환
유효
나타날
##석은
점은
##사이트
주어
유해
상반기
상태로
이유를
##실한
뻐
한마
##버전
가동
즐길
##기본
재료
준공
최소한
의사일정
주지
##협의회
이걸
63
강의
테이
품목
본부장
##방안
##마를
종목
에너
대장
##도서
비속
##컴
앨범
##발을
##tv
과세
있을까
받아들이
##금으로
##형의
##해보
올라가
벌써
초청
작업을
##케이션
출판
##침에
경우를
더불어민주
어쨌든
##앗
행동을
가수
고령
##에너지
반도체
말았다
인공지능
분야의
##추진
국내외
##그램
오프
##사이
위임
##우를
산출
kb
2007년
사건을
부품
##속에
##셨
##ᆷ피
촉구
담보
al
##산의
##폭력
건조
텐데
연구개발
질의하실
좋을
여론
굳이
##80
##리면
##딜
시내
정도가
주말
스킬
67
조례안
하반기
적응
출전
##증은
마감
아니냐
점유
##ri
지시
##섬
내고
##관련
지내
널리
##사항을
건너
사기
미만
##관과
저지
##국제
이들이
41
##군요
동기
멘
##파크
원내대표
일부개정
##소방
보육
원인이
##룩
되었고
아시
공고
공기
이자
##된다고
선배
사내
것들이
당신은
##인들은
위원장은
##평균
흰
출석
연말
물류
##하겠다고
##25
그에게
깜
키워
조심
민주당
전담
조달
##마자
어제
활성화를
##상담
업종
테스트
kbs
권고
업무보고
##업자
##덜
느낌이
##장치
내는
##시키기
잘못된
근처
빚
그날
감사합니다
빙
##하에
kr
경험이
원자
##보다도
일제
필요합니다
맞이
열리는
잠재
##보조
선생님
##교육청
비속어
상속
데이터를
곳에서
만난
전주
190
초래
2000년
##공항
##mm
안타까
화려
많았다
##시민
않아도
이들의
반응을
##로드
만성
새벽
##심으로
충격
에스
결과에
이달
수리
국가의
##보며
중심의
##첩
##실의
나섰다
##경이
사용되는
##보장
징계
go
##나게
31일
학부모
##소한
올랐다
##비아
폐쇄
보지
현재의
##시피
##조제3항
감시
선호
문학
결론
국회의원
##식과
##집을
연관
##ᆨ터
뼈
고등
여겨
그럼에도
##하였
고급
없애
##해서는
연구를
최소화
연주
패션
성적
and
라인
##이야
물품
이루어진
##ta
보며
식물
있었지만
##셀
읍
작동
담은
간에
밖으로
제11
부인
틈
교과
런
인용
##양을
꿈을
관리에
준비를
증가한
##수수
페이스
듯이
능력이
##ter
낼
철저히
##공업
본래
성남
동아
de
##점검
증액
크다
##르크
##60
##더라고요
##원장
##하였으나
아프리카
##면의
주소
##콤
예상된다
##시티
사용한
##범죄
##견을
탄소
옛날
##메이션
##인력
비용을
공원
클래
##수한
위의
이상이
##체험
##적용
복귀
최초의
알려진
당부했다
##형이
홍콩
젖
할머니
거절
##혔다
등이다
재단
분이
올바
분야에서
공중
1일부터
사람도
관측
##모를
##멘
##까지도
목표를
흔히
지원할
제공하고
일치
진정한
##조가
##았는데
##교육을
갖는
죽음
주십
##000만
맞게
자전거
일자
구역
실질적으로
변호사
가상
가슴
골프
때부터
##호로
들은
많고
유일한
##사업에
인건
융합
먹을
층
##방에
못해
나쁜
제공한다
이슈
##미가
ip
##ine
##자도
제14
활용할
의원이
##붕
유의
##잖아
시가
의견이
000원
일정한
발표한
지역을
##가지고
신청을
##하되
##언을
없기
아이들이
붕
않겠
찾아가
##관으로
##문은
예외
보자
##란드
메뉴
유용
68
풀어
생활을
모색
##끈
##눈
철학
쉬운
무한
3만
음식을
##동에
##이라든지
com
소장
소독
스타트
##단으로
##의원
##협약
옵
##연구소
##다란
지하철
##낭
1위
##봄
말로
넓은
등도
서식
##국민
##지자
##ᇁ은
자살
스피
솔직
##대행
설득
없게
##전쟁
##으시
종종
로마
사이트
가맹
낸
학생들이
이스
질의를
상업
보일
프리미
##정과
개선을
##앞
사업으로
이름이
띠
투명
98
집에서
곳은
혜택을
하던
##화학
까다
시설을
자기가
있고요
농어
##젠
바람직
통화
##놔
##재난
괴로
불교
어른
도시계획
차가
보았다
##륜
기본적으로
위생
to
you
진행된다
##cc
무너
후원
지닌
운송
##함과
충남
##힐
##염이
##부처
아무것도
발표했다
##ayong
씨는
밟
패배
승인을
드로
2회
##주에
말도
얻은
##도에서
##닫
원심
##24
절감
저하
##근로
##선으로
취임
위에서
제도를
수준으로
누리
포장
심장
부담을
교수는
변화가
##관계를
블록
진정
탄생
깨달
##세로
관계가
##세는
검토를
is
의존
상장
되도록
##냐고
##종은
말한
바람
##팩
대폭
보전
##산이
해양수산
전체적으로
##됨에
부적
##넣
반대로
참여하는
입장에서
##축산
시상
97
##거리는
##동이
발의
블루
##나다
##덴
##kg
카카오
고구
바와
드립니다
동네
##생물
51
끊임
##연히
##판매
05
대책을
환경을
##았을
비즈니스
않지만
2021
북부
##시즌
아무도
파트너
제2항에
##라운드
##국에서
##영상
##워서
축소
입학
어쩔
살펴보면
급여
스티
##로그
##조는
긴장
##문학
강화를
나가는
않기
##받았다
다ᄅ
##렁
##였
선출
정원
##에게도
기분
뒤를
이야기가
끝까지
영혼
올림픽
##오고
가치가
세상에
운동을
권리를
##하기에
##가와
후속
네이버
거대한
무조건
96
아이를
3억
##침이
출범
##였고
첨단
##pl
##점의
물건
##개가
오랫
임신
03
##밥
로봇
이끌어
##조제1항에
대화를
측면에서
유행
들어가는
끈
##종이
un
##정비
시장은
다수
충전
곤란
뭘
국비
##청에
단일
닫
##잉
지원하고
셀
정당한
일어난
69
좌우
펴
협의를
주었다
##온다
높게
600
만일
기원
77
##에이
수십
다르다
그나마
지원에
못하게
끝난
##기만
특징으로
##한국
##승을
줄어
남녀
찾을
격려
질문에
##하지는
뚫
자라
##레이드
##셉
유엔
협업
생각했다
지금도
걸려
익숙
소프트웨어
보여주는
##시킨다
84
##21
때문입니다
바람에
제4항
##씨를
정체
74
겨우
영웅
나오고
소규모
한강
신분
우울
옷을
활용해
주최
심한
10개
등기
확실히
형태의
계상
##경쟁
시기에
방향을
감정을
영원
문제로
벨
피고인
오랫동안
반환
많습니다
피해자
충청
오직
자아
##정도
##래도
##생산
같아
올해는
해상
봅니다
조작
##타를
특성을
불리는
새누리
분할
2006년
훼손
결의
축산
상생
무효
저렴
제약
##파이
들면
시장의
##니어
하수
않으
냄새
##콜
제15
콩
##졸
계기로
##설을
내린
월드컵
##ity
교회
30분
생각할
별도의
존경하는
사랑하는
본인이
##범위
##북도
투자를
재해
##구로
유출
시간에
넣어
가이드
##쇠
##장에게
##해지는
행복한
가격이
날아
##말을
싸우
자신에게
##지원센터
곳으로
아끼
꺼내
##둬
##og
##으로서의
ex
초대
결과는
고도
분위기를
##재로
시키
세대
코로나바이러스
##럴
장난
##청이
것인데
낮아
##결정
인기를
##색을
근데
에어
##학습
빗
배달
했다고
##통상
2006
핀
나타내
얼굴이
##밀한
##격한
##이므로
죄송
수산
만들어진
경쟁력
##대리
닿
##전으로
##금지
나타난
##저히
교부
내용의
시공
없었던
집계
##깔
댓
출혈
폐기물
##업계
##라든가
공격을
##기관에
거라고
이른바
벤처
mbc
분야에
내리
최우
##조제4
도달
기운
안녕
존중
행정안전
##ate
경기를
eu
94
스테
있어서는
##차는
임용
##적은
주력
on
거두
정도는
이웃
##행사
순으로
##쿄
아카
주주
스크
##예방
청와대
성인
요양
참석한
다수의
고유
##수입
##영화
컬러
되어야
나에게
##절을
제16
##봤다
대학생
강원도
그녀를
애니메이션
부드러
협력을
연방
따뜻한
과태료
고향
상환
추진할
커다란
##경은
파워
드려
중점
73
##보가
둥
위험을
환경부
것들을
조금씩
대표이사
##라우드
작품을
2명
##위원회를
##서로
##놀이
음성
##밭
도출
크리스
수석
임차
##협의
##되는데
##븐
정지
210
##국가
아니지만
10만
쟁
제공할
그러자
주제
구글
하나를
스키
##행위를
종이
어디서
##소로
일으키
##수준
##둑
단순한
##서와
en
더불어민주당
할지
아우
연도
경찰은
##데미
##참여
햇
##소리
믿고
확립
별표
창작
##치로
버려
##재해
첨부
경고
손으로
##ᆺ하게
오빠
주십시오
천천
##탁을
확인하고
##먼트
도지사
비가
몸에
##건으로
##연이
기소
처음에는
들이
홈페이
전공
담아
단기
미래를
내놓
##개로
겪고
열었다
참여를
지금의
계획이
예능
수학
##규정
특별히
안심
##순환
중복
##해지고
09
족
##표준
##름이
기간을
##법률
멈추
제17
자연스럽게
시에
##ᆷ피언
되며
사이에서
천연
펜
면접
시선을
미사
미안
제3조
76
93
학술
응시
디스
##igh
##홈
감축
내외
체포
사항에
똑같은
가지는
##히고
앤
스타일
실시하고
연수
가축
배포
지체
예산안
##몇
사용하고
토대로
##해질
천천히
시장이
의원님
논란이
중학교
위법
대구시
현상
기준에
몬스터
요리
감독은
자세히
면제
훌륭한
셈이다
업무에
허가를
##당에
저항
간접
##군에
적합한
##ess
##비와
78
전세
목소리를
후에는
앙
##사랑
봐야
위험이
지어
2005년
입증
##차례
191
신축
마리
모습으로
사유가
옹
것만
싫어
방식을
역량을
페이스북
일으켜
##방지
체크
순환
악화
시나
9시
##실은
무릎
무게
##ea
##경에
감사를
공항
전후
##천시
뻔
돌파
부상
레벨
금속
##명령
##전한
##레스
##무역
수수료
개봉
cl
위반하여
내용에
##르몬
발사
펀드
감각
##체로
있죠
장은
생각은
접속
##메이
평범
##연한
바른
호소
##회장
##기한
결제
속하는
부디
2022년
시대에
진행하고
기능이
##룸
예전
현금
흡수
르
노선
미니
올렸다
이어서
그러다
##펙트
영상을
미세먼지
영업이익
요구하는
워크
con
없으며
대선
본격적으로
88
개입
나타나는
##개혁
회장은
식사
배제
##ers
##22
경력
언니
##려가
사람과
설문
##봐야
이기
크고
##여야
배터
일도
중의
##변화
##리스트
모르고
삽
입원
것인
뜻이
나누어
무리
찰
사용자
01
잉
참여한
대체로
안으로
손해배
하나님의
##고가
전원
때의
스타트업
부채
주시고
그러니
##팡
공간을
남겨
필요할
장착
경비
##빌
몰아
수영
기술이
출산
청소
##된다는
##대출
수여
su
통지
##통합
민법
04
수의
독특
게임을
재활용
##위원회가
마치겠습니다
##est
물건을
##목적
##쓸
없어요
드래
맞지
회전
##버린
농가
##운용
교육감
명을
배당
계신
관여
자의
가질
제주도
가만
귀여
요인
예약
##px
제조업
감염증
공동으로
##패스
한마디
없으면
##초에
봐도
##미나
##백만
##담당관
사항이
그렇다
진행한다
내일
부장
손상
늘어
##설명
관세
지방자치단체의
##하이
어린이집
##재가
보건복지부
사례가
##여행
마침내
##뜩
개발을
전라남도
쳐다
##에게서
##자격
시장에
마치고
살아가
늘어난
듀
근로자
개시
지분
모자
출생
편이다
##위원회에
인정하는
or
##기금
##들한테
자궁
##제3
부당
허위
편리
느끼는
##진과
내렸다
##and
고생
##었으며
대학교
도지
정신을
87
##보전
댓글
선별
인사를
##ᆯ리티
오늘은
300만
##부문
간호
법률의
하려고
##ᆺ의
위와
관련이
##나이
알지
돋
##리트
털
들을
질의해
무언
과장
낯
##닐
목소리가
기대된다
끝내
석유
어르
들어간
존재하는
##하자면
삼성전
##수요
쓰레기
##곳을
아무래도
드리고
정식
추진해
단축
##역에
79
고대
말씀드리
칭찬
##병을
02
시장에서
부착
일환
속으로
이용하는
제18
##유치
재능
국장
상품을
화가
##사건
엠
달아
7개
데는
회수
말씀이
##통을
##달라고
##스틱
만날
구성되어
동부
2002
에피
##져서
거지
##자료를
성장을
제4조
불이
유인
화면
여성의
묘사
##미는
제2차
보유하고
##억원으로
처음부터
분위기
##계획의
##단과
##체인
중장
단백
##지수
##빨
기본적인
법을
검출
부대
담긴
사로
좋겠다
챔피언
##지역의
##또
○기획
pl
##프를
##녹
ne
유관
##독을
원장
##연의
팽
##부담
웃음을
작곡
북한의
한화
##멍
아마도
드는
용인
유지하는
격리
##주기
곳을
##과장은
##마의
집으로
남부
##동물
술을
##청의
금액을
내세
보면서
추진하는
낫
##버렸다
sc
2시
##주와
제5조
##체계를
이틀
##용으로
씻
주세요
##확인
도쿄
선정된
##호선
○도시
무사
며칠
##하라고
나름대로
적발
아니하고
학교에
##하십니까
기도
저소득
빼앗
86
##긋
가시
병행
올바른
기대한다
##구와
제20
눈빛
사건이
등장하는
유아
것보다
##끼리
셋째
상정
##선수
시민의
##게요
고발
이르는
상황이다
기독
이름으로
기간이
축제
깨닫
##층의
긍정적인
말하고
응원
다를
부활
관리하는
겹
도덕
##하를
##접종
##관한
관계자
내의
추적
2004
##대화
##즈를
스토리
내내
죽을
##길이
별지
수요가
말라
어차
일방
것이므로
출현
##대체
일종의
전송
제19
##루션
92
수준을
사업자
5억
없으므로
교육과
##서도
##사인
명백
부진
실질적인
##웨이
##하더라도
보스
전의
계기가
##텍
어차피
위촉
##않
##았지만
본문
##기관이
매달
넘겨
유전자
수련
##마가
89
마친
나면
지원이
##라리
##계약을
제출한
금리
아니한다
a씨는
규모가
않는다는
그들을
독자
##법상
정도를
##소와
야생
##면적
물이
반사회
몇몇
지불
우리에게
전화를
함유
도서관
ad
목적을
##대전
im
안정적인
5만
##산에
시장을
장학
##경의
나뉘
##온은
us
효율적인
포함된
특별회계
##주일
파일
안보
포괄
##색이
8개
감면
겁니까
놈
기각
꼼
##뚝
200만
피의
06
역사를
압도
시의
시대의
돌아와
뮤지
##영향
특례
아니라고
##람회
##장비
##라의
살인
83
가려
이상입니다
tr
복수
매장
부분도
닮
유지하고
구제
동원
##라서
##해진다
##과학기술
##아는
없음
확진자가
이해를
##한데
갖춰
회사가
않았던
본격적인
##느라
마스터
야구
이미지
메인
##들이다
대단히
없는데
불가피
##년간
받으
특화
##스에서
##겠지
그간
이해할
강하게
##역의
차를
나오지
점에
동작
속도
무렵
##구청
##하기는
an
해요
개요
일하는
있는가
우리를
마음으로
날이
밝힌
보유한
예고
분석을
합류
중에는
신앙
##포인트
##에서부터
연료
평택
이스라
배려
느낌을
##ik
진화
##수사
이르러
살짝
##해주는
비례
시민들이
##갖
자를
테러
뜨거운
범위를
##양이
신호
진행할
체납
##그러
데미
ph
##매를
##달라
호주
##위에서
청주
본인의
진행된
##바닥
##산은
##형으로
퀴
##해와
정밀
압박
지리
##ts
##왕의
한글
어쩌면
##eo
선제
유동
아라
##었다는
##교사
수비
##투표
각각의
##과제
보낸
ww
비율이
영광
##교를
07
곳곳
이해가
사립
의도
계획임
들어갔다
사이버
##고자
참여할
인원
신선
##시기
흥미
곧바로
이같이
##자나
원작
##ist
커뮤니티
캐나다
박사
당시의
당황
이렇
61
임의
시점
##박을
직전
끊임없이
기분이
전단
제1호
##심한
우리나라의
통증
지역은
##화에서
##생태
비추어
##총리
복원
체중
인간이
농산물
08
혼합
풍부한
초등
wh
피해가
1천
##펀드
상태가
오브
전까지
##oo
연극
실시한
워낙
구별
##버려
대행
##신은
승진
##악한
##흘
의장
이리
갤럭시
pd
붙잡
붙여
파티
살해
rayong
##부지
2004년
거는
겉
##셨다
부합
증가했다
시작된
신의
뻗
저희들
효과적인
##기업의
되면서
##정치
##품질
기관의
##ᆷ이나
##줬다
고려해
건데
서버
##로로
간부
##영은
##소비
엑스
데리고
본질
거기서
인정되는
종전의
##했어요
한계
##트와
##림을
##치며
##이도
수렴
이름은
부르는
##na
##31
방문해
##가구
##키로
중기
##감과
국고
##대응
##이상
사료
##란히
제재
연애
인적
놓은
가졌다
대개
##브리
##본다
가난
##자유
##크를
농민
도심
향한
어려움이
sm
여수
덩
한반도
클럽
포함되어
##났다
##연수
마땅
세무
##준비
##교의
정작
검사는
왼쪽
보게
119
관내
##하기가
피로
자원봉사
데에
자기의
밀어
##성한
밀려
##연은
렌
갖추고
##라가
추측
이번에는
닭
모으
##되었던
닦
붙어
전설
##돌이
##이닝
선사
매력
탑재
pr
##름을
2001
ii
높이는
##절한
태풍
스카
아니에요
심사를
라이브
지원해
확보를
관절
##전과
코로나19로
공인
구비
개정규
전부터
목록
##명이다
추진을
할아버
##되자
향상을
##무는
5g
그분
##짜리
그들
씨가
신한
##쿨
현안
##다시
생각하면
넥
보여준다
##영이
전형
의지
임원
기쁨
##업에
웃음
라디오
백성
큐
흙
주민등록
##우의
의미한다
쓰지
모임
않았고
수면
##줘야
##조선
자네
발간
아니라는
법률에
기자회
대통령령이
푸른
##물과
프로세
협상
의료기관
맡은
이혼
장르
##금액
2층
pro
중증
사회의
##공급
##포를
무선
의지를
채취
##밖
일찍
##패를
본부
##감한
##환자
##탐
##산업의
##식품부
문자
##군과
##이즈
이사장
높이고
단서
##행이
상향
듣는
규정이
치열
내년도
소모
##생활을
보인
##적용어
반사회적용어
원인을
지혜
높여
공화
제6조
##조례
성실
항만
법이
타이틀
뛰어나
##디아
복용
○교육
않았지만
##통상자원
소형
##힌다
##테인
패키
하나님
떨어지는
사례를
효율적으로
가만히
끌고
제외한다
##스케
치매
##레이션
am
##거렸다
##재의
##고기
증가하고
동남
떡
종류의
##탄을
필요로
확대를
##평을
##기에는
점이다
요금
##정지
정말로
비중이
세운
활용하여
1위를
대안
무척
두려워
##됐다고
신중
셰
##이던
189
##위원회에서
포함해
##나의
##호와
서민
올린
변화에
축하
저희는
궤
##겐
자유롭게
상표
##촉진
덤
매도
원천
자발
탈출
sbs
##염을
##ive
말씀해
증진
##이로
대외
위원입니다
어려울
말씀드린
최적
2002년
건네
6시
아이의
갱
##센트
##쇼핑
##화폐
넘어서
##재는
전략을
추출
버리고
##렉
노사
무엇인지
한쪽
개막
되어서
수신
동해
##악의
장식
##점과
근대
가속
미흡
몰려
##ᇀ은
##리다
사용됩니다
##오를
##자고
##춤
노르
지역주민
##ob
산업통상자원
하다가
승리를
##등에
레드
온갖
보강
강화하고
##임대
##tt
전체를
부사
뚜려
##27
목숨을
별도
##옹
활동에
프레이
##하였는데
무료로
이었다
생기는
식당
##채권
싶었다
달라고
##기계
한때
계절
눌
사업비
톤
##쌍
##폴리
##위생
소상공인
##곱
##일보
##신문
주변에
##ᆫ스
털어
##차로
늘었다
생길
현장에
건지
사냥
환영
눈으로
무대
클라우드
##들에게는
모른
지능
##살을
추석
화물
비용이
3대
ict
##치에
##드려
##ff
당뇨
##ell
팀이
파리
온실
경향이
밸
##둠
철거
자체를
않으며
단어
소중한
##삭
님
대립
##23
집어
##혁명
##목이
북미
##궐
##사들이
##임금
앞장
읽어
테마
bl
##ha
##ᅮᆫ다
돌아오
소식을
모습은
부담이
##법으로
자립
##조의3
##선에서
이사회
숭
스테이
위대한
성명
요구를
지나치게
들어갈
##었어요
##들과의
버튼
홀로
위치를
##방의
무상
수행하는
동의를
##브로
부하
시작한다
##후의
cj
##ᆯ은
##린이
한층
##셨습니다
##국과
빠진
드론
800
공을
그야말로
미친
사로잡
##의가
꺾
챙겨
다름
적을
##동조합
말입니다
계좌
판정을
지역별
안전을
설치된
##형은
##본을
##공정
표기
갖게
##피해
산불
##0억
연예
일관
스페인
바가
##찾
상실
손가락
했으나
과정에
아니하는
시민들의
전라남
##네이
수령
보라
##만으로도
이들을
방법에
##타민
보편
빅데이터
판단을
##방이
예방을
눈길을
그렇기
콘서
기록을
##에서만
##art
독특한
해보
너는
하나도
고구려
##화하는
뒤집
##다운
##자로서
사정
집합
지원한다
1층
예산은
농어촌
아닐까
여야
##발생
찾기
놔
기록한
##해왔다
선포합니다
되겠
인쇄
##차량
경쟁력을
##제공
대우
비로소
2배
출자
어르신
건축물
국토교통부
뿌리
있거나
화성
토양
##복합
게재
##순위
##로도
##되기도
편입
##시험대비
##닌
독서
휴대폰
세계를
노래를
말까지
차지하는
됐
##플러스
다문화
어업
매립
텔레
20대
공사를
국세
##접한
다리
##수지
회사는
택시
##코리아
제품이
##고에
##석의
있거든요
의사를
나라의
10억
군데
공포한
부작용
사랑의
반발
하신
공산
##이유
단단
메모
눈물을
2주
적법
나은
서면
돼서
##밀히
##띠
텍
11시
작품이
기존에
##직한
부부
부딪
오른쪽
바람이
은퇴
공제
전일
##권과
여의
15년
방송된
맞은
##스탄
조항
숙박
과도한
##안타
##ᆯ린
바라는
여유
##하시고
##치기
조세
기준이
모르게
법원
##av
기본계획
미칠
생태계
완벽한
##었으나
채워
창원
##망이
착수
이송
##ᆫ지
브리
설비
셔
소련
일괄
하는지
##수익
이상한
효과적으로
결승
메르
싱글
오로
화합
제1차
##하시면
비트
가중
##센터를
지은
원안
싶습니다
죄를
자식
사업장
co
낚
##되게
문화를
모를
번도
사건의
특유의
하드
3명
붕괴
비디오
인민
차이를
시간은
제7조
##감에
##건은
의정
이어지는
##미한
연휴
귀족
공개된
경주
기반을
##35
##늬
거친
트로
##되었는데
한데
피아
##위기
교육부
##용품
반려
만약에
이스라엘
##르지
트렌드
상시
했다는
##미널
##스키
회피
호르몬
##이와
말하면
서부
##었기
만든다
소위
##ak
민사
명령을
제품의
출원
##감염
지점
##딘
대한민국의
3d
불확
행사는
스트레스
##류는
##지표
대표가
고통을
있느냐
##받지
##산시
##역이
##니까요
##미술
재발
지침
폭력
관점에서
하시는
2003년
1에
헤어
지진
실용
##파의
##고속
배정
육아
제24
신고를
##내기
##회의를
##금리
재개
협의회
적지
있다가
권장
애로
의약품
권한을
4대
최근에는
##분간
##바다
##렬한
깜짝
사용하지
오프라인
고지
기독교
콘텐츠를
##백을
이주
목소리
##나와
다하겠다
막기
##입니까
크리
처음에
주간
상의
##회사의
복잡한
바까
심의를
감지
##되었다고
간단한
##ᆫ터테인
메시지를
##즈의
밑에
발을
이것도
확인하는
##살이
국민이
오해
조건을
##터가
담겨
진행되는
사고가
##이었고
아들이
전체의
간다
노력이
넣고
지정된
내용으로
##화하고
세우
나쁘
돌봄
##장애인
흠
사정이
실효
혐의를
##pg
##근무
기다려
않았을
le
않아서
당일
시나리오
진심으로
중대
이슬
경매
발동
정수
표정을
들어온
진보
에피소
##99
계획에
원활한
담고
시급
프리미엄
중반
지니고
##정보를
##놈
합쳐
##ᆺ으로
연금
##문화재
부정적인
진지
##루를
충돌
목적이
비대면
##모가
##감은
24시간
상태에
치료는
##트라
있는데요
www
82
장을
용도
##중인
쉽
뷰
##구에서
생각에
주장하는
##끝
관심과
문화체육
바깥
화장품
다니는
##틱
해안
일환으로
sw
웬
##ie
아스
또다시
##역에서
면적
중에서도
냈다
필리
깎
발병
살려
이해관계
진로
##이라든가
차지하고
직원이
손실
##ang
##고의
나눔
하도
해수
존재한다
땅을
부실
치유
##ect
##요한
수를
##사업은
그르
살피
1인당
시원
삼국
방금
##는다는
##해지
양국
추세
홈런
나아
목포
지향
빌려
##들었다
##컨대
알았
인정할
es
세금
지사
##막을
유일하게
부산시
뭐가
##하라는
##화점
멋진
##실적
궁극
오고
##ᆯ의
경기도는
##됐고
표면
없지
##등이
다해
버렸다
고민을
##검사를
주체
막아
##긴다
진행하는
섬유
복구
청렴
와이
##지역에
실정
분산
스케
코미
##위와
평범한
화려한
한미
개통
불을
높이기
좁
##윈
도대체
아이돌
##하였다고
##주지
눈앞
##드와
선행
##격이
느끼고
##ᆸ어
충실
세계적인
감사의
드래곤
##온이
좋고
##사업으로
아버지가
##국장은
기한
전수
높고
말씀드리겠습니다
신속한
시사
##등기
환자는
##올림픽
실시하는
말씀하셔
손해배상
전기차
수익을
2003
no
되돌
##희는
요청을
##판에
맡고
다가가
##박한
##90
##ᆻ지
패널
행정사무감사
두산
##벌을
노하
헛
##ight
대략
것으로서
##스트로
대다
감액
발주
마약
기여할
경과조치
치료가
타입
개발한
박물관
지사는
모래
주장을
##작업
환자가
일대
##왕이
학생들의
무인
멀티
버티
받아서
황금
##드에
허락
상용
형제
##스팅
끄덕
##졌고
팩
##적한
일어나는
크기
##벤처
4만
사용한다
가격은
##뒤
나타내는
빵
매주
대표하는
##주행
전사
인해서
##상에서
이외에도
##자본
누군가
##디자인
조성을
##따라
제2항의
제이
##국으로
링크
거리를
##렇게
아버지는
##고등학교
짐작
○서울
조회
##규제
봤을
막을
그로
다행히
##조로
급증
새누리당
프레
##ᆫ가
여기는
##크라
준용한다
여행을
##였지만
신장
돼요
##랭
의외
##iz
즉각
가라
횟
급성
윤리
##바라
##회담
함께하는
블로그
무관
현상이
양식
대량
주된
민주주의
간주
gs
하위
제23
##플루
암호
재직
번째로
증상은
영향으로
확인을
읽고
##유산
##였습니다
합리적인
잡은
##겠어요
깃
##무가
건강을
판례
##방위
학교에서
세계의
야간
##션이
공소외
마시
##000원
드디어
위원님이
대여
세균
##배를
가볍게
정하여
눈치
트리
발전에
표창
책은
##일로
2단계
##ard
##주었다
논리
4억
대구시는
금강
원료
위주로
체계를
당시에
똑같이
##변경
슬로
농림축산
##석에
기다리고
된다면
농협
듯하다
런던
머릿
자신들의
##못
##영의
##연도
##70
불용
취약계층
이성
멍
##풀이
##aw
구상
##툰
지명
아나
순수
간편
나라를
많지
2022
강요
사용을
종합적으로
있었다고
중대한
숨을
인하
비타민
##관리를
의무를
있었을
뭉
##화한
공동체
파악하고
미소를
ms
때로는
##방안을
전에는
##중의
조리
빛을
개척
공작
##생이
##네시아
##고한
항소
원격
주시면
져
마음의
성별
폴리
의거하여
시달
달하는
유대
제25
시대를
움
밴드
발생했다
아이템
되게
불어
호남
구조를
시행규칙
이겨
드라이
불리
고용노동
전염
정보가
##생의
대만
업그
역사적
##목으로
패러
공약
공부를
##이었습니다
##너스
찬성
대상을
##기념
부패
##했는지
700
입장에서는
치명
말씀드려
헌법재판
##장관
관해
##판이
보여주고
스튜
때문이었다
포항
세월호
법의
자료가
180
##세법
가해
북한이
중독
묻는
험
위원은
평창
2001년
자금을
##스러워
곰
##공이
##포르
##지인
##수급
방영
위원회는
##시장의
이용자
아웃
국토해양
해당한다
수주
세계에서
차라리
철저한
급격
##인터
풀이
##젤
사건에
##인데요
나이가
남의
위안
감독이
길게
테이블
차지했다
##연맹
##ᆺ가
1시간
##즈는
이로써
개발에
비미
답했다
그림을
서명
공개했다
검찰은
71
자료에
여성가족
##행위에
경기에서
데려
##법과
역임
투쟁
것임
캠페인
협회
nc
발효
##팀은
디스플레이
매니
있어도
제외하고
배가
fa
서양
##원들이
높일
요약
들여다
영입
배워
노력하겠다
공무원의
se
##과에
##민이
##타운
##센터에서
##교회
로드
##26
어디에
##병의
국가가
위반한
보냈다
삼성전자
현장을
##로서는
##사유
대륙
동참
뽑아
##되었을
기업을
방치
##센터는
음주
후보는
##28
탓에
##소유
##프로그램
be
##힘
항생
출근
##잠
밝혔음
대상은
##기간이
있었기
인건비
제로
##5억
신경을
s4
##전용
3회
원인은
손님
##후보
당한
예산에
유연
현황을
##폐기
운영할
##학자
회사에
엔진
다음으로
##나라는
해운
##딱
평양
마이크로
보내는
수행할
##함은
나오셔서
끓
포함하고
시험을
어둠
조종
계급
포함하여
##쪽의
##00만원
치고
책임이
##병이
진행을
##대문
소음
제9조
##어와
후보자
##덩
##피아
##사업자
##제1항
동시
경기도가
과거의
##혈압
인가
논의를
위험한
##욕을
솔로
내다
연대
분기
조언
썼다
적립
던져
지나지
대부분이
##골을
인센
과정이
성분
국외
전산
##공자
영화를
##가가치
적용한다
문화체육관광
싶지
드러내
어리
정하고
핸드
사용해
김포
청취
벌금
##팬
고객의
규모는
공동주택
비서
##단위
탑승
##차의
소셜
집안
그런데도
##회관
그다음
##년에
꿀
##나갈
지속가능
진행했다
보호를
남자가
##받침
고속도로
시스템이
##프가
아이들은
제26
경로
##고용
##되었으나
##코올
짚
생겼다
찾고
자제
##텔레
않는다고
잎
##청에서
체력
##se
##보지
총리
##특별자치
##ᆺ불
국유
관하여는
하니까
새겨
##타임
받기
교원
실시한다
이수
협조를
트레이
켜
서류를
강릉
##반을
##야만
##내에
중견
인스타
직접적인
음악을
실업
기업은
경찰에
nh
랜
저작권
##ᆻ죠
##강의
보조금
##돼서
91
같아서
##인들
##수행
연구원은
##시설에
여건
알리
이후에는
##주차
얼굴에
##떡
마라
죽음을
태백
##르트
진행될
오피
##편의
##벌이
속도를
태어난
##미의
인기가
무장
상태다
3년간
면에서
##하게도
주변의
투여
##으로도
수거
세이
잊지
아직까지
##전환
##ᆲ은
##란을
##스카
서구
만나는
##결이
발생하지
##pp
중앙행정
한참
취재
해방
엄마가
##바이오
주가
훈련을
이나
종전
##소송법
##프는
낮추
오지
기뻐
##하십시오
##주인
야외
없다면
새끼
갈수록
고전
생애
서술
##는다고
여성이
규모로
##해온
##보상
##으려
무단
그렇고
패스
제21
않다는
간단하게
##하가
마디
정부와
##소통
영국의
얻는
장관이
여ᄍ
하나인
화이트
아이는
위원회의
##관리법
한두
기업에
움직임
흡연
갚
##ᆸ에
두는
되자
동북
신속하게
오래된
처분을
##진흥원
답답
수송
##ᆯ랐다
##잘
적어
벌이
##역은
##색의
##아시아
이어질
매월
움직이는
맡아
어지
마르
경정
종사자
##뻐
흩
만화
배터리
다스
##토를
1의
##일러
당사자
기대를
제는
##창조
학원
##천의
보고드리겠습니다
코스피
계승
윈
갓
##리라고
돌아온
##륨
위기를
고기
삼아
아가
##습을
he
선택할
##계는
교통사고
확진자는
고수
##중심
##돼야
포르
산하
열린다
방사선
한계가
여기에서
안전하게
마쳤다
##사람
가르쳐
인도네시아
나간
아버지의
다들
주행
클릭
할까
동맹
공정거래
생각하지
출처
탄핵
오토
환경에
자체는
당연한
넘게
여객
질병관리
##매매
정상적인
실시할
##례를
거다
태평
배송
권력
학교를
##ᆻ고요
임직원
선두
전체적인
제외하고는
인센티브
테크
##ᆻ더니
250
거리가
제8조
장려
관리가
타인의
태양광
느낌
##정신
찾아가는
##서비스를
입국
최근에
살아가는
특별법
유래
얻고
##ib
국내에서
출력
무엇인가
##족의
들어오는
도저히
율
펀
거래를
주민들이
등장한다
금방
이해하고
노력하고
##스트를
무의
했어요
##상적인
표정으로
##전화
사안
입술
##거리며
됐습니다
두드러
노트
프로그램이
##기사
초점을
점도
이후로
추후
##팀이
잡았다
##ill
혐오
도중
##조원
저를
##부장관이
110
살아남
성공적으로
mg
드린
혁명
##면이
고백
변신
##파를
30년
9개
신입
속의
##ᆨ시코
##의약품
##주의를
##미디어
##들고
##달을
물가
다음날
##청장
각호의
광주시
##ᆷ으로써
엑
있었으나
1999
수백
팀의
네덜
##스레
휩
과다
이미지를
##조제1항의
코리아
비전
고객이
숨겨
##업의
국회에서
##파가
##신설
##코스
##쪽입니다
정책에
전해졌다
상처를
불가능한
##니라
담당하는
여자가
우편
##흔
넌
드릴
줄여
갈라
한국은
브로
##맛
침이
##문으로
##실과
응용
유로
유치원
브라질
안고
##엠
중개
나노
##찰을
10여
##시장에서
##29
거론
일이었다
##조정실장
##이게
##ᅪᆨ
경과한
땅에
##속을
소수
뜬
바르
여섯
진행되고
있으니까
확신
아티
##사회의
##냐는
어머니는
불행
##목표
쿨
보행
마시고
##드라마
미래에
주무
부른다
잡혀
##하러
확실한
용이
괴롭
포럼
mc
a씨
##지수는
순천
전반에
##즈가
자유를
물에
이같은
##리즘
저감
##비전
전반적인
믿을
##청소년
속도가
급식
##진단
부러
겪는
인간은
사용될
샘플
뮤지컬
이쪽
못했던
비교해
시작하는
위치에
미국에서
사각
말하며
밭
싱가
간담회
효과적
규정한
##자마자
밝은
##all
내용과
##열을
예산편
온도
않느냐
##량에
얼굴로
다운로드
아메
평등
극대화
사라져
뮤직
바라보는
스코
##처장
화를
##재료
7년
대중교통
##5만
##았으며
쭉
##8억
##수당
캡
##은행은
세우고
맞고
유가
제국
걸린
유망
다중
##생명
합성
해가
발송
##목에
보세요
독점
훔
보도했다
넘치는
커버
모델을
참여해
중지
줄일
##시간을
1번
일로
hp
##차별
여부에
자존
감독의
##레인
스프
중장기
##심은
재산을
me
과일
동양
전신
열려
##조항
제공해
극단
그러하지
##급을
고소
있나요
차세대
##임에도
##거리를
서울대
아니하다
컨트로
갑작
수확
위기에
##랩
사유로
각자
증후
좋겠습니다
면허
##옵
참으로
기관이
사람으로
함으로써
필요는
리스크
해체
누구도
참석했다
증언
인상을
아미
보다는
##2억
천안
안양
##스포츠
답변해
부분에서
전반적으로
##이었지만
파산
삭감
정신적
인테
##유통
승객
주식회사
프린
##마크
성취
형식
해결할
맞서
치러
##fc
##3억
사장은
병사
어릴
마련해
gr
받아들여
걸음
##증명
공연을
케이블
##터의
##하는지
일일
성격을
원인으로
상수도
##으신
모듀
##과도
보이며
세미나
##6억
기간은
작년에
둘러싸
##7억
차원의
##pc
않았습니다
##빵
##운동을
잃어버
구축을
##림이
가능하며
슬픔
조명
소매
안전관리
멘토
##마스
특정한
팀을
회사를
##ᆻ습니까
하얀
가슴이
버전
땐
양육
##숙한
자신은
아기
방송을
내려가
##기술을
별다른
##사무소
알았다
아이디어를
린
보좌
지역이
바닥에
fta
##탄소
범위에서
함은
중간에
일행
침묵
신탁
읽는
##권으로
웅
솟
납품
##파트
고의
##면에서
말이야
일자리를
가격을
것이기
조용히
유발할
##르며
##강을
권역
방위
멕시코
ss
발열
배부
많은데
##암의
등장한
삽입
##목의
##사태
8시
약한
버린
주민들의
진단을
편이
후에도
가결
흐르는
유관기관
##긍
대항
##30분
##1억
시설의
##간을
##인도
수단
직원들이
##4억
부회
##파로
증가하는
친구가
0시
기간에
본조
기대하고
애초에
원고의
어떻
쌓아
공업
##ft
색깔
고맙
육군
투수
끝나고
적도
가량
##ert
130
이가
##형에
##효율
과거에
세계적으로
즐겨
엿
날카
원심판
배를
##위탁
역학
##스럽
실증
즐기는
늦게
온실가스
가산
##산림
소집
교육과정
사우
분위기가
보태
##였는데
제27
##스런
갈아
규정된
농업기술
##곽
자유한국
같고
날짜
##둘러
특성상
지식을
상관없이
##ure
고성
이야기는
대부
##45
##기준을
mou
착공
##리케이션
미국과
공략
##인권
증대
##까지만
윗
출마
특이
##없다
##치와
호응
나와서
가능성
##영업
흐름을
##체와
다투
계십니까
##이너
사회에
곳이다
이월
##음에도
났다
답을
배상
탈락
일러
손해를
생긴다
다이어
알레르기
제22
규정은
##범이
놀라운
산업의
평생교육
모범
##선과
##di
##당에서
##셋
반응이
줄이고
제1회
##되지만
ceo
예방접종
이끄
##져야
신이
성공한
##소서
넷
주식을
부가
##들로부터
홍보를
발생합니다
##설계
장이
인류
자치단체
##차에
수능
##광고
운반
나타난다
##도서관
##하였을
##ex
##분류
보내고
##대사
하라
청약
la
강구
찢
##둥이
제28
##기자
늘려
##와서
관계없이
증여
만들어서
자동으로
것일
곽
상대가
있을지
설립된
##큰
법무부
확률
불필
##vel
조속
과징
분들
문제의
결국은
##단장
특징이다
위헌
##방으로
폭행
이루어지는
이어졌다
##관계가
3시
2천
이민
이고
날려
##넌
기아
##콘텐츠
##조리
동향
5년간
대통령령
에너지를
더해
앞으로는
필요성이
의정부
##위원은
##숍
##계획에
##대장
양해
##범을
사고를
이외의
부끄러
금년도
##교류
허리
유닛
##으려고
상담을
체감
##100
법원은
##됐던
##우기
##터는
둘이
필요하다는
알아야
재건축
기기
##문과
금액이
아이들의
하여튼
농지
태도를
요건을
##공부자료
##종으로
##했다가
한국에
수시로
##버리
##ue
##함으로
강사
번호
기구
웃었다
뒷받침
##이스
타임
인명
시책
##영을
##로써
든다
정보의
##평등
기후변화
##병은
신임
음료
##밤
이루고
##공무
뜻이다
진행됐다
이끌고
지적을
관리하고
##벅
공시했다
##토리
##시한
반가
출장
cd
아세
사업시행
필리핀
산지
확정된
명절
빨간
채로
어렵게
정례
축적
mar
##방에서
연봉
다짐
세웠다
자신과
신청할
연구에
가능성도
##캔
대가
##루가
아래로
관계에
주차장
거둬
단위로
떠올
그러고
한국에서
절대로
소지
솔루션
점령
##다리
않나
미국은
본회의
줄어든
앓
유료
판정
대북
드물
추정된다
스웨
이럴
서서히
##사법
##형태
188
놓여
하루에
1분기
시에서
요건
적용할
##음악
기업들이
믿음
장수
사람들과
이곳에
##유지
자신도
##렛
탓
퀘
결정하는
근거가
공부자료
업체가
희망을
결과적으로
1단계
##시간이
##당과
고려할
이르기까지
##공장
근거로
##염의
절차에
부근
상황은
부산광역시
맡았다
일부러
##스트라
##호텔
심화
잃은
##채를
유족
##오가
##해의
문제점을
순식
부어
어떨
##미래
영향이
##곡을
일원
적당
입지
정서
전액
##뱅크
도의
##동강
##드린다
록
불합
##기관은
잦
20여
단말
카운
매출액
파라
##월한
캔
호흐
픽
검사가
##흑
무거
되찾
기술의
##사라
수강
실망
공간이
없었고
증인
스승
##이거나
제2호
사실이다
도시재생
얘기가
##구성
나갔다
##시마
추가적인
명확히
노예
복무
##ver
귀국
코스닥
##머리
히로
##ub
지붕
떠난
까닭
생명을
아이들
승강
바라보았다
##르의
메이저
##련의
파기
##200
앞장서
이벤트를
구체적
중부
계층
상한
포스트
이듬
점검을
형태를
냉장
일상생활
이후에도
확대해
81
전월
정해
법령에
본조신설
둘러싼
수준이
101
##과정에서
구성원
##세이
##염은
##량과
표본
조직을
실적을
위원님들께서
##퍼런
원고가
만남
추억
##그라
안전성
7시
노조
##공화
##신용
존재하지
##ment
##조제5
제시한
##ice
일반회계
법제
원자력
##면허
건물을
5시
식민
아이폰
팔을
##열이
개그
왔
단백질
즐거운
내어
##ctv
거주하는
##캠
##주면
##별로는
수탁
조지
유지할
근접
거리두
##금과
심도
가능할
군의
##기간을
모드
통행
주저
##출을
쿼
보입니다
임무
주사
성공을
돌입
이끄는
혈관
400만
ma
다음달
가계
힐
남한
식별
완전한
베스트
나지
활용하는
거점
많을
여러분의
페르
##색으로
##하고도
나가고
지역으로
시간과
저렴한
cp
잃고
위원장이
학교의
##지대
가능하게
열람
소중
##공제
##랑이
##ack
오리
가족이
##제1호
확산을
였다
전제
##꼼
4명
목을
군은
##안정
기억이
##헨
공무원이
##니는
##동은
수직
호흡기
##창업
말하자면
행정안전부
##셔야
##속으로
저런
대상자
당신을
제5항
we
확인한
기쁘
손이
##제4
##청을
부각
드리는
쪽에
자격증
있지요
고교
안의
구멍
않는다면
주민의
대변인은
다리를
##ᆨ트를
제10조
이며
관장
##역으로
각별
몰래
##부대
수사를
몫
거짓말
##됐으며
중고
##나를
반영한
소각
db
떨어졌다
##33
##현은
##청과
만드
##설비
소극
아이들을
게임이
녀석
지었다
종로
##ant
##조제2항에
이듬해
식사를
시야
전년도
성폭력
따른다
##클럽
##편을
교정
fr
작중
##반응
짓고
##사한
지원하기
턱
##통제
31일까지
솔직히
돼지
##인한
매뉴
싱가포르
옵션
##크는
대면
일어날
외에는
사마
남을
강남구
소방서
무더
변형
5명
카드를
##프의
끝으로
살펴보
지옥
구직
목소리로
##린은
가짜
잇는
츠
부를
##쪽에서
at
확인해
황제
공적
항에
##아를
##과를
세계에
생생
포지
##000억원
말이에요
중구
제11조
5천
완벽하게
플로
뜨거
계획은
##인인
##걸이
지방의
##셰
정보화
돋보
행위는
사령
내야
비공개
##타로
순식간에
보여준
아뢰
킹
탕
##타는
장점이
시작할
아키
형법
##사업이
인생을
써서
왕이
멈춰
##ᆯ릭
차관
없으니
위축
감상
코너
해결하기
경기가
##합의
##자문
논쟁
있겠지만
2루
기둥
개체
무력
약간의
썩
##축제
##림의
보시면
맵
해설
제29
꽂
있었다는
##움과
다양하게
따르는
사물
청산
2인
안산
제안을
진행한
지키는
##소장
행위에
방지하기
한동안
##는데요
##트에서
불렀다
정책의
가벼운
적게
후배
양자
잠을
호기
공주
외환
비판했다
##되므로
발생하고
##방식
아픈
##편에
개성
##인들을
##르면
##지침
##인사
근거를
##속에서
추락
cctv
피고인이
한일
##처를
오버
내보
매력을
점수를
터키
전체가
것일까
##된다면
##채널
아저
재현
그것에
서초
미국이
배운
##자리에
회장이
민생
구독
되었을
감소한
제품은
난이
저의
취지
특징을
##높은
##드리고
처한다
##ms
형성된
##최고
이루는
활동이
맑
변환
비정규
준비하고
##오니
여지가
확인하기
##마켓
장례
영구
바퀴
감싸
사육
2조
##년이
중동
##변을
사람에
진실
##회와
주실
머리가
##능력을
성격이
알코올
인문
정도에
조직의
##했다면
##공학
원에
##치면
비율은
음반
자유로
작가의
자율주행
나선다
##ᆮ고
이상인
지방세
부천
덴
양산
즐기
##조제4항
문제점
걸친
추구하는
##청사
엄청나게
명품
가능합니다
딴
##주년을
감동
op
웃으며
올리는
춘천
지나가
10대
지위를
어렵고
비싸
##결에
제출하여야
##ust
몹
##님께
##48
100여
##이든
헤드
##주의의
가리키
말인가
이후의
성우
##나고
만료
창립
왜곡
협약을
청사
꿈꾸
##시험을
##담보
##아리
등록을
제출해
공판
##늦
##보드
##하였던
##청장은
##쾌한
##포럼
나고
플레이어
미루
##버그
예방하기
남양
시설이
아침에
##전시
##밀하게
##유예
##되었음을
##dp
전작
시료
등등
터뜨
뭐냐
보아야
##투를
용서
2위
인터뷰에서
##기에서
제30
현실을
##박스
5분
비치
##니와
스튜디오
평가가
싸움
고혈압
##9억
마음은
일찌
임기
왔습니다
맛을
실종
학생이
나가겠다
관람객
잡을
장기간
무지
##크가
염증
시작해
비해서
아닌데
순위
빨라
누워
안성
개념을
불량
확대하고
가까워
cr
번에
한계를
원은
고쳐
감당
휴식
갇
일정을
약속을
간행
부드러운
느꼈다
##시설이
어머니가
##두에
##심에
##신청을
개인적인
보고서를
써야
중요성을
제안설
사람들도
판매하는
장비를
노동자
체계적인
경유
것이니
##하자는
조사한
용역을
자료로
##퍼펙트
6억
내리는
일주일
예산의
##하느냐
##니가
##에스
신뢰를
##리면서
전세계
복수의
##용이
나타나고
##도우
다음의
급속
남해
범행
은혜
600만
사실에
4시
쏠
미치지
끔
##권자
점포
##테이션
##념을
얽
눈물
하늘을
절약
그다지
##인들에게
서면으로
해결을
○문화
어려우
##팽
드러났다
날씨
행위가
발명
정해진
##바지
사무총
1999년
불확실
프로듀
출동
##ound
생각도
성공했다
맞다
선보였다
해주는
됩니까
부분들이
##파는
돕는
##ore
##거리가
수준이다
##두는
플라스틱
매체
한가
##용역
포트
론
것이지
최선의
대응을
##융합
업그레이드
##46
교육의
행사에
2번
공표
한국어
정신이
번씩
기획재
##박물관
무서운
거울
계획입니다
##헬
튜
##da
##민은
도구
못하면
##안전처
##하듯
원산
dm
수혜
대해선
설명해
총리는
##톱
##모델링
임진
세트
vs
서해
다루는
인천시
감히
##컷
샌
들어왔다
##되었다는
소식
통과율
##되어서
1998년
해군
##금속
##통계
대부분은
##동기
결정했다
승용
광범위
있잖아요
10분
간단히
꼼꼼
높였다
##ᆨ스는
감정이
의사가
얻었다
##뱅
구경
br
##할지
임금이
##적이며
드러냈다
치료에
ac
##구요
##내며
##2만
포상
저축
극장
##시장에
오면
느낀
방식이
더블
##드릴
알리는
##소리가
완공
줄을
##기보다는
##령의
##슘
줍니다
무죄
##정책을
레이저
##주식
하고는
1년에
감수
없던
##ᆸ게도
##나가는
예정임
모르겠다
##론의
##되었음
##먹을
검을
롤
인력을
않다고
오로지
부재
##결의
##싱턴
기어
주어진
##스티벌
문득
##마리
구름
1호
##one
곱
##본부는
보낼
엄격
책정
이모
분야별
팝
양의
140
납세
찾은
연구가
사용하면
상반
중도
봤다
결정할
##터에
##지라
좁은
내밀
10명
메타
끝이
##6만
유력
그렇지요
달콤
개최한다
그들에게
1로
제주특별자치
대피
##양성
##했었다
##집이
감추
가지가
##막이
서울중앙
하기도
발언을
순서
서로의
##천군
골라
시점에서
비싼
장면이
##어졌다
전제로
kg
가무
##행위의
##디션
그리하여
아리
줘야
돌아다니
얼음
양측
거라
##85
깔끔
원내대표는
강도
900
##ass
타격
일부는
터널
##라스
의원의
서로를
미래의
상가
차이는
##기관으로
##관리에
##단에서
이분
##행정국장
귀를
체제
관통
인생의
죽어
뒤에서
이어져
가족의
과제를
부득
대충
빛이
아픔
##처분을
##ᆷ보
편지를
이집
선택한
꾀
멀어
당시에는
자매
숨어
##8만
폰
차질
fc
##ep
외모
이전의
사용이
##란이
하나씩
##찮
##부령
미소
굽
장의
주면
인식을
있습니다만
라이프
명확하게
효력이
##소프트
의미로
산학
적의
문제도
##4만
##설이
##인가요
알파
##년의
말씀드리면
엎
이슬람
어우
포스코
요청할
##축구
매칭
##ᆻ을까
나설
요인이
##감으로
부모가
vr
번째는
두루
진주
기관은
존재를
##조치를
현실적으로
##크의
힘들다
##회복
아트
부의
줄이는
전쟁을
물고
원칙에
이외에
출간
추진한다
##이었는데
##숲
올리고
절망
듭니다
##배출
해주시
트랙
##하우스
##스피
수업을
##하시기
인물이
##mg
사회를
성향
##검토
조기에
어느새
##님과
하느
##론이
동영상
모르겠
대조
##퍼스
자격을
규모를
160
크루
액션
공정한
어디까지
몽골
유산
##보안
받으며
성공적인
기억을
기반의
상하
원안대로
##자연
##왕은
기름
선을
주의를
싶어서
잭
##브를
피할
생각보다
##어지고
억울
쥬
수호
분석한
눌러
##답게
가사
붉
녹음
있었으며
##만큼은
시위
문제점이
12개
하실
조류
취득한
11개
도약
신기술
지하수
세상이
넉
속도로
개인적으로
상고이유
삶에
사모
방문한
##7만
3분기
당첨
001
계시는
일어났다
골목
뿐이었다
중순
용산
오스트
확인됐다
미ᄅ
떠올리
시의회
제12조
비롯하여
종양
안을
정규직
더러
노동조합
세상의
막대한
자회사
발음
광복
보물
거고
온모
결정에
800만
마련하고
민감
난다
청구할
kbo
사정을
작품은
천재
##구매
##yp
혼자서
##36
정권
##급식
하였습니다
발령
피아노
이적
앵
기술적
##채무
논문
지원과
조사에
터져
미사일
서울의
준비가
##전지
닥
포켓
데서
행사가
30대
##주세요
있나
마련했다
##m2
##발의
##000만원
##겠죠
차기
만다
요소를
##놀
결정이
##하지도
잔뜩
##있게
실력
작성한
부당한
##경비
무덤
피를
해산
밤에
##머스
##편이
문제와
젠
유방
후보가
주재
확률이
내수
밥을
말하기를
나타냈다
바라보고
고려한
##및
##3만
제도가
대대
근본적인
1997
이젠
모의
##쌀
##국인
죄송합니다
시티
##원인
승계
영원히
하고자
예상되는
느끼게
상대의
처럼
바꿀
##락이
법칙
##사항이
##정보통신
##팅을
맞습니다
##친화
htt
구하는
하나하나
##아동
연상
논의가
하야
가지를
##견이
##ath
모순
속한
미션
테니
개념이
##ᆻ게
장군
틀림
이의가
##착을
잡지
##장한
##시장은
스크린
그레이
구급
##절차를
상대를
법안
씨의
수술을
무거운
저소득층
##담으로
연안
환경에서
##페라
모은
문화예술
김해
각자의
##동으로
어깨를
##사실
서울중앙지
잡는
아카데미
항공기
##리자
##교부
##운송
학생들은
핫
##위험
3층
##소재
디자이너
중시
##가며
평가했다
예금
사망한
두통
수준에
최악의
지적이
역할이
이득
##세서
잠정
어두운
ic
퓨
자로
자체적으로
주먹
목적은
번의
핑
처리를
광양
행정자치
강연
의외로
이승
설치를
화상
영농
프로젝트를
##하니까
조금만
##ws
특성에
현상을
개정규정은
저렇게
건국
재개발
##ᆻ나
예쁘
비율을
충격을
인정하고
왕의
깨끗한
6년
점심
책이
직무를
이루어지고
##버리는
ct
고무
존속
##局長
50만
자부
춤
인증을
연구원
원칙을
커플
##투자증권
거대
인정한
사서
회의에서
뵈
기업과
1997년
##차적으로
##플루엔
튼
배우는
##사항에
##차게
외로
##프레
줄이기
##부령으로
원수
돼야
##비율
정화
##96
##측정
하려는
쓴다
기획재정부
3천
양호
달린
##옵니다
##교가
열렸다
중화
똑같
조치가
링
찍어
노란
마사
##히지
기관에
##격으로
돌아왔다
##공사가
내실
우연히
##질러
무용
알기
##for
사건은
지정을
머무
사퇴
##로에
##ng
##경기도
국산
유예
반박
17년
쉽고
기술개발
포도
당당
바쁘
##월드
사무실
제외하면
원전
##멘터
표현을
도래
회생
악취
들지
직접적으로
##시험패스
강화해
하에
삐
효과는
em
##이요
결과로
화학물질
많아서
##ᆻ는데요
골드
##가입
○기획조정실장
##보수
후회
건가요
부탁드립니다
##데요
이거는
구할
한도
한국인
면세
원칙적으로
비중을
초음
##서류
주장이
추모
##선생
이루어질
관계로
업무의
학교가
##밀리
유죄
교장
소유권이
상당의
염려
목격
배분
다채
운항
##신탁
동행
타당성
##화되어
남긴
너의
##업무를
##놨다
##경과
스트레스를
노려
mm
##고도
##ae
문헌
정보는
실적이
비유
대미
##브라
장악
영유
노력해
입장이
##혁을
검정
항의
##왜
수분
##현이
자에게
헌신
각기
##제도를
##쪽을
여가
100분의
브레이
단계를
##현의
네덜란드
개인이
새만
헐
##타가
카이
tf
##지니어
방지를
##시대의
강화하는
의미하는
fl
##공연
##잡고
2개월
제도의
결심
가지만
눈물이
생각한
##희의
##방역
어려움
지극
내릴
체계적으로
경기도의회
##관계에
##01
모습에
공사가
바라보
협박
전라남도는
참석해
사업과
수습
도시의
융자
##sc
위성
##야구
선수가
위배
받으면
싶다는
불꽃
행복을
##활성
상을
높았다
비극
금전
굿
##ᆻ었다
ec
lh
멸망
편하게
하였고
두어
전통적인
##보에
원정
##뉴스
조례안에
##나라의
코드
##자에게는
약물은
흔한
제법
남자는
##위원이
수천
그러는
결론을
입에
시설물
##노인
자료는
s4c
##44
부속
야기
국민들의
설치하고
선택을
시기를
거치
필요성을
중심이
마인
태국
20만
국가대표
한시
##언이
##발이
결혼을
비정규직
##꿈
##인물
선전
18년
잠이
보상을
중점을
2분기
기동
바라보며
공유재산
원에서
워싱턴
리모델링
지금부터
교섭
둔다
##멀
기가
상무
분석했다
##식에서
것이나
김정
정부에
같으면
일곱
베어
짝
판결을
가지로
꾸며
어서
v2
때려
분해
보험료
여자는
##내지
걸고
##der
성질
확실하게
##협약을
##세트
프라이
서브
제공을
대답을
안동
##급의
문화의
물론이고
안건
16년
제36
적용되는
##75
무대를
삶이
##립을
여러분이
##작물
##결과를
값을
##화할
##지주
2의
##모델
##중개
가능하도록
속에서도
##평가를
즈
##마이
안전사고
##어지는
##풍이
처방
##으앙
시골
없습니까
정도였다
이상은
프래
밥으앙
##교육지원
동법
콘셉
반면에
성능을
##면은
파고
앉아서
##구간
비만
후손
없으시
##등한
##인재
구원
대학의
혼인
미치
지키고
##즐
##회사가
피가
신인
##속의
것이란
##기간은
직면
최소한의
가슴을
습득
##ial
##조한
해지
사라진
꽉
했기
세탁
의학
led
체류
신기
정기적으로
기준은
암살
my
세상에서
##왔던
부모의
정무
##법원
벌어진
##빨리
일으키는
백제
신청한
압축
##슬러
친절
밀집
괜
중재
세력
##과에서
배틀
et
현장의
불편을
##기본법
입사
sy
개를
쉴
부가가치
판시
인격
교육은
주시기를
의미에서
착각
의혹을
6만
##소설
동안에
철회
##늦게
보건소
앞둔
더구나
##집에
설치하는
관계는
국무총리
용도로
나라가
매출이
wor
##yle
##리에서
유리한
안정적으로
##토지
청문
의논
유독
책의
밀리
제3호
##심과
##벽을
1개월
되겠다
장사
사라졌다
콜라
어긋
##제작
없었습니다
##희가
투어
교육이
국방부
##중을
최상
바꾸는
간략
건전한
히어로
##부서
##운전
쓰이는
클로
상영
##쿼
재미있는
##균형
동일하게
##판의
##체제
농식품
한숨을
##탱
병원에
전직
몰라도
힘으로
운영한다
콘서트
됨
대거
임대료
##했으면
투기
##보고서
곁에
급격히
한국과
학문
##하였다는
대통령과
일본은
주입
의문
청원
잘라
지지를
죽는
엮
중얼
한꺼
토지를
소송을
침입
아티스트
데다
건강보험
의무가
전형적인
하겠
연결하는
독일의
##시장을
비용은
너를
##소리를
대결
##진료
##태를
이천
##싶
생계
태도
차량을
놀란
모양의
법원의
나오면
##환경을
우승을
덤프문제
id
연기를
인턴
##회로
과장님
##중공업
개정안
지고
파란
전남도는
밖에서
괜찮은
경찰이
##자들과
##화되고
크레
후기
##세한
1995
퇴근
보살
##기관을
##이에요
파는
공립
##증진
##처벌
##회의에서
##전도
제3항에
발생한다
소나무
교수가
성적을
건물의
착한
재판부는
연구는
한꺼번에
발견된
가슴에
공공기관의
출신의
제휴
생리
농도
총선
주류
매니저
##공의
##마케
소감을
ib
어우러
숫자
총장
견해
1시
ag
시에는
예로
귀속
뭐라고
나타납니다
요소가
186
통치
사용자가
중국은
꿈이
피곤
낙동강
실제로는
모르지만
이곳에서
##수원
##팀을
##해야만
##펀
제34
##명령을
##과정을
비트코
설명이다
30여
이어지고
걱정이
마크
실력을
##즉
##스턴
분담
ps
##압을
먹어
우유
##9만
꽃이
##피를
조례를
경향
##높
##마한
방식의
700만
상해
오류
나머지는
서비스가
시립
##론은
알리고
전략적
언급한
유혹
차원
##시효
##모로
○보건
거지요
않음
신생
##플래
1995년
##늄
203
지는
##상선
어머니의
##덩이
청춘
쫓아
##지정
구두
이익이
##르가
보정
##쥬
이용에
쇼핑몰
##만으로는
늘고
제공하기
않아요
##박람회
##널드
배울
유학
4분기
구미
손쉬
접목
자유로운
프로그램은
태백산
연구소
않았다는
지형
수산물
법규
아래와
반짝
가격에
##페이스
##행위가
##관한법률
놈이
화장실
##철이
피고가
##000여
지식경제
돌아가는
찾았다
지나면
소홀
문화적
턴
되었다고
사적
##1만
##예정
##전기
대표이
물려
처리하는
힘입어
3단계
##의의
기록하고
적용된다
전국적으로
지주
몰랐다
낭비
제고를
부유
분은
##승인
3번
##세와
수평
자에
희망하는
최우수
가진다
지급하는
주위
철저하게
것이냐
나눌
##니즘
##센터의
등판
마련됐다
하려면
찾아볼
지목
안정을
배수
제압
구동
했으며
##묘한
##ᆫ터테인먼트
앞선
##카와
##먹는
제14조
집회
선수들이
조그
남쪽
##아지
##ort
파주
어떻게든
상승했다
자세를
아름답
되지만
##협정
대단한
사장님
아무튼
고객에게
뷰티
##토의
##이면서
인체
결성
##민족
아니야
국민들이
얼른
올라와
시험덤프
전술
시설에
가기
되기를
##허가를
유적
퍼포
붓
정성
##기준에
##창조과학
1부
정통
이재
##중학교
##좋
##되던
신흥
요청했다
택배
예정이며
매번
##가정
마스크를
##니를
##었는지
휴가
광명
맑은
균형을
일으킬
사람이다
##하긴
요새
의식을
얻기
상승한
##쎄
했으면
현대차
토지의
역을
공지
17개
개최했다
임시회
1990년
##시장이
##공사는
사찰
법원에
##아웃
가능성은
##짱
일명
임무를
낙찰
짓을
검토하고
여름철
강수
##ᆯ레이
##남이
되었는데
양수
2시간
파악할
위원님들의
리더십
정황
도정
머리카
뜯
교차
키우
재고
병역
전년대비
dis
일부가
저기
##이었으나
싸워
##루의
##법령
내년에
가득한
스웨덴
클리어
##북부
우수사례
청장
##ata
과목
짓는
클리
##품의
우리나라는
##있던
질을
하시고
감독을
애플리케이션
눈동
5대
환급
점검하고
기록하며
무작
검토보고
정책이
트래
뜻으로
000억
날아가
인접
##토론
가져다
##엑스
칼을
입소
##레벨
##ᆷ임
##층을
과정은
##37
조선의
사회주의
신비
##88
좋아요
대지
이산화
아들을
예컨대
##인민
하도급
##량으로
나누는
다할
##오프
조사됐다
느낀다
죽고
자리가
##더러
경상남도
합니까
##기온은
신속히
동서
##틸
가급
##시스템을
준비하는
공헌
##기인
인원이
갖는다
다각
작전
김영
대원
##투어
효력을
내부에
개소
##현장
사이로
아래에
집중적으로
홈페이지를
있기에
상대방의
브리핑
수색
윌리
업무협약
##았습니다
극히
##것이
영역을
실습
벌칙
금융감독
장면을
씩
##오의
##취를
바뀌었다
동계
알아서
##서야
새정치
내역
걸까
해명
기록이
드림
##인터넷
커뮤니케이션
##버리고
평가하는
집계됐다
조약
웰
대비해
것의
기생
교황
##제2항
화폐
곤충
4회
중등
악성
sk텔레
나란히
##액에
분들은
남편이
용의
단계에서
##gb
전문가들은
동화
약물을
신용카드
요구할
고분
활성화에
스스로를
시계
폭너
오늘의
ml
말아야
예쁜
##폴
장점
들어가서
##십니까
##ᆺ날
##약한
사고로
공천
재외
##문서
적당한
##하길
산소
감소했다
요구에
##시켜야
증정
더욱이
서울시가
방송통신
##일랜드
남동
항암
##층이
떨어뜨
명확한
발생하며
기숙
진상
##감시
##ᆫ차이즈
신발
초월
시행하는
어색
1대
척추
팀은
##식물
확인된
##조달
식의
##똑
들었습니다
시민이
불편한
산책
권익
##니의
반사
날을
미래창조과학
제품에
기사를
새해
서비스의
검토해
쓰기
##수용
조건으로
트랜
확보하고
의료기기
19년
##39
내무
베이징
##ᆨ한
동굴
제작한
주장은
돕기
대동
제시하고
187
##age
증가할
##제조
##뚱
결핵
다크
선보인다
##만족
진출을
먹은
연평균
피부에
금액은
수료
3분의
과감
dr
분배
##우리
##중이
얻게
##시간에
획기
이루어지지
치열한
전문위원
##의무
치는
남겼다
30만
##코드
##적이지
퍼포먼
1998
인구가
남자의
공기업
힐링
늘어나고
양이
편의를
목수
##활동에
메가
웨이
우선적으로
##달아
당기
신도시
가족과
##ase
제발
주의해야
역전
##사령
후의
환경이
부탁을
감옥
##결제
도와주
두꺼
신도
로맨
##절로
다시는
철강
##신경
##int
마찬가지다
그래야
##2명
몸의
시행하고
배경으로
의사의
##반의
시스템의
판단할
예방에
시민단체
공영
취할
방에
제13조
##인구
##데모
원리
##업이
##역량
그런지
과기
모르겠습니다
초기에
##드라
##물류
산업단지
##글로
히트
노무
아니냐는
불필요한
여의도
##린의
웹툰
##우와
미군
소유자
좋았다
투자자
브레
욕망
##pa
그래요
첨가
클래식
참여했다
파생
품고
전망했다
예정인
○경기도
판단이
함부로
배우고
하겠다는
##현실
2023년
펄
좋다고
수험
애매
기술과
가죽
##불을
##오스
##있고
시를
기피
수목
믿는
##시에서
아쉬운
캠프
##선거관리
과잉
용어
##사카
진동
##스테로
엔딩
기증
대답했다
새만금
오랜만에
아니하거나
모두를
가요
마음대로
man
초코
iot
스킨
분야를
##상환
##버린다
○경제
이정
##운이
둬
##워드
##떼
되길
##모의
##가치
영은
##권익
종업
쉽다
공급하는
엄마는
##전문가
##ind
중국에서
전무
국어
선정됐다
촉구했다
고양이
주목을
제시했다
연설
##이행
바위
투자가
마련을
##하기에는
종결
##m의
때를
일본에서
시인
##00여
##00원
그녀에게
##놓았다
##ᆼ을
장래
설명하고
견디
몹시
배신
서포
so
##주도
##방울
##톨릭
습관
고객을
커지고
##하하
것임을
전국의
예산안에
##일으
오늘도
것들은
##풍을
사귀
알아보
##씨와
일각
얹
에피소드
의지가
##안보
힘들어
원주
웹사이트
고스
퍼져
켄
성장할
골든
##쪼
##매수
표정
제33
안다
##화문
스포
감리
포착
높아지고
여러분은
점수
밖에도
아이들에게
##상한
영향력을
해마다
연동
끔찍
소요되는
맘
##군으로
자사
공수
신세계
심하게
외면
죽여
확보할
애써
##연대
데가
##기획관
##당국은
여기저
조정을
##라이언
말이죠
탈퇴
##유공자
##센터가
##학기
7억
시중
갈등을
##대책을
인종
국가와
##일과
경쟁을
그러다가
##평화
##ecd
삼고
촌
사용된
##계에서
판단된다
제35
##이라서
식약
아마존
사태가
여신
비영
##권도
예전에
마감했다
미스터
낚시
도움
광고를
가맹점
통증을
모습이다
정할
##특례
건강에
중립
po
사회에서
따져
동성
한국시간
##간이
총무
그래픽
군산
##제도의
낯선
경기도의
폭염
##에다
방탄
효율적
자신만의
##감도
언젠가
베르
중앙행정기관의
소아
미성
왠지
적혀
##ance
말하지
기침
100억
##였다고
##는다면
포천
걸어가
저희들은
##뼈
정교
일과
올릴
여자의
실수
구해
존재가
##ith
##터로
##권역
제32
만나게
##혈관
금호
##셔널
##할까
도시개발
피고인의
##수리
학생들에게
영위
짧게
옳은
프로그램에
참여하고
##하셔서
흥분
하되
하향
설레
피고의
##fa
##섰다
끝나는
플러스
##암은
16개
생산하는
제안설명을
부분의
국내에
안겨
하락한
바보
교육에
서울에서
읽을
gl
갖다
분비
때문이
보겠습니다
##쓰고
주인이
장소를
안전하고
문화가
##ix
희귀
안드로
##이고요
부수
ts
하나만
곳곳에
개가
해당되는
사업계획
아직은
유지하기
민관
혁신을
말과
신호를
##하천
관행
##1000
내부의
중계
토끼
처리할
여쭤
시대가
##들만
불과하다
깊게
캘리
전문적인
개발하고
최저임금
소비자의
서둘러
싶을
늦은
##쳐서
세금을
15개
체결한
##4명
기자회견을
이해하는
20개
머리에
##합니까
성과가
##닷
##쟁이
찍은
주가가
달래
##기로는
이루어졌다
oecd
데이터베이
여부는
임대차
사회가
##캠프
##연료
자료의
설치되어
처음이
맡겨
롱
편찬
##마에
구축하고
##위원장은
방출
##조차도
##스럽다
불러일으
##산과
편성하였습니다
돌렸다
부총
구리
기술은
초기에는
외래
요구했다
목표는
맺고
튀어나
모인
스파
##47
고사
상주
style
늑
늘어날
##방은
##55
##은행이
전통시장
치킨
진학
##통이
개량
바닷
필요성
##증과
cs
길에
##초등학교
약을
딱히
데도
지식재산
해를
대의
인식이
부정한
맥락
목사
어렵다는
##선언
복제
모았다
시점에
시흥
포켓몬
##들께
정부에서
하였으나
모르겠지만
##옷
뛰어넘
보훈
##감사를
휴게
초등학생
모험
겨울철
##출장
##하우
뒤에는
토요일
손실을
선보인
맞추어
##여건
배양
영화의
이내의
어디로
구청장
##마토
##화하여
##권에서
구성하는
위장
운수
교육훈련
##결은
받았고
블록체인
방식은
한국을
임대주택
규격
개정을
기다리는
골수
크기가
국가에서
굶
때보다
돌연
제15조
양질의
눈앞에
##폐기물
중추
얼마든지
휴식을
##란의
알렉
성을
부자
강화할
뉴딜
##달라는
득점
수반
##하수
규제를
흥행
벼슬
학생들을
캠핑
만나고
취하고
조화
##스럽고
잘하는
금융투자
라이트
##ᆸ시다
이은
##공사의
사격
##라미
무엇보다도
부상을
포털
##대구
줄기
국가는
낮게
탄력
청정
방법이다
##취득
##한을
##으셨습니다
##킬로
개선에
보호하기
때에도
1분
기업들의
고추
##센터에
##테이너
적절히
않았다고
##to
품종
용기
스캔
집권
움직임을
프랜차이즈
사랑이
내면
우대
펼쳤다
육성을
가족을
적시
과반
도널드
경감
로그
군인
빈곤
##ds
일련의
1996년
##io
가라앉
뽐
일본에
##루에
거칠
##계산
줄었다
실시간으로
디자인을
제2회
조합원
절차가
한창
되기도
일반적
사용하기
##ml
조립
테니까
구석
##ph
설사
살기
##거를
3가지
고가
옆에서
##은행의
##az
도매
구단
산재
##였으며
우리도
##요금
마구
##검찰
##피스
이하로
##라를
리듬
묻고
단행
지역경제
##일리
##계로
##지원을
김치
죽이
1이
들어올
제작된
게임의
아니며
앱을
톱
태극
최대의
그리스도
자기를
원장은
늙은
느껴지는
상이
세련
##핍
사망자
##mw
순수한
중요하다고
##자면
건물이
김종
##프리
국민의당
자치구
앞세
일일이
조선시대
일단은
##맞은
꽤나
자유한국당
유용한
특이한
창고
기록에
교도
남지
대접
##총회
##유럽
지난번
##3명
푹
##주간
즐겁게
제16조
끝나면
목욕
##리에이
정보공개
몰입
이력
분야는
소속사
셈이
탱
##일지
판매를
방문하여
멸종
두께
결정한
##지점
양쪽
톡
##기엔
##87
작가가
##ace
새마을
##뜻
과학적
지수
적용을
컨텐츠
40대
##그네
pm
자체의
만전을
##타의
충당
신재생
돌이
350
애국
억지로
##교는
심리적
##퍼센트
##초를
중국이
듣지
있음에도
피드
전지
##5명
##딸
##ach
동구
프로모
시전
강서
##공동체
인증덤프
유물
부임
인간을
개선이
지방자치단체는
그곳에서
문장
계획의
내리고
감염된
7만
어촌
누릴
석탄
1년간
끌었다
##드린
싶다면
만기
정복
하부
##타이
##배우
확대할
회장의
반영해
해임
야당
14년
갯
진실을
##보훈
나타내고
집행을
활발한
##민을
운영이
아이디
##인원
최다
기지
설치한
##았으나
표지
##부동산
##중독
반성
##연합회
col
바쁜
긍정적
사업이다
변제
유형의
기울여
장소에
되는지
거기에서
나누고
##인지를
2개의
수행하고
지급할
실로
염증을
엇
포인
줄고
##뜰
##교수
##키가
양반
##영향평가
##디언
##사에게
##값을
씨를
업무가
되었으며
안파
근로자의
공직자
고조
정도다
##페이지에
나빠
제31
활용을
남는
아내가
##틈
##실험
1은
##ᆯ렌
##점검을
##넷을
삼각
덤프자료
낸다
데이트
차별화된
잉글
##토가
이용을
##지않
화살
##능력이
들어간다
카르
이해하기
자칫
당분간
집이
바람을
벌금에
대표의
위원님들이
##문화를
##폰을
너무도
시비
하느냐
말합니다
##관리실장
마련할
행동이
예정입니다
자원을
주파
재판을
기저
##지역에서
개발과
##덟
차입
하나님이
바뀐
태평양
##음은
날개
##지는데
분과
##카가
근처에
##발표
##지역으로
튼튼
cn
##qu
하락했다
간담회를
운영비
form
##각이
##처는
평가하고
본능
계곡
##사도
소통을
넣은
모델이
종자
연결되어
내장
에도
##사기
당뇨병
##급이
##홈런
##고속도로
##지다
지급을
명칭을
##한의
껍
만들어야
식량
kia
cm
##타워
적고
##교육의
금융기관
경관
중소기업의
쉐
겁
소폭
##ge
뿜
미드
모두에게
영세
방류
장에게
##파에
근무하는
첫날
망설
기다리
기원전
##것을
##값이
##빌리티
동쪽
뜻하는
##플루엔자
##들께서
역사가
대상에
시행을
예배
##기업이
하므로
아니기
##심에서
왕실
##최신버전
##세다
##팀의
받았습니다
위원회에서
협동조합
엄격한
##6명
주머니
마포
로스
○교통
메디
하수도
연락을
##우며
가난한
##할수
##학회
가자
정정
고위험
등재
하였으며
##더군요
끝날
맞춘
##겠는가
빛나는
탐색
##요건
이들에게
선생님이
##학대
빼고
국경
이식
20억
원입니다
페스티벌
전동
직원들의
악마
누군가가
최적의
그곳에
비영리
똑똑
경제의
방안에
몸은
##음식
포스터
개발이
물리적
군에
진도
않거나
실시했다
3학년
글쎄
소유권이전
강좌
지키기
##책이
만났다
편안한
말미
역사의
##our
마땅히
패키지
##지기도
##번호를
하나입니다
갈음
단정
일어서
법인의
키우는
박물
소식이
##곳이
제공합니다
농산
##년도에는
길은
가져가
##보의
경기에
탄소중
플랜
##수단
등록된
상하이
종족
##오지
장치를
막상
자격이
##문제를
##지역은
##77
##동과
형의
개헌
##음의
이지
신제품
쉼
조금이라도
머물러
집착
소비자가
크지
##력도
피해자의
있겠다
##역사
##단다
##베르
##어리
부정적
법원이
도시철도
토론을
적용해
도가
모양으로
첩
엽
분명한
##철을
##위반
##들인
지도를
미국에
##상승
형평
##카의
압류
자고
##홉
의사는
그제
역사상
춤을
##샘플
##유효
받아들일
은근
내려다
##ld
##농가
##스토랑
##녀가
##교환
동영
시민들에게
소재로
아끼지
대고
앞을
비중은
모델로
꿰
매개
##친구
나가서
한해
본예산
환율
##ock
##8명
판타
박스
반대하는
산업혁명
러브
단편
##장인
언덕
농촌진흥
콜로
언급했다
플랫폼을
##1명
정상적으로
오르는
높을
경찰청
##ech
농림수산
##프로그래
맛있는
제출을
견인
저해
세로
##었어
##uc
서울시는
노력할
미쳐
주요업무
저지른
##됐다는
전문가의
이룬
##제2호
양을
집행부
ed
신부
##진한
정기적인
전적으로
##독한
##디스
##남을
비하면
5회
떠올랐다
##시키지
초과하는
##재인
경험과
##진에
선택하는
향했다
발견한
##위한
덕에
무산
리가
##평생
##지급
1980년
확보하기
방문을
메르스
상급
##표현
뚝
수요를
시기가
##구리
##지역을
##종사
방법입니다
돌아갈
##감의
8억
공급을
##계좌
공존
캐릭터를
떠났다
수치를
강의를
반영하여
thr
다룬
열매
설치할
자리매
있겠습니다
고문
원장님
3배
아랫
##정상
##주주
어울리는
찾지
##클로
뒤늦게
경제가
간절
##보호법
##작이
jt
늘어나는
유무
젊은이
작품이다
프라
밀접한
에코
기조
실시하여
##마저도
통증이
유명하다
재차
방안이
촛불
갱신
재판에
##생은
##디가
##광역
##형과
##후가
박정
발전과
##궤
##저당
신약
발생을
쓰면
3인
##료는
##56
##are
오를
발라
지위
시간의
인식하고
##주의적
묻자
취향
박람회
나이에
##변이
없이는
민속
13개
전체에
50대
사단
외상
##부품
##작은
##ᆺ하고
꼴
콘크
전화번호
상인
좋겠다는
훌륭
타기
합계
물어보
자이
간신
##눈에
##hd
강렬한
걸릴
##길에
##원칙
위원회에
여담으로
그대
운동은
서쪽
전임
무기를
앉은
##조의4
잘못이
##창을
안되는
밴
##있었다
대두
괜히
달에
초록
무대에
혈압
드라
사용자의
잔여
단계에
콜레
공식적으로
##지도록
급히
##1호
합리적
ass
센서
검찰에
않겠느냐
생각하십니까
편지
판단하는
가령
##델
도민의
컸다
작품의
##플라
해결하는
손쉽게
납입
##팀장
특수한
형상
마련한
틀어
놓인
대성
##왕을
##야의
##정책과
원고는
초래할
##ᆻ는가
국채
합의를
표현하는
연구의
생활에
작업이
길로
1994년
불가능하다
전환을
언제든지
이른다
미달
##플리
##운을
어때
##판은
어렵습니다
##사업비
원가
식품의약품
폭탄
꿇
변화는
##직이
##고리
차고
왔던
샘
스페셜
##효과를
모터
신선한
고려해야
한하여
입점
샌드
정관
외교부
##에의
북쪽
##되었지만
위법이
제도적
2부
본인은
글쓰
적용하여
뛰어들
제기한
##학이
하기로
차가운
##수석
불만을
##천원
작고
판로
조국
최신버전
##우지
건전
##작용을
기운이
없으나
농도가
백화점
##맵
##카페
비핵
파악을
때와
주시고요
모양이
페이지
##9명
가다
법령의
채소
해양수산부
##테크노
제38
적자
열정
도착한
감염이
열쇠
작성하여
##ba
나가겠습니다
긍정적으로
인천광역시
신화
##키의
##스트는
##증후
세출예산
누리집
활약을
170
대응하는
형태가
##비서
좌절
보컬
현역
##공은
제17조
##있어
이길
상대방이
염두에
끌어올
##무늬
사운드
##와이
선착
하고요
전인
목적에
공용
대응할
횡령
보이지만
우려를
관리할
먹으면
##농협
예의
송파
빈번
불명
열악한
조례에
##수산물
덱
고등학생
매뉴얼
일선
너머
하려
저한테
담당자
실장님
두번째
누락
##촬영
송달
찾아와
버리
될까
기자회견
컨트롤
회의에
자격증을
##급으로
##조제2항의
하셨습니다
##년을
여유가
서울에
면담
산업통상자원부
수시
##림은
쓰여
나타나지
○부
##링을
##항목
##협동조합
농장
영등
##낮
우호
지방선거
##기간에
정립
##강화
맞았다
##카를
##객이
일방적으로
소정의
쾌적한
웃는
개조
특별자치
상류
밤이
근절
##미사
##르르
##죄의
##판사
중요하게
bo
할당
실질적
비비
안정적
제한을
투자유치
알고리즘
맥주
전력을
도둑
나주
차분
차려
##념이
수납
12시
제거하는
나이트
최종적으로
의류
지루
어렵지
여기에는
sap
와중에
신체적
벤치
간혹
##신고를
##보로
방과
30일까지
관료
고충
##심리
21년
타는
단호
8만
inter
관련해서는
고장
하세요
독려
병원에서
사례는
이곳은
##떨어
이름1
뇌의
##어질
파손
자연의
권력을
거리두기
전기통신
원활하게
공단
##됐지만
다채로운
생일
국토부
##야마
개최된
클린
그거는
도지사는
주인공이
##모임
버튼을
방송에서
일본이
슬라이
제임
등산
염색
오염물질
##다이
전시회
##티스
측의
사유를
있는지를
우크라
##제약
침투
요구한
중국과
##슨은
##리우
달라는
나한테
글이
보여줄
놓아
경쟁이
4개월
##부르크
국가를
삶은
##라니
채널을
초음파
##38
그랬
취한
이노
회사에서
마련된
##주신
000여
교통안전
붙은
움직임이
것들
출토
호수
안팎
사도
불공정
반해
##비용을
납치
유역
시선이
위주의
##령은
평가는
해피
걸리는
##기나
막고
하셨는데
사무를
상품이
넷째
##ᆯ릴
계약이
##ca
##셀러
대기오염
##때문에
구매할
##코의
wik
##실시
잠수
실린
##작가
전차
주관하는
14개
##루는
하겠다고
일들이
##정책의
##hp
직권
계획으로
판단했다
달고
공간으로
솜
워크숍
##led
##지거나
##미와
앞의
가지게
방광
정해져
제한하는
##운의
프로그램의
다이아
1명이
##등기를
특혜
전쟁이
##처분의
원래는
음원
##스트가
없거나
많다는
효능
고집
주변을
##준이
##천은
벽에
지냈다
정산
##병에
##자와의
쪽이
독립운동
입술을
좀더
구성을
군대
추진에
##측에
명의로
민간위탁
##일수록
추경에
미수
소개했다
##6호
상식
설명할
19세기
##진으로
시일
갈등이
##2호
##등은
##아와
랭
##건대
##준은
##본부장은
가전
아시안
고스란히
헤이
미처
봄이
##키스탄
쏘아
경사
상부
무안
분열
달한다
주시는
잔류
버리는
생각으로
걸음을
##변호
##경찰청
##저축
##먹고
조건이
교실
정신건강
모듈
연계한
준비해
한마디로
나오는데
##카는
전도
견제
##정부의
자진
약화
의결을
일체
돈은
1996
아베
환자를
##7명
##계와
홈페이지에
대전광역시
옆으로
##었으면
##편본
연결된
##z0
같다고
학생의
넉너
##션은
겪은
불구
지낸
비슷하게
될지
선조
허브
실태조사
900만
제반
여론조사
전과
개정된
프레임
##으러
제사
##바이트
조만
아사
판단하고
평안
홍수
의미는
시리아
##기관과
말씀하시는
간이
##받는다
얼굴은
광산
##후에
000원을
스위스
##으려는
브루
우크라이나
3조
운영되고
대도시
많기
집행잔
선호하는
프랑스의
현저히
up
##지나
국민권익
현저
탄탄
##버트
구청장은
##선택
##환경연구원
내구
200여
떨어질
인데
사라지고
전국에서
밝히고
##해줄
##소시
뱀
대학원
인테리어
##gr
됐고
피부를
##종에
##석으로
랩
##드레
예시
둘은
##학은
##직에
표정이
등장했다
영업을
##표시
##야지
개인정보를
지적하신
산화
짐승
우아
일하고
백악
온다
냉각
없는지
그때는
국가에
음식물
리뷰
만족도
감안하면
##던가
로보
##34
주거환경
dna
##te
피해자가
##곳에
부분들을
전당
시행할
원유
##감소
신청이
##라며
자신들이
줄이
전이
교훈
영동
el
제공한
##대기
##주며
##체적
형식으로
##홍보
##ult
##티를
지방자치법
나서는
##녀의
##ii
속성
이행을
자랑하는
아니할
##요원
표명
네트워크를
시리즈의
##대고
신혼
안에는
사막
조직이
근본적으로
이관
실은
용기를
싸우는
이대로
공모전
res
이유에
##행동
초에
##대교
변화와
지시를
컵
##잡이
제조업체
이순
능동
터치
적용례
함양
나무를
##시설은
거리에
##타르
입양
만들어져
##두를
##복이
문이
가격으로
신천
아버지를
af
도발
##데스
룰
자체에
제시하는
호흡을
육상
구분하여
기성
##란한
##전력
심어
##적이었다
해줄
##ᆻ음에도
농림축산식품부
예산으로
##수칙
일으킨
민족의
##편으로
제4호
##able
all
##이월
##러스터
성숙
학과
협상을
예산편성
원형
환자들은
유익
적용하는
##기며
취지로
hd
본다면
추격
시작하여
##취소
생각하며
사양
특검
##담한
암호화폐
주셔서
두었다
죽음의
이별
가톨릭
##결산
개장
현존
분석해
말아
##적으로도
자세로
2년간
드리도록
이르렀다
속이
##들보다
범위가
중국에
밸런
제18조
해서는
원본
저서
##업소
아니라면
것이죠
변경을
냄새가
달콤한
그보다
정책과
주요한
경남도
lov
냉동
##ᆻ거나
영남
반납
##밸리
6명
전달하는
이뤄진
##자리를
##난을
저희도
일시적으로
거둔
이뤄질
##윽
##내역
왈
손상을
든든
지정한
##59
##보육
컬렉
그러던
환승
질의에
##손을
한양
직원을
역으로
발견하고
##보도
있기를
##교육지원청
셋
유럽의
지가
끌려
##윤리
합산
귀가
공조
와인
탁월한
감탄
시행에
원심은
도입을
##음으로
부탁드리겠습니다
있듯이
0으로
##ᇀ이
약정
여성은
분석하고
무리가
길고
대안을
귀여운
그루
##계열
##실점
##였으나
마쳐
복사
밝혀졌다
##co
진행해
##5호
아이에게
##ᆮ는
권리가
##만치
분당
구로
##모는
사용되고
##빛이
모두의
말라고
무언가를
안돼
힘써
환불
선진국
서비스는
##소화
3위
일할
들어가면
납득
입장이다
시간도
##시장과
##포니아
##뿌
중이며
사랑에
움직일
영토
학교는
옳지
##어에
##용지
오스트리아
##부장관에게
공군
진행이
외식
이마트
연재
##테일
위치해
않았기
엄마의
핏
메모리
##분께
##란은
who
수돗
제40
제39
쌓여
##시절
실험을
뱃
1학년
여자를
여러가지
이룰
유한
포토
lg전
직원의
##층에
확인했다
되니까
##움에
노트북
##장도
기대할
##슴
걸었다
##루미
떠나는
등에게
지켜야
참전
도에서
국고보조
2학년
##합을
##표가
내쉬
##드리는
##갱
국편본
적용한
계통
##했어
##였다는
원망
종일
##부족
생기고
##신과
자본주의
인과
##ans
##대학원
##제일
##아트
흘러나
##신으로
형이
임직
국민연금
##응답
꾸준한
수상한
발걸
사소한
행동에
##운다
북한은
대한항공
##공사를
절실
영등포
##cl
##속이
세계적
검찰이
##르다
##성적
실수를
자국
시범사업
최강
입구
공간에
조화를
장관의
댄
말소
##더라면
고작
미성년
wiki
##무지
후단
침수
공청
장갑
하나다
안녕하십니까
그랜드
가능하고
발표된
특성화
경험할
##푸드
컨테이너
하남
자가격
부친
걸리
스트리
지극히
인정을
활동하고
시키는
해봐
콧
##스텔
##관찰
경우와
##실태
토트
백혈
처한
##꼽
##위해
우회
##상황을
##자재
영산
##레를
환기
규명
일요일
투입해
강화하기
헝
훗날
국회에
지역과
멜
생명의
이용해서
비교하면
하이브리
아이템을
장성
방법도
##제품을
##매도
재미를
##증에
타이어
빠르고
측이
다하고
나가야
나중
실리
민원이
포르투
##디는
스파이
##활용
피고는
1992년
##정원
○건설
기여한
비틀
단어를
금연
허리를
##기업에
인성
효율성을
더더
실려
승부
##응하는
달라질
쪽에서
##아파트
##실장은
트러
비주
순회
조사하고
##과세
후계
금감
tvn
거라는
조언을
##산으로
15만
정보보호
기업으로
##와도
##동에서
대학에
메이크
도박
##중이다
첫번째
재난안전
국민을
비닐
갑상선
회복을
##로만
##정예산
##백이
시스템은
제한이
준비한
일찍이
##셨어요
3루
부른
압수수
전진
##작의
작가는
이행하지
증거가
잉글랜드
구속영
##시대에
니코
편의점
##인데도
증가로
출연해
의장은
##내에서
질서
이용자의
아니고요
##ame
지난번에
모으고
내비
주장한다
마시는
선물을
당의
##환이
##안으로
##오리
레스토랑
먹지
뚜렷한
시집
##시키며
개관
##받게
##모토
##하죠
축산물
한국이
##말이
##병으로
않았는데
다르지
8년
모양이다
##49
##기업을
강제로
##근로자
지도자
##ign
##징수
이뤄졌다
베를
헌재
##증으로
피의자
광화문
범주
본부장님
집행이
돌아오는
리버
없으십니까
인형
##혈을
##66
제3항의
웃고
엘리베이
이내로
한의
안전행정
침체
##럽고
원씩
마지막에
##시리즈
물량
취미
##들여
오페라
세척
제국의
soc
##분으로
##뛰
무림
##코자
항목을
되돌아
충주
딸을
헨
해고
##츠를
번이나
카테
편리하게
##트워
c1
피하는
사업화
불거
전망된다
##로워
jtbc
대회를
##합격
주를
##채용
흡입
토크
곡을
##ma
차량이
##요구
믿지
표현이
반입
사건으로
먹거리
항생제
3개의
유상
레베
##방재
##ula
날카로운
사이를
안녕하세요
##툴
##pt
것입니까
올라온
김성
휠
##뎌
원이나
설명이
##ud
##자책
국적
사이가
숫자가
##결정을
개개
아이콘
불만
##킷
내배
겨냥
##대금
도시를
불쌍
평소에
##ᆫ다는
##우주
구성해
구사
영문
시그
지원금
타격을
택지
##방해
해당하지
침략
정답
노력하겠습니다
풀이된다
대통령을
##모씨
할지라도
죠
문서를
##콕
후쿠
관리와
업무추진
##ence
##안내
##텍스
아메리카
팬들의
##행사를
쳤다
##디를
잘못을
당사자가
##사항은
주어야
인재를
긴밀한
무릎을
년간
거북
서남
##속도
##주자
동경
차량의
접종을
영화는
막는
성형
##폭이
부모님
##취업
벌어지는
##았기
##ᆫ은
합법
있은
산업부
세분
가꾸
##축을
봐서
연계하여
패턴을
것보다는
금메
미만의
##일자리
크리스마스
##청년
팔아
거잖아요
면이
##턱
살이
##채는
프로그램으로
대쉬
개최되는
##저리
조사가
지속가능한
긁
방을
다큐
##어내
안된다
숙련
업체에
옴
본사
노숙
##천을
따라가
##녹지
댄스
부회장
개발된
잠실
##요양
여러분께
수당
동아시아
##즈로
같다는
##주시기
운영해
보는데
##그룹은
어째서
프리미어
450
죽이고
나타남
비밀을
설마
남용
사흘
경찰서
##키를
시뮤
멜로
해소를
출국
2대
그리고는
사실과
gdp
##발성
원칙으로
구강
캘리포니아
수차례
대법관
발표를
물러나
애를
맞을
결정적인
엔지니어
익숙한
브랜드를
##유효한
내며
이레
매치
사형
탄소중립
##으면서도
대응하기
다시금
요구하고
##오면
것이지만
제안했다
한자
느끼지
##플랜
9억
5m
협업을
협력해
비례대표
조사는
지역구
시작된다
기록물
1991년
전하는
집행유예
거느
조에서
##천이
그쳤다
##인지는
1994
발현
올해도
일제히
의무화
딸이
경제를
인터뷰를
##급한
○이
상법
산다
##군수
##임대주택
제19조
도로를
##ifi
여기저기
답변이
작품으로
정돈
않은가
후보를
##법인의
고양시
비판을
##교실
간신히
한수
캠페인을
벗어난
담당하고
역설
놓았다
오리지
##ens
제37
필요하지
한류
설치하여
말투
제6항
여파로
##심사를
일주
행하는
국민건강
방제
시스템에
행안
과학기술정보통신
수단으로
양극
검사의
하반
체제를
설치해
##대회를
##기관에서
65세
##무기
명문
저가
중에서는
##척을
적절하게
대책이
##게이
주제를
운명
자리매김
닥터
빠졌다
##요소
막혀
초반에
내시
설명하는
##자원의
간섭
##사업과
업무협약을
##af
당했다
양평
스프링
12년
타이밍
##효과가
위치하고
호응을
##절이
##온을
디바이
매출은
일어나고
조속히
변론
##외선
##세기에
대회의
민중
직원은
##화될
##냉
주제에
영원한
세제
##티드
아세안
달러를
one
취지를
##즈와
원심의
열차
##퍼센
천하
드러난
증거를
##리라는
한편으로는
소개해
##퀘
등장인물
기재된
##반도
태어났다
이동통신
대출을
비정상적인
어떨까
대비한
방탄소년
##작으로
신산업
요즘은
##yl
가정의
외출
안전에
받았다고
##공헌
의약
모양을
사립학교
현실적인
자신감을
경향을
지분을
탱크
○○
원만
##료가
어렵다고
##켄
이바지
영장
##코는
우선순
유성
##ide
수만
5배
##출산
메시지
패러다
지수는
도비
시작되었다
차례로
무소
성경
두지
돕고
강행
넥센
##pm
##대상자
선교
##질서
2명이
병이
사랑과
휘두
상세한
선원
##돌을
##산업단지
##수출
시작하였다
표현한
##vp
##노총
활용하고
##부장관의
##ᆻ기에
##네트워크
묶어
인스타그래
원심이
##참을
담았다
의사소통
fe
임산
버릴
학대
폐업
씌
입체
##회사에
경기는
동맥
내려와
##벤션
빠져나
경상북도
뚫고
각성
##velop
비단
쥐고
푸드
난민
##운은
앉았다
비하여
##분은
청구를
후보로
업무보고를
대국민
##분과
##ᆻ네
##ime
원심판결
##출원
##해석
##겠지요
싶어요
생체
##조제1항제
2105
소금
증폭
싸움을
조례안을
베이스
일어나지
특징은
남성이
##노미
팀장
캐릭터가
내달
##방법을
##애를
펼치고
수동
과시
바이든
챌린
측면이
벌이고
##칭을
##행위로
오디오
장기적인
##조성
인증시험
오라
수출입
요구가
##공시
##브이
1월부터
꽃을
적대
부양
인류의
급등
종사하는
○여성
##검이
##오로
법조
제네
담배를
건가
##쑥
전입
되었다는
##동생
책상
때문인지
떨어지고
6회
○복지
그쪽
도청
것이지요
폐수
행정기관의
개선하고
사장이
미용
원시
##능한
기획재정
소를
2에
구토
날로부터
##돼지
##후를
설문조사
물질을
##여부
배우자
##사리
##호흡
성희
##우에
##브랜드
주위를
기업인
결정된
##달러를
곳도
발로
##학원
재택
체결했다
##겁
면밀히
##조와
베네
똥
전승
장시간
받도록
입에서
##고객
##으로만
향상에
한결
앞으로의
##학에
기본법
112
한인
운영과
조금은
노하우를
무늬
dmz
##보관
##들에게도
되므로
일반직
105
뜻한다
##워하는
이유도
친구들과
매출액은
데이비
각급
늙
##201
행사할
솟아
도봉
회담
##싹
##유는
농약
말씀은
풀려
르네
뉘
참가한
됐는데
불린다
##라고도
교육과학기술
##tr
저당
못하도록
짙은
##일로부터
과태료를
거뒀다
소용
남도
찾아온
취약한
의아
콤
승점
관해서
인근에
불평
위해선
상태였다
너도
##카르
전극
ind
상습
##론과
장기적으로
최후의
##사들은
##용수
상품의
이름의
##더스
1년이
입는
이어가
##ei
##우로
루이
##환을
##했듯이
##박이
##ction
위원의
##ᆨ스의
현실에
##판으로
제품으로
##리나
직제
##슈타
요인으로
싶다고
가이드라인
습관을
서울시에서
인제
생산을
못하
##투스
cc
박근
방식에
순간에
고유의
13년
쇄
##안과
##포가
했는지
폴란드
평가할
서비스에
접어들
국제적
이차
제20조
트위터
당신에게
농업인
연중
##면과
하나이다
시작되는
##인증시험
조문
모시고
더욱더
보호하는
##하다면
수상했다
그해
잊어버
지칭
고리
##혹한
1등
아일랜드
##분쟁
생기면
무시하고
##ast
##분할
전문가가
하라고
##직자
피어
##회사는
##기관인
##쓴
##발전을
한중
여태
녹지
고창
##처가
지원은
평상
전문가들이
장소에서
전장
자아냈다
develop
000명
판단한
다가오는
3000
이루어진다
마비
##신에
같지
병을
델
부르고
달이
어렸을
개선하는
차에
##ᆫ의
차트
치환
유지관리
경우에만
##쭉
동력
읍면
도중에
##ᆻ으니까
##다니는
의혹이
백신을
폭풍
일회
50여
바람직한
하늘이
##구니
##소판
##교육과
기후변
정류
조만간
내역을
##종과
시세
눈은
세계가
세일
종합적인
##ᆻ지요
듯했다
##3호
죽인
끼고
##홀에서
분석이
기탁
서울대학교
##프리카
정상회담
명백한
##ain
지을
도의회
보호하고
진행되며
##학년도
분의
##사업법
무사히
##튀
편리한
중앙정부
##십을
##정통
정보와
동안의
빌딩
##질로
싼
음식점
##구역의
##설정
수립하고
돈으로
국민의힘
시술
대회에서
알렸다
상호작용
진압
이번에도
적당히
##라인을
못해서
선거에
유발하는
펌프
형편
##스테이
아닌지
1993년
항해
외곽
같지만
때문이라고
넘쳐
사자
인내
들었
적극적
조상
##책으로
##가락을
##숭
버그
유흥
개최하고
말해서
검역
기능은
##ical
회의는
주셨으면
집어넣
##래프트
##조의2제1항
보시
##매체
컨셉
방식이다
위기가
폼
##과학원
마다
남기고
정량
##문에서
한눈에
여학생
있긴
목이
양주
올해의
##업체의
k리그
##기상
형을
삶과
차로
박탈
##벌레
덜어
##용의
의견도
4번
구호
만나서
파악하는
룩
더한
실력이
공급이
제자
필요에
국민에게
얘기는
마른
수행을
빛의
제23조
##정당
##액으로
뮤직비
듣기
들어선
##8호
대비하여
감찰
##준의
칙
역사와
열릴
##품으로
목의
##황을
당사자의
실현을
사직
##디의
때면
출제
시청률
##변에
##다나
##내야
요구되는
못하여
안면
공직선거
쑥
##업은
##목은
영주
##정보의
강조하고
활발하게
##사들의
생각하는데
##외교
##동맹
객관적으로
바다를
수치가
##세스
걷는
형사소송법
4개의
##각의
왔는데
요청에
필터
발견할
사용된다
추가적으로
있어서도
주택을
알아차
##군에서
총회
##고와
유선
##래의
드레
농경
견해를
인력이
매력적인
##움은
##핏
##이나마
##블유
##자금을
핑크
프로토
안전과
권유
기술로
아니요
남편의
상황과
베풀
성사
외무
삼성전자는
제3차
나눈
목재
저술
##보세요
##기소
1990년대
점프
##뿐이다
##마케팅
순차적으로
맞물
탐방
##로와
제안한
밀착
사드
대가로
포함해서
그늘
보여주었다
불복
선보일
유가족
국유재산
방법과
친구들이
##퍼런스
##지던
##스톤
##대원
##연하게
##츠는
dl
##푼
##에겐
막내
치안
##ite
해킹
##시에는
체력이
리얼
응모
길러
형성하는
ir
악의
가이
영상이
##손으로
잇따라
##벤처기업
천주
##ᆻ느냐
지경
부위
##ook
연산
감성
선정해
##사실을
왕은
전국에
##드에서
##망의
이렇듯
날은
##됐습니다
싹
여덟
주장에
구성하고
달라진
##경기에서
위조
휩싸
sd
부족으로
일들을
피난
명으로
##ga
고립
lc
실감
확대하는
##억원의
##공간을
윌리엄
절제
당기순
##론에
##ational
돌출
##료의
소유권
##가리
창설
사천
일입니다
불이익
뺏
사나
##밴드
안드로이드
한옥
심층
쓸데
##당하고
투자하는
하우
연결되는
된다가
소속기관
다듬
경찰관
않더라도
학생은
소리에
못했고
더더욱
성폭
금번
임진왜
##한이
업체의
##양은
강력하게
제천
목에
낮춰
대치
여는
##귀를
바꾸어
고려하면
회의록
조례안은
공개한
##십자
슬퍼
신하
##도다
위원회가
압수
전성
떠날
주며
해남
물품을
##백화점
##잡을
말의
위원회를
건축물의
다닐
비슷하다
뺘
##시킵니다
##ox
실어
가압
대하는
시기는
고민이
소문
친구를
##성에서
평화를
참여하여
##개발사업
##거리고
##들에서
##인치
무난
죽었다
불가피한
ser
##pr
온전히
쓰다
##집단
귀찮
위원으로
마이클
##보단
##ies
지나가는
##커를
노력하는
지난주
침대
##32
대표적
##ile
시즌을
광역시
##버릴
##잔을
##코가
요청한
기초로
명에
185
##정책과장
##샵
한우
병원으로
에드
귀농
des
대변인
##교도
서울고
너무나도
어떻습니까
기능성
지질
##시켜서
이원
수입이
출연한
##5000
##유형
이야기하는
##ly
현직
##ᆻ음을
살았다
실버
업체를
몰고
net
개발하는
확보한
by
국한
신성
선정을
원과
우린
있으면서
설명회
##명에게
어마
활동하는
시험대비
주방
확인되었다
##나갔다
궁금한
우측
로이
영유아
달성하기
주기적으로
ab
포트폴리
고용노동부
##여자
폭이
처음이다
##개국
그랬다
믿어
거꾸
저절로
##간담
##ick
http
##듯한
환자에게
언제까지
2로
거래가
오락
파일을
질투
누구든지
사태를
되니
경제성
능력은
마루
방문하는
창출을
모른다는
##무의
매출을
시행된
기관을
ke
##추는
자연스러운
유포
##린을
효력
비전을
##켰다
국도
나라에
##line
살던
예비비
이윤
##루스
필요도
끄덕였다
가급적
헤아
##부인
##마와
피하고
환경오염
미얀
보류
모금
오사카
주자
대신에
불과한
##아아
##소개
합니다고
12월에
받았던
제주특별자치도
##멘트
##7호
못했
넣는
마리아
산림청
사면
##과대학
선천
살균
칼로
##산에서
명단
##커녕
목표가
소문이
진영
레전
어이
피하기
동두
됐다고
증축
비웃
묵묵
크기의
있었어요
포함된다
장점을
스탠
정리해
벽을
압력
접촉자
살펴볼
성수
##있을
##교육감
없음을
40여
##줄을
하이브리드
##지방법
대놓고
심각하게
광장
기소된
오리지널
달리는
돌보
마늘
따라서는
토론회
##추행
땅이
##솟
권한대행
객관적인
오기
##사업본부장
4천
##음과
대공
##삐
##화해
문재인
계속되는
시작을
출시한
##기게
업체는
풍요
##줄이
##토는
##업체가
주의가
##인가를
##락한
사랑은
문화체육관광부
세력이
##층은
주연
부동산에
낡은
즐거움을
##렸던
계획하고
측에
군대를
두기
날로
크림
##학교를
캐스팅
물의
시점이
계상하였습니다
##아도
##추천
군포
잡기
최순
스미
힘겨
전라북도
마음껏
추정되는
##주체
##석과
전일대비
지침을
미생물
재검토
하늘의
계단
받거나
영역에
섰다
내놓은
한달
아냐
##설치
##생태계
도주
상징하는
##사스
이번엔
맞춰서
유치를
출하
변이
저희들도
말씀드리고
친척
gm
여기까지
아래의
넣었다
위를
거쳐야
단속을
##약이
승격
벌였다
해주고
제도는
한진
않겠다
##포장
##온의
정보에
이전에는
##ᆻ듯이
구성이
##그리
속을
토지에
행정부
걸렸다
특징이
제갈
##시간은
집은
통보하여야
##ome
교육비
예언
##집에서
##ug
오산
결정한다
##으로의
교수의
do
내성
못했습니다
안타까운
집필
000원이
a씨가
te
○환경
식이
고종
딱딱
툭
앞당
쫓겨
조금도
##인정
권위
주장하고
과징금
이번이
##맥을
쓰인다
케이스
증가에
형성되는
교육지원
텔레비전
지켜보
교육청에서
무궁
마을의
파급
시작했고
1980년대
고개
줬다
이명
##함의
킨
작업에
검사와
충실히
10년간
18세
짐을
방문객
제21조
7명
##놓을
영역에서
아군
처치
제22조
최우선
트럭
어디까지나
가면서
마을을
유럽연합
탐구
##공으로
세력을
증설
료
단체의
##터미널
금고
나가도록
세포의
상정합니다
##사관
취지에
판단에
전달했다
##공에
김대
##갸
느껴졌다
##per
##훼
##민과
촬영을
부엌
할아버지
공예
방으로
##농도
밤을
내륙
걱정을
시절에
##니스트
기체
키가
올라가는
예민
의미의
총력을
김일
미네
##거라
출시된
기사가
##64
이라크
많지만
그릇
물은
힌
번쩍
재벌
##공유
확보가
개최를
보기에는
아이스
과기정통
판단은
4급
주유
빌리
##설립
초고
무언가
다중이용
당하는
부작용이
##트랙
파악하기
거고요
ev
지속될
서귀
일의
장미
면서도
경기도에서
1988년
추가된
귀에
깨달았다
임의로
지킬
##cp
없었지만
모조리
쉬워
3의
##위원회와
125
철수
##조절
분석하여
석사
자활
필름
치료에는
강조하는
1989년
##댐
##반이
풍경
변경된
보러
베타
##산업을
##놓는
위험에
구조조정
##분양
여호와
잡힌
표현할
변해
##통화
원산지
불리한
얘기하는
개발해
##되었기
급격한
##그룹의
##티아
미비
진지하게
거냐
본청
우리나라에서
걷기
확보하는
##당하는
쉬는
소변
formula
imf
객관적
크로스
##무라
##ont
과실
바꾼
그토록
감염을
판결에
떠오르는
몸과
늘어났다
마세요
발자
성명을
선정하여
수월
대다수
##form
##ire
야마
아나운
##레일
취지의
찾아서
사회공헌
거쳐서
있습니다마는
##침해
명심
성희롱
##보유
뇌물
의원을
지친
울려
텍스트
##도지사
주민이
##앱
게이트
전망이
가열
경계를
##련을
신청서
핀테크
있다며
소리로
##썩
기다렸다
공격력
읽기
회원국
치료제
장병
지구의
조심스럽게
##시설과
5000
효율성
기울이고
##시지
1을
단장
day
##ᆯ런
##았어요
사실입니다
정면
##드림
감동을
##도르
2는
##파일
내기
명은
포용
인조
괴물
유언
검토가
3월부터
때만
발생하면
편안하게
학력
##wm
전문성을
간염
넓게
세부적인
약속했다
화염
지나친
##정하게
지방자치단체가
##네스코
사진이
##섬유
저자
20분
찾아야
영화가
with
소개하는
언론에
##공인
굵
학업
##조제3항에
얻지
접촉을
2기
##지원금
##돈을
내용이다
##가루
땀
공사는
즉위
국악
하는가
떨어진다
서울시의
하차
##올라
##봉을
향하는
비교할
심사위원
바를
공무원을
뒤집어
의문을
산을
아내의
투자의
아르헨
귀중한
자발적으로
일산
재가
##숙이
수려
##역과
##팝
규정하는
##진행
하였음
설탕
부적합
하나님을
참고해
팔레
##어업
미술관
이우
시설은
봐요
여주
강화에
예보
녹아
노인복지
사건과
변경하는
##포의
국가적
높아질
2호
##석에서
이보다
##후는
그러지
##집은
덤프공부
이곳을
220
주한
신안
##하에서
리스
마신
내다봤다
매진
고도화
이집트
사용에
별개로
진술을
경선
갇혀
##관리공단
##넬
근저당
##겠어
소재를
테크노
문체
법에서
예상치
##하기만
##더를
역학조사
무엇일까
##훼손
##타리
증감
의문이
말씀드리는
##사이클
1주
##계약의
처벌을
림프
있을까요
건을
비교하여
평년
sn
##례가
패치
하수처리
##류에
적정한
닮은
것만으로도
정식으로
몸으로
소개하고
무방
변호사는
바꾸고
단점이
남자를
취하는
올해부터
무형
울고
알렉산
제출할
##정책관
보이는데
불어넣
난방
터미널
흥미로운
수지
병력
활동은
아내는
가리지
메리
조례가
주목된다
##츠로
들어가고
조성에
자생
경우의
더는
치료와
차등
크리에이
예정된
인정하지
##법원에
특성이
누나
##지휘
1사
##툼
지장이
##인식
##내용을
지원센터
30억
계획이라고
의견수
요시
##덧
대표와
##트륨
필연
독성
##소기업
박근혜
##태가
##퉁
기대가
덤프데모
인물이다
뚜꺼
나오기
##총괄
##ᆲ게
##들이나
확인이
충성
슬픈
개선과
신고한
여성을
사업입니다
설령
못하였다
개최한다고
추진한
뜻은
식민지
되었던
닌
컨소시
다리가
##스케어
속한다
확보해
럭
민주화
행동은
전투를
탐지
qu
##이동
많았고
법적으로
자란
압력을
##재와
##날을
##95
알바
신사
확보에
가져야
생각과
##측은
누구보다
1987년
지상파
##렉스
대표를
옹호
부부가
오신
벌인
수원시
##받기
##초가
확대에
pe
##포트
행복하게
옮겼다
미친다
남궁
##ᅪᆼ
새로이
형성되어
라틴
##안에서
덴마크
함을
신청서를
부풀
병상
경기장
거기다
압도적인
감자
ro
검거
쓰게
살아야
혼란을
이념
불안한
신체의
경찰의
4인
##유니
드문
중요하지만
##졌다고
22년
아르헨티
일으켰다
시너지
##물질의
설립한
흥미를
##열에
구조가
전까지는
사항입니다
거꾸로
##68
내용도
교과서
##공격
2030
##퇴근
##65
##가에서
명할
북구
##진다는
러시아의
학사
평가에
##교육장
선착순
##내려
비즈니
붙임
커피를
가평
크기를
환수
이사장은
5급
경기도에
동호
소액
##노트
살면서
##집으로
20세기
이루어져야
농도는
##셨으면
수수료를
##문제가
지각
초콜리
4조
단계별
##사진
횡단
##ys
##지식
화산
인가를
채팅
##농업기술
조건에
한방
반영된
가깝다
##시다시피
전하
체험을
돌고
보건의료
##강이
##교육청은
같음
신은
오바
유네스코
실시해
여권
##블록
장애를
##몬드
단수
열을
학계
수행하기
##됨으로써
고친다
비리
##화물
펼칠
##스틴
지인
##사나
##노조
공무원은
효과적입니다
아저씨
단계적으로
##저런
학생을
고민하고
전라도
##정책에
경연
유류
없으니까
지방공무원
총을
##캐피
##였을
정리를
##권자가
지능형
행한
##oud
주둔
##운드를
재학
메이저리그
배출량
협정
사업자가
그도
주름
가로막
친일
선보이는
운전자
##문화의
○부위원장
##ᆨ은
손님이
풋
##ros
##직으로
##타수
##질랜드
정신과
##물질을
##블리
어디에서
푼
##처에
공간에서
유니포
2108
완주
권리의
툴
안심하고
이어갔다
저격
성능이
핸
미나
수감
이어가고
##화장
작게
줄은
##협상
입시
##채가
사람이라면
##ark
자녀를
공감을
##당사
##배가
건강과
2tv
##랭크
##전에서는
아르바이트
토트넘
추진계획
바라며
내뱉
꼽힌다
환원
손바닥
지정되었다
잃지
연체
껴
##나서
나라는
타워
##카이
없어도
##이었으며
부드럽게
투명한
과거에는
있더라도
##락의
간사
달랐다
##룬
학생들
동방
함께한
중앙에
포르투갈
서귀포
외국어
그리는
구슬
연인
봤습니다
sl
##비도
건물에
표출
단체가
일러스트
2세
로켓
유전적인
부분들은
세계로
주문을
기대감을
##공화국
치과
임금을
○의
##예고
##보존
중심에
연계해
3연
주전
##stem
1명을
뭡니까
##ement
농축
기관과
주민자치
그림이
##자원을
대인
항체
산업혁
방패
살아있는
##특별위원회
시행한
그제야
##보살
회상
##서식
##오던
좋아서
동대문
8회
딜러
신재생에너지
재난관리
교류를
말했음
따라야
3px
car
제출된
거창
후퇴
주위에
##할때
인구는
질적
독창
개발사업
##졌습니다
홈페이지에서
연구에서는
전재
로컬
##훈련을
대부분을
본선
##복구
##관계의
공모를
인위
##그레
mri
재임
전문성
답이
여당
##곡이
과도하게
##복무
포기하고
##으라고
중앙부처
##었으니
싫어하는
힙
##ple
지워
고난
##건물
조사에서
콘크리트
지방재정
##라와
##황이
휴양
개인적
예방하고
아동학대
많다고
아테
레저
##오기
구성하여
104
##터널
발견했다
지내는
작품에
##취약
포인트를
##전부터
자신에
범위에
##미로
원거리
양보
의사와
어플
봉쇄
출신으로
맺은
취해
어느정도
억압
것이오
좀처럼
밑에서
해가지고
되살
##카드를
틀린
방향에
흰색
##제3호
에프
사이에는
10월에
##지출
##농정
감정평가
발레
##졌다는
검토할
min
중학생
예방하는
규범
○감사
중세
연다
에서도
헌법재판소
제임스
협의가
이의신청
들어와서
##녀를
실리콘
##나라에
문제다
보석
##산성
제공되는
지녀
성남시
fif
에이스
날에
값이
개선할
##기술의
까마
누구에게
##eth
rad
##결합
##유입
108
##백과
샤워
교역
글자
##ified
##디에
산악
계열사
##군다나
판결이
3명이
종류가
노벨
바뀌는
개회
카메라를
토요
기업들은
분명하게
방침을
##재무
십자가
박사는
윌
##보게
변화하는
대형마트
##조사에
사업도
협의하여
측에서
혁신적인
가입자
지식과
조절하는
##nc
1993
업무상
단계로
다릅니다
공기를
##야는
중국을
넓혀
뉴질랜드
친화
마련이다
##로스
설계를
나타나며
구축해
##기간의
클래스
다뤄
살아갈
기쁨을
소스
##교육법
놓치지
##이었을
레인
숨겨진
2가
붙인
new
cert
모욕
공장을
##단체의
부여하는
시내버스
온통
디자인이
인프라를
##리안
##찬을
##ᆺ과
강우
##기면
가능하다는
타게
##열의
기운을
중이
159
에어컨
##일간
영업이익은
##버넌
기를
노선을
##쏘
대학을
##항만
기능과
어지러
수축
교직원
민감한
1박
도에
세액
##end
3점
화해
로서
수성
##켈
이런저런
love
○金
살펴보고
신형
민자
잃어버린
##교에
##직업
계약의
원인에
그라
수중
군사를
마련하는
##뜸
요청하는
사용해야
완도
나라에서
iii
여부가
당하고
##츄
##委員
##회원
불만이
시절의
##어린이
300여
주목할
관습
111
암흑
##정리
연일
세상은
##작업을
타카
##스톱
구성된다
선정한
##방식을
병원을
표준화
조직에
노원
티켓
직급
##멍이
##칼리
화제가
싸울
적용하지
##현대
##ne
공평
단절
##렉트
않았다면
맡게
중년
이따
시험에
##채의
##치면서
##결한
특히나
해결해
가정을
피부가
따르지
2000년대
식품의약품안전처
##있습니다
강동
곳곳에서
##하진
불쾌
감안하여
있기는
쏟아져
50년
스트라이
##ᆫ터테인먼
도리어
복부
str
활발히
##분쯤
배척
금년에
##조제5항
나옵니다
질환의
최근의
##레이터
급수
이영
##리조
지원한
##맛을
나타났으며
정직
얼어
##당했다
동지
치우
금액의
추산
좋지만
번식
주민들은
암시
현대자동차
신을
기록되어
화순
##집의
##총을
나열
##이라며
덕분
혜택이
자동화
##께서도
가져온
다자
##식에는
며느
듀얼
넷플리
bod
##웠던
요리를
반응은
연도별
성분이
죽일
8명
mic
생각된다
9월에
신청은
360
뮤직비디오
패스트
승려
행위로
운명을
연말까지
##ory
##민주연합
인원을
##오르는
##기초
##자다
##업계에
세븐
치료하는
##칫
에디
락
사생활
##물고
##뿐이었다
주변에서
힘들게
경작
대구광역시
스카이
##광을
연구기관
환경개선
이밖에
농도를
이라면서
##번이
##강도
##고시
##것은
댐
초상
정도면
허나
자동차를
상세히
토로
언더
우체
##설에
활력을
방한
보여줬다
선정하고
이렇다
이종
##였기
수있는
##주의에
유전적
뻗어
##냐면
3월에
1970년
내부에서
연락이
바른미래
해와
아버지와
재빨리
업로드
걸쳐서
유기농
##등록을
쪽을
찔러
하죠
유희
교양
들렸다
발표할
변경할
상승세를
if
##림에
벨기에
위상을
가져와
##저가
두뇌
섹
환산
민방위
설명한
합동으로
연쇄
판매가
깨어나
##사상
##목록
날인
모호
##진출
##들과는
##내어
보고는
일커
제2의
독도
부동산을
습격
1기
마련하여
##손이
퀘스트
싶은데
○소방
잦은
##짖
갖지
문의하면
##량한
남편은
멋이
##orea
이용객
변화의
행정심판
거짓말을
최하
자문을
둘레
##ᆻ네요
립
만들어낸
경험한
익산
해당한다고
18개
의미합니다
사용료
눈치를
대금
재배포
갑니다
##들하고
cf
뿔
자와
공사의
##증상
합의가
지급한다
어머니를
방안도
달려가
국제협력
극본
신중하게
당원
애정을
ks
직결
모델은
않으므로
뭔가를
##방문
##밥을
자택
사원
##대리인
1건
전역
토목
연천
##길로
##만큼이나
오케
##00년
해변
강력히
사과를
이르게
기꺼
선명
##오면서
mo
20명
중에도
사이트를
예술가
##벨트
마나
했었다
광범위한
국무총
고기를
##두로
반갑
실시한다고
##쁨
고요
##선도
##첨단
이만
##옷을
떼어
욕을
달성할
102
커질
내년에는
제기된
##인이다
##족이
앞뒤
제5호
##티는
##67
##민원
군이
있겠는가
##티즌
초창
섞여
돌아올
정체를
단계는
방울
온천
개선하기
퇴원
해준
한편으로
농림축산식품
dj
##강에
가져올
던졌다
pdf
##탱크
나쁘지
##락에
햇빛
장교
강경
##쪽이
월간
구입할
대학에서
##용은
사후관리
재정적
##부하
준비했다
화제를
내지는
초보
서울로
생산성
공무원들이
고품질
지으며
남아있는
돌아갔다
도와주는
이방
##어스
##골이
어마어
여건이
관계부처
제안설명
그만두
지점에서
##권자는
##나지
자금이
이의를
기온이
농구
제24조
아토
부추
만주
들러
동남아
##조류
특화된
환경과
관광국장
##해볼
코치
도시로
신청에
5개월
##전형
어선
전염병
장차
성균
마술
##검진
##막의
실패한
##ere
침착
남았다
##판에서
치명적인
시카
##우면
##점유
##야가
##되나
나타낸다
가르치는
제2조부터
##커스
##예를
15억
산업을
제42
송부
득표
##화되는
라면
전문의
휩쓸
아뢰기를
##마루
##파이어
##볶
##경북
시효
게임에
인물로
3시간
##터에서
인사청
##궈
##쉐
흘려
##광이
##심의위원회
분노를
##베이션
뿌려
대강
아니지
##티가
유재
##닝을
감사관
저수
##분해
유학생
동물의
호에
친근
결정은
바라고
상황에서도
##르면서
라운드
싸움이
따랐다
##박물
예술의
1991
##당으로
예선
상에
범위는
내로
25개
마을에
군에서
좋아한다
안은
이유다
다다
뭐야
퍼부
##i는
지금에
##뚱한
드렸습니다
공격이
ha
##설은
입단
좀비
불이익을
jo
##°c
top
의식이
기능에
핵심은
하단
생각했던
들어가지
항공사
보리
해에
나서서
1945년
선거구
##통일
순조
##84
열대
##너지를
소득이
연습을
벗어날
장흥
1000만
##바의
통산
건담
cov
전쟁의
범죄를
조형
경보
실장
일상적인
##루션을
여부와
규칙을
##입찰
정책적
##수술
김태
상황입니다
##시설로
폭로
적에
##사업자가
망가
처음엔
더군다나
인간과
5인
부위에
도교육청
돌아서
mod
점과
이용자가
짤
벙
##차고
함에
금요일
졸업하고
##고로
네티즌
7회
박차를
##바퀴
일상을
소울
부문에서
말레이
자연환경
##정책국장
의욕
##동원
버스를
합작
적용된
가리키는
크기는
수립을
안경
세우는
184
해적
재료를
예방할
메카
성공할
fifa
##ry
청탁
##동향
대마
##보라
언어를
제45
중점적으로
mp
꿈꾸는
##하여서는
재능을
해리
타자
경제에
집중할
바다의
벌어졌다
끔찍한
문명
경기도와
낭만
기법
걷어
##했는
자영업
관리자
처우
전투에서
발굴하고
책에
저자는
전복
##중국
##셨는데
날씨가
랜드
췌
대목
재미있게
##동맥
정치를
##포스
7월부터
##렇
##3개
점진
액체
실정이다
다음에는
위치가
##줘서
모형
혁신도시
시청자
##연구원은
청소년의
독자적인
이리저리
##해주고
##필이
31개
출연했다
##덮
헤매
밤새
##어머니
정글
성장하는
아들의
추징
##사고를
낮다
공격에
참모
과거를
수자원
##때로
공유하고
그중에서
좋은데
##인지라
조율
활짝
모스크
비춰
부위원장
##센터와
아까도
##벽이
##리얼
도를
차질이
하루를
말자
남성의
걸그룹
##늠
가치는
키스
한번에
##벽한
잊고
베를린
수단을
##ᆺ지
신년
##츠의
해야만
##보호구역
##wor
구하기
호테
강하다
per
서기
##내의
##기본계획
일본인
꼽았다
동거
##타이어
운이
로부터
아산
왔을
힘쓰
주체가
비어
179
송도
장애가
oh
##매입
##편에서
승용차
##파와
##상도
##국적
조치는
먹었다
미뤄
##19년
우주의
전문가를
친한
##유플러스
생각해서
넘어가는
성우는
##망에
아홉
학급
손꼽
미국을
성장이
##부패
일기
##으리라
##하늘
새삼
##즈에
뜨고
아래에서
멀쩌
귀한
않았으며
##비용은
장거리
##가공
한나라
역동
그룹의
계획이며
system
좋다는
한다를
##터와
축복
적격
소비자들의
자가격리
제25조
부분으로
##시브
할로
변하지
##날이
개정되기
##ian
##암이
끝을
##드리도록
필수적인
심해
지급한
창의적인
성의
가지의
검진
1점
발족
휴대전화
물건이
##제어
의의
넣을
행사로
그치지
둥근
고인
질문이
높습니다
마르크
자산을
축사
구조로
도입한
제기할
비정상
미흡한
##ius
위원님들께
국왕
년이
높다는
##공사에
부르며
관악
언젠
##면역
##구조를
차마
텅
능력과
##장소
적재
적중
과의
되죠
되풀이
##프라이
성장과
##눌
##조제6
포함되지
##ary
공이
봤는데
종로구
추운
혐오표현
##조약
김씨는
모습과
가결되었음을
3분
##개시
행위의
스킬을
##장치를
살게
주셨습니다
part
##기보다
전교
기록은
##프레이
ktx
##팜
생활이
##색은
##래를
강북
시킬
세울
사인
추상
활동과
##gm
보답
##연계
달성을
뭔지
부합하는
생활의
적정성
##play
##치다
말하기
이어진
자녀가
##다녀
이마
그중에
선수는
증명하는
ko
독거
##피가
##림으로
보임
버섯
##졌던
역사에
동정
2025년
낮고
기해
##가인
편견
술에
모리
정부를
건강하게
전한다
##커가
깨닫게
하셔야
국민과
법률상
##봐도
가정에서
스테이지
발생하여
상회
##환은
게임은
바둑
##ve
출퇴근
##케어
의회에서
마이크
계정
있었기에
임상시험
후유
##셔도
공유하는
하늘에
쌍용
##랑은
난이도
벗어나지
##환의
피상
홈런을
찌푸
○경기
연내
유지를
각국의
세월이
대해서만
선수들의
오전에
반전
##하네
##법규
필요하고
운동이
8월에
6월에
백화
새정치민주연합
오오
##db
4월부터
여인
여건을
점용
##창출
각별한
아바
##개발원
예방접
이완
##에프
나만의
##지사는
건설을
통영
기호
발표하고
못합니다
지정하는
장학금
더했다
올라갈
메탈
선정했다
극심한
2연
##로봇
입었다
닉
벗겨
오르고
국가보훈
이미지가
이글
감소하는
공유수
위안부
##적일
딜
제4항에
단단히
묵묵히
거래일
##위치
부분이다
믿는다
견딜
상황으로
웃음이
os
해병
소리는
시책을
다루고
다큐멘터
##백만원
경미한
심장이
환경의
극복하고
간략하게
##매가
답변드리겠습니다
개선해
정의당
알루미
##교육에
9회
##마일
데스
대표적으로
요청이
고찰
##ᆯ레이션
월급
##로이드
현상은
21세기
예상했다
상자
##발로
먹기
본관은
건축법
아니더라도
해준다
굴러
##했으니
##종일
보복
rayong의
수긍
##임은
설정을
내년부터
여기서는
금융회사
##오나
영수
근로기준
기재되어
일본어
자연재해
쿠팡
전념
분야로
아시다시피
sk텔레코
##공공
신곡
갖다가
##제출
##대부
필사
그림자
330
일조
지원으로
종양의
고흥
녀석이
수익률
##경부
145
지리적
인구의
일이라고
##앨
연구결과
수준에서
##운동의
성매매
##중에서
##투쟁
벤처기업
과천
부산의
이십
세정
##이었다고
##특허
##노의
눈부
톡톡
9만
##충전
하면서도
보도에
제대
소유하고
깨끗하게
##륵
사용되며
옥외
선제적으로
근원
50억
웃어
이끌었다
카카오톡
##킹을
사회적으로
예산결산
역사는
제2조제1
카라
한복
동아리
가칭
##력발전
밑으로
받아들이지
넉넉
##가능한
1970년대
보호에
이윽
훑
대표로
베팅
도덕적
##류와
라면서
심포
##창이
##ater
500여
충청남도
필요함
제41
평생학습
##오와
당내
##됐을
구성됐다
살아온
##ᆸ의
올해로
지나고
외국의
갸
##든다
밀접
##통은
피고인은
수량
명목으로
240
시ㆍ
##분권
##클리
보은
개별적으로
##롭고
정유
비행기
##나들
기술에
정제
영어로
제6호
comm
마찰
##번의
쿠키
일반인
먹는다
마냥
남다른
졸업한
밀양
직선
좌측
소급
둘러싸고
오렌
##품은
기관에서
쌓인
판타지
협의체
향상과
처리가
##릇
##통의
시작하고
##탄이
논의했다
고취
##재활
사라지는
병합
5월에
국제사회
##지법
##업자가
전철
내각
##재배
적힌
6차
##피는
##이라고도
짙
거기는
각하
힘은
##폭을
스스로의
팬들이
가방
하우스
적다
##녀는
법인세
##강점
리어
거세
우는
강진
사용했다
백두
아동의
원상
황제의
관광지
부지를
##라이트
통보를
것에서
카메
노력과
지름
##ᆯ리스
부담하는
검찰의
##강은
넘지
##레나
브랜드의
기꺼이
때였다
범행을
접근할
예결
##모습
급하게
논의할
영감을
길이가
컨설팅을
##89
발생이
식습
##신한
기억에
없었을
##사단
##ition
체결하고
gen
##ee
중형
운영의
사회보장
굳게
오일
##펠
모릅니다
업계의
##ᆨ스가
귀신
이르면
화면을
##ication
##테리아
테슬
##완벽한
시와
배열
##50만
주저앉
설명으로
인디
기분을
##레저
애정
수요에
중량
이룩
스폰
사랑해
역할은
형성하고
모여서
뾰
꼼꼼히
초중
재래
매장을
바빠
139
청구항
코어
개정안을
좌석
의원과
suv
##ero
직원들은
기장
증진을
시작하면
양도소득
기차
국민적
제거하고
늘리는
##커니즘
수익이
지키지
스며
1985년
대표자
발전시켜
몰수
##개선을
자체로
통찰
제27조
죽이는
기관지
중소벤처기업
##방법에
##고인
원어
##씨에게
##여부를
지원사업
어머
발탁
lg유플러스
바로잡
만나볼
계약에
모방
포획
단어가
전방
경우로서
한국당
사업비를
곤란한
중국인
나아갈
가늘
계란
타협
부담금
신상
안개
흐름이
107
##독립
숨은
수은
군주
챔피언스
보고서는
대회는
벌어져
있단
기본으로
유지했다
퇴적
##기능을
##4호
석면
제주도는
##ding
##올리
1986년
기자들과
시원한
영암
재학생
향토
선택이
방사능
##히게
회의가
놀랐다
골을
##00억원
달갸
속에는
적법한
##정수
##모리
사명
##하자고
해소하기
직업을
표시하는
##상거래
아니었
sec
##센티
상처가
##트러
enu
##거야
만하다
##겸
비용으로
질환을
합리적으로
##이기에
가늠
왕복
공무원으로
아내를
제의
조성된
##질은
자폐
대가를
면모를
반영할
소장은
것이라면
움직이지
에너지가
사임
간직
동조
눈높
이니
최상의
논란을
급한
절단
폭스
없었기
실전
##황의
못했지만
##되지는
변경이
수행한다
소프트웨
깡
쓰인
모자라
미스
7월에
명성을
리조
의원들이
보상금
전부를
의자
뇌졸
단독으로
##겠느냐
100명
의안
남구
해운대
애초
시급한
##지니
이해와
법과
돌을
접수된
간호사
눈치채
수의계약
한성
부인이
##패로
마케팅을
아니하면
건에
알킬
##즈베
이해하지
##차관
용병
방향이
##표의
##범의
자동차의
용량
제게
하드웨어
고부
아빠가
ds
아파트를
상설
영하
당할
구축하는
##이노
권한이
벌이는
수험생
##되기를
개원
바이러스에
지식이
유머
감고
죽지
강화와
비용의
끊어
##요지
대사를
이것에
자이언
##쑤
독재
기록해
##피안타
115
뜰
편한
스타일을
그동안에
공식적인
답변은
아이스크
심지어는
##들처럼
##82
동결
마켓
째
##킬로미터
미끄러
포지션
##거니와
15분
삼았다
몰두
묻혀
공기가
##인간
근무를
1992
cloud
못한다는
강호
이용이
위해서다
##슨의
1루
6천
호평을
노인의
연이어
발명의
##타자
알려지지
순간을
기적
부도
에릭
kn
이태
관해서는
근로자가
추천을
설정하고
노인이
##으려면
다이어트
인문학
입금
띄는
일간
농사
농식품부
이상하게
어쩐
시작됐다
도로가
소유권을
다시보기
나서야
4월에
##rayong
플러
흔적이
일제강점
색다른
잉여
작아
선거에서
##클래
소재지
통하는
만나면
##저를
##으로서는
파우
진한
믿음을
인스타그램
모양새
편에
느린
##주의가
○자치
생각하기
아크
성동
파격
취업을
서비스업
여왕
인플레이
사무처
도울
가능하다고
말씀하시
엘리트
차관은
분을
경제활동
##해준다
것과는
끼워
깨닫고
리스트
연구에서
전속
발산
변하는
의사표
본래의
경전
이야기다
상고를
##빡
##럼을
손수
주장한
##유기
피부의
127
종합하여
마이너스
##리던
법리를
제43
소나
묻지
유지해야
지적한
하러
##들이었다
룸
변수
##비행
작용을
항복
이야기도
미만인
임진왜란
사본
심심
금세
봉인
감안해
##저감
##교육이
원고에게
상고이
개정규정에
진정으로
판교
전하고
##린다는
인사청문
실시설
판매한다
퍼펙트
##플랫포
경로를
##공고
치즈
학살
정읍
##cs
나오게
있겠습니까
폐렴
질환은
없이도
뜻기
여러모로
경기북부
##노는
행정구역
##족을
역할에
저출산
되겠습니까
##켓을
시설과
##나가고
불투
##희를
제공하여
40년
괄
가능성에
##틀러
##경제의
##휴양
##시책
소수의
식품을
융복합
수사에
기습
##달러로
우울증
보여줘
##곡의
마이너
생각됩니다
숨이
##제국
환상
1984년
다가와
팀에
##프와
##uaw
피청구
걸림
##사회복지
##빌딩
줄어들고
타인에게
송금
lng
열정을
도급
활동의
지역에서는
병력을
##uawei
저질러
싶었던
##복지국장
##돌아
##젝트
법률을
개최하여
끼어
썰
##과목
확고
제4차
장소로
##ung
볶
원동
치솟
표를
##성능
증시
법률이
연루
##사업자의
시행된다
저에게
##티오
중국어
##olog
흩어져
##테르
시작해서
시민과
문화와
6개월이
빚을
실효성
##하더니
##추가
업무는
소비자에게
##철은
멈추고
106
##iss
##들까지
##츰
지지하는
것이어서
##2000
##령에
과제로
경력이
별개의
2018년도
cv
의회의
흔적
쓰러져
##용량
입이
하였는데
발생해
했더니
센터를
109
의제
거제
알려주는
반영하는
a씨의
코르
135
미얀마
##회사를
은폐
보고서에
따뜻
##가게
압수수색
구인
##하겠음
고객은
행사에는
bor
멘토링
퐁
##연습
연구와
되었으므로
고마워
내정
bac
때때로
한다가
배임
모습도
해외에서
수입을
##수련
##유로
랜덤
부득이
##루와
기금의
움켜
높다고
##위원장이
공격하는
보이기
하셔서
4가지
유난
후임
데에는
미라
조경
채집
사안에
직계
읽은
작용할
행정소송
쪼개
질병관리본부
수변
##증명서
##룰
##통에
분장
학교폭력
쌓은
확대와
인원은
우정
성적이
금품
스토리를
기온
제3자
바뀔
##ᆫ이
수로
남원
알려주
해야지
교량
단원
작곡가
거버넌
한국형
곳의
커서
품질을
동작을
개최된다
제품과
하지는
수없이
일정이
빠지는
변경에
국토의
우물
##택시
사례로
직전에
##병상
세련된
##사업소
##경기에
1960년
불합리한
모빌리티
환송
틈을
콜센터
##ti
욕구를
도로교통
다목적
성실하게
##76
통지하여야
마산
쪽은
말했습니다
##외의
퀄리티
##하느라
대관
우스
##오게
##테면
슈팅
규칙적인
안건을
##차도
연소
길어
자녀의
##ᆸ기
기출
침범
부장판사
동월
감각을
사쿠
발굴해
정원을
##현을
기점으로
아이들과
mb
이온
##최고품질
대명
점유율
sol
필요하며
항목에
배부해
ka
##주거
겸손
ng
출품
않았으나
조항을
##관측
##oci
쌍둥이
cg
산성
시도를
##노라
##훈은
인플루엔자
김재
##드리며
죄책
훌쩍
부평
평화와
이윽고
더듬
분자
128
물질이
한껏
했음
##주의자
저주
국공
##광주
주인공은
가뭄
##사키
담임
항구
받았을
##킥
협력하여
차는
안이
계량
받으면서
##셀로나
의한다
개념으로
lv
##텨
기본권
낳은
당기순이익
주부
물과
검찰총
장애인복지
겹쳐
##라이더
측정하는
헌법에
닦아
수산업
맞습니까
차량에
##슨이
검토하여
시절부터
고고
참을
##론가
생산된
인터넷을
lpg
전달할
비율로
정회
##몸
주식의
폭넓은
달했다
상응하는
포위
사이클
##경으로
무의식
디젤
129
국민들에게
3급
강조한
배후
못했을
경성
##ᆸ다는
키움
전립
있어서의
전자상거래
##제3항
산학협력
아껴
오게
##팀에
실태를
##인프라
다가왔다
향하여
##ᆯ리아
##구멍
22개
육성에
벌여
##불이
red
bmw
##가량
어드
##복지가
##곳의
오염된
간판
의사결정
받아들이는
##권자의
19세
##택을
재산의
##격에
않으면서
찍고
금리인
##ics
친구의
예뻐
흑인
규칙은
재편
##걸음
##림과
예치
손자
부족하다
종교적
상대방에게
##네가
##길은
##ank
부상으로
가문의
##간다는
식욕
도시가
외부의
티셔
워터
시트
##사전
요원
##스에게
김동
평일
눈의
분명하다
##흉
모니터링을
##수수료
##표는
농수산물
데이터가
민주당은
조항에
##중은
선거를
지내고
교회의
##부산
##념에
먹이
물질의
위협을
의견에
울릉
행정처분
말미암
솔루션을
간과
##하자마자
미워
왕자
##행위는
시키고
내버려
##두리
강화된
##탄의
##기일
##느니
성장한
죄가
고객들이
주당
##질에
있었는지
##맛이
시행될
도끼
추억을
물고기
결정하고
분야가
여전
분들도
##데이터를
바이러스가
##농산물
##지지만
남양주
투자할
##정책실장
고맙습니다
이끈
오만
건물은
정회를
은근히
들리는
놓는
1위에
##버드
노는
재량
얇은
제26조
의견으로
##하듯이
증빙
쟁점
3종
의회에
클러스터
페널
기인
정책은
##돋
아니므로
cb
##ᆫ다고
설치가
양해해
##댔다
경우로
달성했다
##09
잠복
##43
이어진다
이상적인
면적은
##영화제
중으로
면적이
개최하는
얘기다
##셨습니까
재심
끝났다
인접한
신원
멈추지
잣
보기에
건수
##책임을
씨와
누군가의
무상으로
##티어
후보의
소멸시효
영혼을
디즈
상권
치면
##홀딩
##일드
늘리고
드라이브
##기다
갔을
상단
책에서
뇌전
나간다
당국
규정되어
기재한
조직과
품질관리
수단이
##청구를
기반이
205
건의를
##ᆻ으므로
##기부
경제적인
지자체가
developer
뮈
##란에
##gin
선서
참여한다
섞인
사신
않던
3주
##기록을
겪을
##조사는
식재
esg
냉장고
제46
성격의
명도
성도
##책은
됐을
##들끼리
##버스터
발이
생활체육
데미지를
##포로
머니
##수소
##점도
바이어
증상과
제47
괜찮아
##기후
미쳤다
모셔
##법에서
번갈
느껴진다
##86
임기는
마련하기
2017년도
무한한
##남부
나타낸
소비자들이
팀원
트랜스
##h12
부담으로
##키퍼
##ᆻ소
지역별로
실패를
수해
##궁의
핸드폰
display
심부
잔을
예전에는
국토해양부
정주
밝혀진
휘말
체결했다고
주가는
다룰
대화가
원도
##근이
키우고
플레이어가
당초에
직장인
잘하고
탈북
흘러내
설립을
케어
부득이한
##방향으로
마실
소리와
하든
보았
상황이었다
##휴가
정차
만남을
##밑
부분적으로
추가경
이하인
##업체에
온라인으로
##대변
리드
이데
구조적
감사드립니다
공부하는
대내
이후로는
##표에
조례로
교사가
입문
설명한다
재정비
시민사회
믿음이
##려야
안전점검
선택의
연계를
질소
##중계
청각
귓
힘들고
##처의
##판결
아이와
달라진다
중견기업
특색
여인이
생명과
##있는데
같고요
##작전
적용될
부드
받침
던진
것까지
##율의
컴백
이화
대청
부응
치아
##죄를
걷고
차이로
관제
나중에는
5조
섭취하는
##총액
can
블라
직무대리
뜯어
적에게
반려동물
##검찰청
가도
동요
진료를
농수산
버린다
##론적
테라
꾸미
덮어
과세표준
알면서도
제29조
친족
터트
소지가
요한
않으니
##물인
성장에
소진
명백히
부위를
기억하고
##m로
##해라
대상에서
제시된
있는바
식탁
갈색
효과도
전날보다
##렸고
제44
##창의
##미에
재앙
속해
##ᆻ거든요
##항은
##타점
소개한다
거치지
대위
듣게
가파
각국
훔쳐
##fl
##물품
##택트
제28조
바다에
##주시고
주파수
##괘
등교
##절차에
지위에
따름
음식이
##덤프는
들어서는
톰
이를테면
##압의
도마
필살
선거관리
의상
공공의
이론을
유보
용어를
존재하고
오늘날의
협동
연구하는
랑
불분
국가공무원
상공
급락
여성들이
포기하지
1급
##믹
등록한
제목의
미혼
##넥
##병과
커졌다
코로나19가
##란시스
수에
선수를
면을
##철의
기업가
깨끗이
간접적으로
2023
범죄의
12억
서방
##자료의
##조제1항제1호
고성능
##건만
민선
##애가
안되
장단
부당하게
발부
원리를
살펴본
숫자를
개방형
##ber
그쳐
분들을
준비에
9명
지금이
요인을
##희망
때나
칼라
##맞춤
가려움
##퇴직
같은데요
짠
떴다
반영하고
농촌진흥청
중이던
한국은행
##계획이
예방과
칼슘
##방향을
##4개
그레
##부채
처형
섞어
앞세워
자연을
##눔
##경로
알선
##부담금
아랍
4위
예상하고
최순실
보름
승부를
156
찾아내
위키
캐릭터의
##서에서
유감
##순간
방언
계기
과정의
무심
##막에
평균자책
저마다
##강한
##해져서
5천만
제3회
##자유구역
##ᆻ자
일본을
11년
기록하는
해석을
시연
바뀌고
고을
##하이니
클라
365
##정부가
##득점
##똥
##도어
이례
캄보
확인되지
##골프
결핍
수행한
지자체의
승낙
##널리스트
정의를
중산
직영
말씀대로
개정에
체험할
패소
##자료로
##시험에
sf
##화도
조치에
개월
디스크
##산업진흥
소유의
##꼭
세션
즐기고
##화에서는
남이
표시를
##제이
##매출
화재가
배고
석방
현실이
바리
##업으로
잘생
형님
사회는
알아볼
장과
##주시면
기회로
생물학적
고유한
##졌지만
닛
##은은
##공식
불문
추진하기
나왔습니다
위태
##실습
관할하는
##ᆷ푸
##신용보증
cop
2사
##리거나
법인이
##교육국장
펼쳐진다
위원들이
한국산업
국정원
해라
벚
한전
성인이
김장
익혀
가치와
투자에
off
제조사
변함
종의
등급을
테스트를
체인
##빈은
개발제한
자꾸만
공간의
해수욕
적었다
175
평화의
자극을
넓고
나서고
양상을
##학교에
하자는
인연
제50
변한
처분의
업무와
글은
침몰
설정된
##술은
완료된
tech
거니까
부서에서
정체성을
제에
카자
##ᆺ밭
전락
데다가
가능해
군민
창업을
앓고
ep
공론
##생활에
국정감사
민사소송법
전문가들의
korea
주축
죽게
존재할
차지한
##중앙회
##9호
대웅
##됐는데
입자
부분과
모이는
자유무역
컬렉션
지시에
레전드
조카
싫은
##아래
본위원이
태워
경위
##마당
버텨
식중독
##과제를
본연의
##이었기
1963년
남편을
상태의
노력해야
함정
제33조
##있지
마련에
이뤄지지
나비
부지에
삼척
영조
##필을
걸맞
디아
쓸쓸
돋보이는
참여가
certified
로버트
현실의
아내와
개혁을
발생에
##특구
시상식
주민등록번호
소망
##하겠지만
관계에서
우리나라에
제작을
1973년
조롱
어려웠다
완성된
오프닝
기능의
아픔을
창건
사망했다
문예
자리로
##판과
제36조
소유한
총장은
보아도
메뉴를
또다른
그러고는
쉬고
해결해야
취급하는
무서워
동북아
화보
검토한
스마트폰을
##hz
##부여
##거는
결과와
승차
##조의5
##먹은
응급의료
제재를
사랑하고
갔다가
f1
지중
순찰
고독
임업
##대책본부
하긴
##팩트
무너지
##육성
##측의
##톤의
pop
##면에는
않자
조직개
##정화
##국어
들으면
일본과
줄어드는
##반에
않겠다는
##레이트
제공된다
사건에서
투자한
콜레스테로
##작품
집의
##공예
##직은
##질과
##두가
##백의
기절
기금을
##주어
60대
선생의
시선
##극을
트라우
12월까지
##미술관
의견은
바닥을
##궐선거
##문일
골고
음악이
명예를
##찔
##해준
안착
##자치단체
math
블로
추경예산
바르셀로나
미루어
103
방송된다
분석이다
무게를
##42
##해결
##블릿
명칭은
되느냐
마음도
고위공무원
장소가
진작
핵심적인
ns
코팅
담낭
태도가
백만
행정사무감사를
비는
##지검
보더라도
계기를
국회가
크다고
##했음에도
##당시
입각
감소하고
2016년도
##터스
계수
##발명
파크
절도
##끄럽
알림
단체에
꿈과
##ood
주석
판사
시스템으로
양성을
##보다가
기하
##하든
성질을
사업주
종속
김상
월요일
##보내
예정으로
##콘서
자발적
고안
말라는
품에
자재
유키
스쿨
미국으로
바디
사이드
빠질
##부부
각별히
30개
공룡
쇠퇴
associ
##주의와
요인에
먼지
뱉
투표를
형태는
팽창
##해하는
표면에
천문
미미
배추
4층
회색
넘은
##컥
국민안전처
##지방법원
##00만원을
받기도
배경을
달빛
500억
여과
##식당
허무
들려왔다
생식
벌레
##부사
스무
소외계층
강간
##변의
주문했다
4명이
##지향
##놈이
##율에
확인하여
드러내는
##소스
습지
자랑한다
사제
메일
m3
##템
받았으며
대회에
자영
내포
애쓰
##ᆻ어야
##타와
현명한
상용화
##터리
보장하는
유튜버
스피드
상소
천사
기숙사
##캐피탈
##여름
당국은
입수
##츠가
out
쿄
동포
육체
반출
말씀드립니다
딥
조사되었다
확산에
목소리에
장로
165
의미다
##한지
경제학
사각지
gu
아아
규모에
##좀
상관이
드러나는
도구를
편성을
##글라
틀을
상세하게
1심
지점에
##실적을
셀트리
깎아
##졌을
외쳤다
느끼며
바짝
##디다
sk하이니
실존
##픽을
일어
방학
접할
경부
외부에
##메가
경직
연맹
서비스로
않는데
생선
호전
둘의
사태로
봉안
고용보험
살리기
환경영향평가
##장학
##오카
lte
1세
##횡
오존
활용될
라이벌
2종
모아서
진지한
잔디
땀을
##round
청주시
안정된
타이거
매몰
접어
##채취
비판이
피해야
1979년
##대회에서
도무지
##더가
mr
만만치
담양
자유의
##방법은
183
기여하고
기상청
프로세스
사물인터넷
4단계
북한에
덤프공부자료
##쯤은
손실이
##분야의
거시
평면
우리나라가
베이비
##복지가족
인연을
라임
정형
##비한
순간이
생각해보면
##상태를
태그
프로그램이다
검증을
여기고
아시는
바우
유령
주위의
##수칙을
감사원
타이틀곡
##시까지
울트라
외국인이
주소를
##단속
대입
##상수도
상사
비하
방화
노력으로
##지노
##제도는
준다는
이용하고
흐름에
박람
데이터베이스
##셈
반대의
##되는지
##500
보수를
호랑
나왔는데
조용한
공사에
컷
아닌가요
c4
고산
##더는
조사결과
수준인
머릿속에
말만
생기지
정반
경청
이어갈
##풍의
김용
##부분에
1982년
1주일
##왈
##더의
외부에서
어깨에
가리킨다
방에서
2019년도
역대급
판단하여
하라는
##선박
##2개
재판장
곰팡
언젠가는
가습
일대에서
##협회는
채무자
##빼
##세종
선의
발휘할
일어난다
못하다
보였고
독립적으로
2분
##ax
가설
##월일
안정성
차량은
높아진
2030년
여타
발진
문자를
호는
이득을
그로부터
##인기
조별
인정받아
미래가
있지는
죽음에
곧장
잃게
320
##반은
환경적
탄탄한
제보
나포
팬들은
선언했다
수치다
##사각
좀을
11월에
신라의
act
##제도가
아님
부당이
##벳
자손
제49
개최한
##리니
##비트
익히
가는데
폭으로
자리잡
대리인
유난히
소주
대표팀
적용하고
않으나
목적의
##신도시
○여성가족
경신
월평균
울음
##ᆸ터
하하
정선
##귀가
휘발
해줘
##초의
오후에
반영이
##번째로
있었다면
전통을
비트코인
되새
스틸
이유에서
회의실
않아야
것이요
##렘
다르고
인삼
비난을
설정이
1990
##하였거나
##재난본부장
##었지
영상은
세계는
아모
펼쳐진
3기
가담
절로
##조사의
##리도
중성
끈다
##유출
금융위
제한된
스티븐
이룬다
참가자
아름다움을
##구치
했는
정착을
모노
중위
##군데
누구를
##이오
경제적으로
장애인의
추종
끝내고
갖추어
일본군
일어나서
뱅
바나
연관이
##태평
근거하여
여인의
되거나
우위를
만들어내는
##훈이
자로서
안아
칩
##점이다
살포
정도만
##브는
수준은
블러
##자격증
증원
말씀드릴
##값은
들여서
호위
폐려
##장려
유격
합창
##ᆺ잎
##지역이
##급히
국가유공자
그런가
수술은
억제하는
##램
짜증
짓이
질서를
상태입니다
##이치
##처분에
도미
타고난
##차와
모양이었다
미야
유교
##타입
성장하고
엔터테인먼트
양적
친구는
종류와
맛과
전에도
노력에
줄곧
상륙
입으로
##노스
집중하고
윈도우
위치는
##근거
178
지급하고
캠퍼스
간편하게
관리는
높아졌다
미래에셋
##하루
원로
북극
발전의
내세워
##체제를
발전할
전문가로
구출
통지를
##약의
km
확인해야
지정할
자유와
##ream
사회적기업
하류
##하기까지
행동으로
두터
오디션
##티의
##나라를
##먼지
나뉘어
##모와
##협력을
받았는데
관리의
헌법소
팬데미
디자인의
세르
카드가
서대문
왔고
위원장을
눈써
상임위
지쳐
공손
전문가와
##ake
식도
서두
##관절
명사
##8년에
빈틈
가능하면
접근을
##다의
아인
##전투
내려온
부지런
지장을
아들은
##네의
퀸
우리와
##ene
##참한
꼽히는
몰리
2015년도
대를
움직여
론칭
놀라게
##임에
최고경영
스마트시티
사상을
내재
형벌
포함돼
경쟁력이
이치
하트
밝히는
주민참여
이동하는
영리
만들지
1950년
맞추는
행정자치부
가깝게
○李
바르게
##금액을
##광장
자체도
구간을
가마
플레이를
아이러
backg
남산
파이어
기반한
보건복지가족
약속한
절대적인
거거든요
##체계의
채권을
상대방을
원하지
##키아
마그네
행성
##디움
background
계약서
시드
한한다
##시키는데
홍성
##업체를
##위원의
단체는
아쿠
꾸려
##던데
개념은
신성장
번개
신청해
처리하고
내려오는
##2p
##덤프를
처분에
순서로
기획조정
usb
##달이
제시할
보여주며
##야를
##상부
원조
사유에
썬
코로나19의
##엉
##도도
백인
##혁은
생각해요
쓰러뜨
썸
크라
도움으로
예측할
누설
돼지고
조치로
##학교의
핵심이
스피커
피에
피지
불펜
군사적
##전에는
어떡
알기로는
제출하면
없었다고
생육
##현장에서
##컨설팅
가나
있기도
우뚝
골키퍼
주역
외계
통학
국제기구
법무법인
섹시
건은
##례에
본부장은
4시간
사람으로서
채무를
발행한
모로
관중
분들의
묻는다
##a는
호칭
돌진
펼치는
브렉시
반갑습니다
##시각
##dr
##구려
몰라서
s4cwm
세계대전
나뉜다
명의의
명령에
##dc
##것으로
문장을
음향
남에게
메커니즘
전략이
##상으로는
죽기
##스타일
not
##조각
사람에게는
민원을
첨부하여
##ize
근육을
정신적인
##실점으로
60세
말없이
산입
완화를
질의하겠습니다
청년들이
##닉스
##구축
##등으로
팬들에게
가용
극단적인
결여
##주차장
조그만
##1일
부부의
처녀
않기로
##르를
이슈가
1천만
pol
기법을
퉁
코코
건설교통
단단한
놀러
어딘
##자라는
구간은
##얼을
자라는
방침이
관리하기
##계약에
드라이버
##해충
부분입니다
world
##교섭
천무
신속하고
부문의
sr
이류
말부터
##어갈
소설을
대주
보조금을
텍사스
지그
사설
수익성
##경찰서는
벌떡
##시스템의
미생
성범죄
##출혈
강하고
##선수권
창단
옮기
헬스케어
##강제
용납
제37조
꼬집
##스러웠다
##맨이
해보고
##전선
현대의
신뢰할
1960년대
낫다
대꾸
현황과
##사원
뭐라
도입된
원주민
나카
경합
천지
177
○기획관리실장
장마
숙종
열리고
목적과
지속적
묘한
의심되는
명예훼손
하나님께서
예산집행
가끔씩
매력이
좋아하고
슬프
##상가
운영된다
알칼리
국민은
지속되는
접한
멸종위기
데미지
다하겠습니다
##평이
사무총장
##버튼
시간대
이자를
오디
스스로가
전기를
##소녀
성실히
##up
필드
구축에
이산화탄소
기사는
구의
##내를
의원님께서
코미디
헬스
##플러
인도의
평정
대대적인
##연장
스물
긴장을
##6개
경력을
사용합니다
활동으로
원래의
불구속
선비
축조
확대될
정신질환
인물을
측근
기대에
##본은
##병원에서
언어로
뛰는
##하셔야
꽁
분뇨
격파
갤러리
마법을
상점
코를
##ree
보도자료
태권도
##학급
표현의
##바람
달을
##57
장인
방송에
엿볼
부자가
비점
##태는
불완
서울을
존재로
사진은
의사에
세종시
your
말대로
이래서
없으
속초
담겼다
##길래
기념해
채권자
어리석은
##전담
개최할
약탈
##막한
적용이
##주의는
억제하고
주어진다
이시
##율과
##혈증
든든한
분사
휴가를
무너뜨
##배상
운영되는
복리
멀리서
##답을
판단한다
##되었다가
##납부
인센티브를
인허가
예에
국내의
조사대상
반복적으로
연기가
감정의
입주자
풍속
니가
##거래소
식구
박살
올리겠습니다
##끈한
추처
##알킬
##분들이
반란
시뮬레이션
보병
레알
총리가
##뤼
수계
##상이다
##타당
실시하였다
누군가를
##재에
##암을
구형
최후
##크와
아오
##언스
##일인
비축
##층에서
골고루
함경
##임용
업계에
어느덧
##4년에
oc
인지도
계집
대상의
구체화
부당이득
1983년
이르고
##앨범
##사유가
##행복
건수는
주택의
움직이고
원활히
상관없
난이도가
식약처
수위
세포를
cod
참사
탐사
가처분
##금고
횟수
읊
##세액
할까요
노력은
양호한
##대상이
##열은
브라운
자연과
통과한
##업자는
##두면
교육부는
제3자에게
##ink
##여객
일만
기간제
##6년에
안티
춘추
서울중앙지검
##교과
효율을
번거
문화관광
던지는
##97
스쳐
산업에
현대화
삼가
씨아
##63
부모는
시청자들의
책임은
##지하
##생으로
양식을
다양하고
##때는
바이러
이뤄진다
1962년
과감하게
##난이
##연수원
##ᆨ의
전격
##움의
불의
국세청
##ᆻ잖아요
어미
농담
뿌리를
마드리
생각하게
혀를
카를
온도가
삼는
규모다
풀고
후보자는
##work
##ah
##net
알려야
추가경정예산
기판
##특성
산란
바이러스의
##버스를
서울과
프로모션
##공모
개발하여
##일반
증가하여
궁금증을
##테로
초빙
담을
신작
방통
##브의
치며
폭을
제1심
추진이
삼성물
욕구
##활성화
##영역
##포는
지방에
재판관
생생한
iv
서정
##당국
##었죠
##락은
정보제공
##뿐만이
이동할
부동산의
금지하는
시크
연차
번호를
주문과
##사회를
이후부터
##사업자는
제30조
ele
m2
##람을
##품목
태블릿
부산에
전쟁에
재생에너지
팽팽
요동
올림
불과했다
##조에서
의용
##었음
##번을
넋
출신인
변동이
##처리를
나오면서
능력에
권역별
데모
제품이다
##흙
아비
##전망
포함하며
##텐데
엉뚱한
##안마
어른이
##색과
떠올라
일문일
헤르
벗고
고민하는
##워진
증거로
##공기
더이상
인출
구멍이
계속적으로
만들어졌다
깔려
자외선
박원
러닝
좋음
상태는
사람이었다
해소하고
거느리고
##주사
##어촌
##금액은
하여도
오가는
명명
닐
공유할
주심
그중에서도
사가
##분별
제작에
##했기에
살았던
사항과
100만원
구축할
유량
실물
##현아
선제적
보낸다
##1z0
책으로
계시면
스트리밍
차츰
체계적
들어야
중앙선거관리
입건
한국토지
##교육원
주권
싶으면
자산운용
모집한다
여쭈
체온
마녀
12만
보던
##연에
절벽
많아요
크기와
치료의
어휘
도로의
##미사일
전남지역
##층으로
출입국
한탄
장관을
본관
발생되는
##소독
의는
기업체
받아들이고
##떨
부흥
##박람
상대에게
구는
실외
재촉
개발도
드리면
##사고가
연세
던전
시민을
운동에
3일간
갤럭시s
공직선거법
나무가
pcr
자들이
대통령에게
작성된
2건
##ium
부부는
##래요
역할과
간격으로
감독과
본인도
쿠폰
##퐁
부는
##법인이
진행되었다
눈과
개발할
죽음이
솔직하게
아가씨
직속
100년
이불
거리는
호소했다
누르면
제31조
싶고
상대는
##ash
gre
대덕
올라갔다
지적하는
##경찰서
##공무원의
##가면서
증가가
반영을
##ution
소명
##청정
공개됐다
허용하는
하기에
기와
식재료
입지를
사고의
민간인
ak
농정
가문
성추행
##백은
불안정
밀고
상승을
의도적으로
내디
##메리카
희망이
도지사가
부총리는
##저장
##죄가
참가하는
연속으로
##자라고
뜻밖
1981년
제도에
악용
크루즈
##올로
중요하지
마음과
띠고
의도를
##간히
##7년에
영화에
관념
취득하는
정조
내국
인용한
##산업이
수하
이해해
그러기
배웠다
200억
육박
측면을
주관으로
##장에서는
맞대
진행한다고
연관된
1과
정령
##조건을
inst
두려움
조속한
2를
관상
지나간
친구와
직원들
왔으며
##kw
##경보
표결
지날
사업자의
제34조
브레이크
##적이라고
주먹을
약물이
증가를
분석하는
공급할
부스
소식에
군수는
이동을
##본이
극복하기
워크쇼
회원이
엄중
2월에
특성과
제32조
##스트의
##재산의
상당하는
사무관
##례로
펼친다
행정을
전광
농어업
이트
용적
##테러
서울시장
관리법
않았나
117
브라우
궁극적으로
높지
팔당
꿈의
##보니까
신청하는
들어가기
신고하여야
탐험
승리로
흐르고
7천
시체
여성가족부
언제든
점수가
김기
##분한
네트워
말씀에
늘릴
언제부터
bi
전망을
유동성
고아
부모와
보도가
##사지
제사를
췌장
##웅이
선정돼
##조제1항제1
모티브
155
특수교육
싣고
회장을
##겹
투자해
1월에
하구
조업
필기
사회적인
다는
##매일
##회사무
패턴이
소속된
##ᆸ곤
자궁내
자리는
2위를
배에
기초생활
2m
많았
운영위원회
##봉이
상품은
부회장은
고온
파기하고
보충질의
규제가
기술력을
직관
대체할
더러운
개도
##본부가
무작정
항일
사진과
신용보증
##루살
달의
##다시피
조정에
옷이
##랑의
효과로
소속으로
5월부터
말미암아
미주
추방
##ᆷ비
##ᆺ고
대수
예가
날마다
제41조
에이취
중심을
역세
클레
제기했다
자율적으로
끄는
2px
기관으로
급변
궁궐
산업단
##베리
구매한
굵은
원스톱
결손
알릴
개정안은
바이올
도전을
불안을
무엇이든
3세
##원자
낱
노리고
목소리는
##도전
정책으로
##1개
##업종
##종목
추천한다
힘에
복권
마음속에
국민건강보험
조준
생산자
지적하고
##견은
숨진
##딩을
소득을
파일러
자식을
장관과
##네는
학생과
상금
차용
증가와
요소로
주춤
정비를
아무렇
컴퓨터를
##히며
##베리아
데이비드
이도
거둘
질이
##째로
##째를
천만
cent
##인력을
의자에
신진
학기
올라왔다
노력한
연예인
기여를
장면은
서포터
##ich
처리에
꼬리
확진자의
진흥원
사외
한국농
화면에
쥐어
정보통신망
##아니
##랑을
##활동이
##ower
가성
밝고
지정하여
영업이익이
바늘
직거래
##말에
##anc
소홀히
아시아나
중요시
보이게
키울
부모를
엇갈
집중호
벌어지고
##들기
비자
못했다는
##맞이
나름의
9월부터
기도를
촘
일문일답
