[PAD]
[UNK]
[CLS]
[SEP]
[MASK]
!
"
#
$
%
&
'
(
)
*
+
,
-
.
/
0
1
2
3
4
5
6
7
8
9
:
;
<
=
>
?
@
[
\
]
^
_
`
a
b
c
d
e
f
g
h
i
j
k
l
m
n
o
p
q
r
s
t
u
v
w
x
y
z
{
|
}
~
©
ª
°
²
³
µ
·
¹
º
¼
½
¾
×
ß
æ
ð
ø
þ
đ
ħ
ı
ŀ
ł
ŉ
ŋ
œ
ſ
ƀ
ƈ
ƒ
ƕ
ƙ
ƚ
ƶ
ƿ
ǀ
ǁ
ǂ
ǃ
ǝ
ȝ
ȡ
ȴ
ȵ
ȶ
ȸ
ȹ
ȼ
ɇ
ɐ
ɑ
ɒ
ɓ
ɔ
ɕ
ɖ
ɗ
ə
ɚ
ɛ
ɜ
ɞ
ɟ
ɡ
ɢ
ɣ
ɤ
ɥ
ɦ
ɨ
ɩ
ɪ
ɫ
ɬ
ɭ
ɮ
ɯ
ɰ
ɱ
ɲ
ɳ
ɴ
ɵ
ɸ
ɹ
ɺ
ɻ
ɽ
ɾ
ʀ
ʁ
ʂ
ʃ
ʈ
ʉ
ʊ
ʋ
ʌ
ʎ
ʏ
ʐ
ʑ
ʒ
ʔ
ʕ
ʘ
ʙ
ʚ
ʝ
ʞ
ʟ
ʡ
ʢ
ʣ
ʤ
ʥ
ʦ
ʧ
ʨ
ʰ
ʱ
ʲ
ʳ
ʷ
ʹ
ʺ
ʻ
ʼ
ʽ
ʾ
ʿ
ˀ
ˁ
ˆ
ˇ
ˈ
ˊ
ˋ
ˌ
ˏ
ː
ˑ
ˠ
ˤ
ˮ
ͳ
α
β
γ
δ
ε
ζ
η
θ
ι
κ
λ
μ
ν
ξ
ο
π
ρ
ς
σ
τ
υ
φ
χ
ψ
ω
ϐ
ϒ
ϕ
ϛ
ϝ
ϡ
ϲ
ϵ
а
б
в
г
д
е
ж
з
и
к
л
м
н
о
п
р
с
т
у
ф
х
ц
ч
ш
щ
ъ
ы
ь
э
ю
я
ђ
є
ѕ
і
ј
љ
њ
ћ
џ
ѣ
ѧ
ѹ
ҋ
ғ
ҕ
ҙ
қ
ҝ
ҟ
ҡ
ң
ҥ
ҩ
ү
ұ
ҳ
ҵ
ҷ
һ
ҽ
ӄ
ӆ
ӈ
ӎ
ӏ
ӕ
ә
ӡ
ө
ԁ
ԃ
ԉ
ԛ
ա
բ
գ
դ
ե
է
թ
ի
լ
խ
կ
հ
ղ
մ
յ
ն
շ
ո
չ
պ
ջ
ս
վ
տ
ր
ւ
փ
ք
א
ב
ג
ד
ה
ו
ז
ח
ט
י
ך
כ
ל
ם
מ
ן
נ
ס
ע
ף
פ
ץ
צ
ק
ר
ש
ת
٠
١
٢
٣
٩
ܐ
ܒ
ܕ
ܗ
ܘ
ܙ
ܛ
ܝ
ܟ
ܠ
ܡ
ܢ
ܣ
ܥ
ܪ
ܫ
ܬ
߇
ߢ
अ
आ
इ
उ
ए
ओ
क
ख
ग
घ
ङ
च
छ
ज
झ
ञ
ट
ड
ण
त
थ
द
ध
न
प
फ
ब
भ
म
य
र
ल
ळ
व
श
ष
स
ह
ॐ
०
ॱ
অ
ই
উ
এ
ক
খ
গ
ঘ
চ
ছ
জ
ঞ
ট
ঠ
ড
ত
থ
দ
ধ
ন
প
ফ
ব
ম
য
র
ল
শ
ষ
স
হ
ਅ
ਆ
ਕ
ਗ
ਜ
ਣ
ਤ
ਰ
ਲ
ਸ
ਹ
੦
ଓ
ଡ
ଶ
అ
ఆ
ఈ
ఉ
ఎ
ఏ
క
ఖ
గ
చ
జ
ట
డ
ణ
త
ద
ధ
న
ప
ఫ
బ
భ
మ
య
ర
ల
వ
శ
ష
స
హ
౪
ಥ
ಲ
ഠ
අ
ආ
එ
ඔ
ක
ග
ජ
ඥ
ට
ඩ
ණ
ත
ද
ධ
න
ඳ
ප
බ
භ
ම
ය
ර
ල
ව
ශ
ෂ
ස
හ
ළ
ෆ
ก
ข
ค
ฆ
ง
จ
ช
ซ
ฌ
ญ
ฐ
ฒ
ณ
ด
ต
ถ
ท
ธ
น
บ
ป
ผ
ฝ
พ
ฟ
ภ
ม
ย
ร
ฤ
ล
ว
ศ
ษ
ส
ห
อ
ฮ
ะ
า
ำ
เ
แ
โ
ใ
ไ
ๆ
๑
๕
ຂ
ງ
ຈ
ຕ
ຖ
ນ
ບ
ພ
ມ
ວ
ສ
ຫ
ອ
ະ
າ
ຳ
ແ
ໂ
໕
ཁ
ག
ང
ཆ
ད
ན
པ
བ
མ
ཙ
ཚ
འ
ར
ལ
ཤ
ས
ཧ
ཨ
က
ခ
င
ဆ
ဇ
ည
ဒ
န
ပ
ဘ
မ
ရ
လ
ဝ
သ
အ
၀
၁
၂
ა
ბ
გ
დ
ე
ვ
ზ
თ
ი
კ
ლ
მ
ნ
ო
პ
რ
ს
ტ
უ
ფ
ქ
ღ
შ
ც
ძ
წ
ჭ
ხ
ᄀ
ᄁ
ᄂ
ᄃ
ᄄ
ᄅ
ᄆ
ᄇ
ᄈ
ᄉ
ᄊ
ᄋ
ᄌ
ᄍ
ᄎ
ᄏ
ᄐ
ᄑ
ᄒ
ᄓ
ᄔ
ᄙ
ᄚ
ᄛ
ᄝ
ᄞ
ᄟ
ᄠ
ᄡ
ᄢ
ᄣ
ᄤ
ᄥ
ᄦ
ᄧ
ᄨ
ᄩ
ᄪ
ᄫ
ᄭ
ᄯ
ᄲ
ᄴ
ᄶ
ᄼ
ᄽ
ᄾ
ᄿ
ᅀ
ᅄ
ᅇ
ᅋ
ᅌ
ᅎ
ᅏ
ᅐ
ᅑ
ᅔ
ᅕ
ᅗ
ᅘ
ᅙ
ᅞ
ᅟ
ᅠ
ᅡ
ᅢ
ᅣ
ᅤ
ᅥ
ᅦ
ᅧ
ᅨ
ᅩ
ᅪ
ᅫ
ᅬ
ᅭ
ᅮ
ᅯ
ᅰ
ᅱ
ᅲ
ᅳ
ᅴ
ᅵ
ᆈ
ᆐ
ᆒ
ᆔ
ᆖ
ᆜ
ᆝ
ᆞ
ᆡ
ᆢ
ᆦ
ᆨ
ᆩ
ᆪ
ᆫ
ᆬ
ᆭ
ᆮ
ᆯ
ᆰ
ᆱ
ᆲ
ᆳ
ᆴ
ᆵ
ᆶ
ᆷ
ᆸ
ᆹ
ᆺ
ᆻ
ᆼ
ᆽ
ᆾ
ᆿ
ᇀ
ᇁ
ᇂ
ᇌ
ᇔ
ᇕ
ᇙ
ᇚ
ᇝ
ᇢ
ᇣ
ᇧ
ᇫ
ᇬ
ᇭ
ᇮ
ᇯ
ᇰ
ᇹ
ᇾ
ሃ
ላ
ሜ
ም
ሥ
ረ
ራ
ር
ሰ
ሴ
ስ
ቅ
ቆ
ቡ
ብ
ት
ቼ
ኈ
ን
አ
ኤ
ዕ
ዘ
ዝ
ዥ
ያ
ይ
ዳ
ዴ
ድ
ዽ
ገ
ጉ
ጊ
ግ
ጠ
ጿ
ፈ
ፍ
ᏼ
ᐃ
ᐛ
ᐥ
ᐧ
ᐨ
ᑌ
ᑎ
ᑐ
ᑑ
ᑕ
ᒃ
ᒑ
ᓕ
ᚁ
ᚂ
ᚃ
ᚄ
ᚅ
ᚆ
ᚇ
ᚈ
ᚉ
ᚊ
ᚋ
ᚌ
ᚍ
ᚎ
ᚏ
ᚐ
ᚑ
ᚒ
ᚓ
ᚔ
ᚕ
ᚖ
ᚗ
ᚘ
ᚙ
ᚚ
ᚢ
ᚦ
ᚱ
ᚼ
ᛉ
ᛏ
ᛒ
ᜀ
ᜁ
ᜃ
ᜅ
ᜈ
ᜉ
ᜋ
ᜌ
ᜎ
ᜏ
ក
ខ
គ
ង
ច
ជ
ញ
ដ
ណ
ត
ទ
ធ
ន
ប
ព
ភ
ម
យ
រ
ល
វ
ស
ហ
ឡ
អ
ឬ
២
៧
ᠠ
ᠡ
ᠢ
ᠣ
ᠤ
ᠥ
ᠦ
ᠨ
ᠩ
ᠪ
ᠬ
ᠭ
ᠮ
ᠯ
ᠰ
ᠱ
ᠲ
ᠳ
ᠴ
ᠵ
ᠶ
ᠷ
ᠸ
ᠺ
ᡝ
ᡞ
ᡠ
ᡤ
ᡥ
ᡨ
ᡩ
ᡳ
ᡴ
ᡵ
ᡶ
ᥡ
ᥱ
ᦪ
ᴗ
ᵇ
ᵈ
ᵊ
ᵐ
ᵕ
ᵝ
ᵻ
ᶡ
ᶢ
–
―
‘
’
“
”
•
․
…
‧
※
⁰
ⁱ
⁴
⁵
⁶
⁷
⁸
⁹
ⁿ
₀
₁
₂
₃
₄
₅
₆
₈
ₙ
℃
ℓ
ℝ
ℤ
ℶ
ℼ
ⅎ
⅓
⅔
⅕
⅛
ⅰ
ⅱ
ⅲ
ⅳ
ⅴ
ⅵ
ⅶ
ⅷ
ⅸ
ⅹ
ⅺ
ⅻ
↑
→
∙
∼
≪
≫
①
②
③
④
⑤
⑥
⑦
⑧
⑨
⑩
⑪
⑫
⑬
⑭
⑮
⑯
⑰
⑱
⑲
⑳
⑴
⑵
⑶
⑷
⑸
⑹
⑺
⑻
⑼
⑽
⑾
⑿
⒀
⒁
⒃
⒇
⒈
⒉
⒊
⒋
⒌
⒍
⒎
⒏
⒐
⒑
⒒
⒓
ⓒ
⓫
⓬
⓭
⓮
⓯
⓰
⓱
⓲
⓳
⓴
⓵
⓶
⓷
⓸
⓹
⓺
⓻
⓼
⓽
─
━
■
□
▢
▪
▲
△
▶
▷
▸
◆
◇
◈
○
◎
●
◦
★
☆
☞
❍
❶
❷
❸
❹
❺
❻
❼
❽
❾
❿
➀
➁
➂
➃
➄
➅
➆
➇
➈
➉
➊
➋
➌
➍
➎
➏
➐
➑
➒
➓
ⱱ
ⲁ
ⲇ
ⲛ
ⲟ
ⲥ
ⲩ
ⴖ
ⴰ
ⴷ
ⴻ
ⵍ
ⵔ
ⵢ
ⵣ
。
々
〆
〇
〈
〉
《
》
「
」
『
』
【
】
〣
・
ー
ㄅ
ㄇ
ㄉ
ㄊ
ㄋ
ㄍ
ㄏ
ㄐ
ㄒ
ㄓ
ㄔ
ㄗ
ㄙ
ㄚ
ㄛ
ㄝ
ㄞ
ㄟ
ㄠ
ㄢ
ㄣ
ㄤ
ㄥ
ㄧ
ㄨ
ㄩ
ㄱ
ㄲ
ㄳ
ㄴ
ㄵ
ㄶ
ㄷ
ㄸ
ㄹ
ㄺ
ㄻ
ㄼ
ㄽ
ㄾ
ㄿ
ㅀ
ㅁ
ㅂ
ㅃ
ㅄ
ㅅ
ㅆ
ㅇ
ㅈ
ㅉ
ㅊ
ㅋ
ㅌ
ㅍ
ㅎ
ㅏ
ㅐ
ㅑ
ㅒ
ㅓ
ㅔ
ㅕ
ㅖ
ㅗ
ㅘ
ㅙ
ㅚ
ㅛ
ㅜ
ㅝ
ㅞ
ㅟ
ㅠ
ㅡ
ㅢ
ㅣ
ㅤ
ㅥ
ㅧ
ㅨ
ㅩ
ㅪ
ㅬ
ㅭ
ㅯ
ㅰ
ㅱ
ㅳ
ㅴ
ㅵ
ㅶ
ㅷ
ㅸ
ㅹ
ㅺ
ㅼ
ㅽ
ㅾ
ㅿ
ㆀ
ㆁ
ㆄ
ㆅ
ㆆ
ㆉ
ㆌ
ㆍ
ㆎ
㈜
㉑
㉒
㉓
㉔
㉕
㉖
㉗
㉘
㉙
㉚
㉛
㉜
㉝
㉞
㉟
㊉
㊱
㊲
㊳
㊴
㊵
㊶
㊷
㊸
㊹
㊺
㊻
㊼
㊽
㊾
㊿
㎜
㎝
㎞
㎡
一
上
中
人
今
信
兄
先
光
入
出
分
力
勇
動
北
南
友
口
古
同
問
善
國
土
地
多
大
天
女
妹
姉
子
學
家
小
少
山
市
師
年
庭
弟
後
心
忍
惡
愛
手
教
文
新
方
日
明
時
智
書
會
月
木
本
東
校
正
母
民
水
火
父
生
男
目
禮
答
美
義
耳
聲
育
自
船
西
親
話
語
足
車
運
金
長
間
電
高
ꀗ
ꀵ
ꁁ
ꁜ
ꁬ
ꁭ
ꁹ
ꂇ
ꂿ
ꃂ
ꃜ
ꃶ
ꄓ
ꄱ
ꅇ
ꅊ
ꅐ
ꅮ
ꅾ
ꆈ
ꆕ
ꆚ
ꆛ
ꆪ
ꆱ
ꇍ
ꇛ
ꇴ
ꈎ
ꈏ
ꈕ
ꈘ
ꈬ
ꉔ
ꉥ
ꉲ
ꉸ
ꊈ
ꊉ
ꊓ
ꊔ
ꊕ
ꊛ
ꊱ
ꊲ
ꊸ
ꋏ
ꋡ
ꋬ
ꋮ
ꋯ
ꋹ
ꋼ
ꌭ
ꌽ
ꍓ
ꍚ
ꍤ
ꍬ
ꍴ
ꍷ
ꎶ
ꎻ
ꏀ
ꏡ
ꐇ
ꐪ
ꐺ
ꐻ
ꑠ
ꑧ
ꑭ
ꜭ
ꜿ
ꝛ
ꞏ
ꠓ
ꠖ
ꡐ
ꡑ
ꡒ
ꡓ
ꡔ
ꡕ
ꥡ
ꥢ
ꥪ
ꥫ
ꥲ
ꥳ
ꥴ
ꥸ
ꦗ
ꦠ
ꦪ
ꦮ
ꨌ
ꨛ
ꭰ
ꭹ
ꮃ
ꮒ
ꮙ
ꮝ
ꮟ
ꮳ
ꮻ
ꮿ
ퟁ
ퟅ
ퟏ
ퟗ
ퟘ
ퟤ
ퟦ
ퟨ
ퟴ
ퟻ
ﬁ
ﬂ
％
０
１
２
３
４
５
６
７
８
９
；
ａ
ｂ
ｃ
ｄ
ｅ
ｆ
ｇ
ｈ
ｉ
ｊ
ｋ
ｌ
ｍ
ｎ
ｏ
ｐ
ｑ
ｒ
ｓ
ｔ
ｕ
ｖ
ｗ
ｘ
ｙ
ｚ
｢
｣
ｧ
ｨ
ｪ
ｬ
ｮ
ｯ
ｰ
ｱ
ｲ
ｳ
ｴ
ｵ
ｶ
ｷ
ｸ
ｹ
ｺ
ｻ
ｼ
ｽ
ｾ
ｿ
ﾀ
ﾁ
ﾃ
ﾄ
ﾅ
ﾆ
ﾇ
ﾈ
ﾉ
ﾊ
ﾋ
ﾌ
ﾍ
ﾎ
ﾏ
ﾐ
ﾒ
ﾓ
ﾕ
ﾖ
ﾗ
ﾘ
ﾙ
ﾚ
ﾛ
ﾜ
ﾝ
ﾞ
ﾟ
ﾠ
ﾮ
ﾷ
ￜ
𐀀
𐀁
𐀄
𐀈
𐀏
𐀐
𐀒
𐀚
𐀞
𐀟
𐀡
𐀢
𐀣
𐀪
𐀫
𐀲
𐀵
𐌀
𐌍
𐌏
𐌓
𐌔
𐌴
𐌹
𐍃
𐍄
𐍅
𐍈
𐎠
𐎡
𐎢
𐎦
𐎫
𐎭
𐎲
𐎶
𐎹
𐎺
𐎼
𐏁
𐤀
𐤁
𐤂
𐤄
𐤅
𐤇
𐤉
𐤊
𐤋
𐤌
𐤍
𐤎
𐤐
𐤑
𐤒
𐤓
𐤔
𐤕
𑀅
𑀓
𑀦
𑀬
𑀯
𑀲
𒀔
𒀕
𒀝
𒀭
𒁺
𒂅
𒂵
𒃾
𒄑
𒆠
𒆪
𒇻
𒈦
𒈩
𒉈
𒉺
𒊑
𒊩
𒊭
𒊹
𒋀
𒌆
𒌨
𒌷
𓈖
𖧷
𝐴
𝑫
𝒆
𝒌
𝒍
𝒘
𝒚
𝒩
𝓐
𝔛
𝕓
𝕔
𝕕
𝕖
𝕟
𝕠
𝕥
𝙰
𝙱
𝙲
𝙴
𝙻
𝙾
𝙿
𝚿
𝛿
𝝨
##0
##ᄒ
##ᅬ
##ᄎ
##ᅡ
##ᄋ
##ᅴ
##ᅢ
##ᆷ
##ᅵ
##ᅭ
##ᅥ
##ᄌ
##ᅦ
##ᄉ
##ᄆ
##ᆫ
##ᄃ
##ᅳ
##ᆯ
##ᄁ
##ᄂ
##ᆼ
##ᄅ
##ᅧ
##ᅮ
##ᄀ
##ᅩ
##ᅣ
##ᆻ
##ᄄ
##ᄐ
##ᆨ
##ᄑ
##ᅪ
##ᅱ
##3
##ᄇ
##ᄏ
##ᆸ
##ᆺ
##8
##ᅲ
##d
##ᅨ
##ᅯ
##㎝
##6
##1
##5
##m
##9
##u
##c
##i
##a
##v
##e
##2
##ᆽ
##ᇁ
##ᇀ
##7
##s
##p
##ᄍ
##t
##ᄊ
##ᆭ
##4
##b
##o
##r
##z
##ᄈ
##ᅫ
##ᆶ
##▲
##h
##l
##y
##n
##ᇂ
##ᆾ
##→
##∼
##ᆰ
##ᆱ
##◇
##ᆩ
##ᅰ
##㈜
##°
##j
##k
##ᆹ
##x
##ㅇ
##f
##g
##ᆮ
##ᆿ
##○
##ᅤ
##０
##λ
##ε
##ξ
##α
##ν
##δ
##ρ
##ο
##ς
##ᆞ
##q
##×
##w
##ᄯ
##ᆬ
##≫
##△
##θ
##η
##τ
##★
##３
##㎡
##ı
##②
##ㆍ
##℃
##ᆲ
##③
##υ
##χ
##ː
##ᆴ
##▶
##∙
##─
##ⅱ
##ˌ
##æ
##ə
##ˈ
##ɪ
##⅔
##㎜
##↑
##ⅲ
##㎞
##μ
##²
##и
##к
##о
##м
##у
##ー
##☆
##①
##▷
##ㅅ
##ㅋ
##ł
##ω
##□
##❍
##ᆪ
##ｔ
##ｏ
##≪
##ㅠ
##π
##ι
##ʻ
##ʼ
##ㅓ
##ㅡ
##φ
##κ
##◦
##γ
##ⅰ
##ℓ
##ˮ
##จ
##า
##ห
##ญ
##ง
##ผ
##พ
##ท
##ก
##ษ
##อ
##ม
##ว
##น
##ర
##ద
##ⅴ
##ㄹ
##⑤
##━
##☞
##э
##б
##д
##н
##а
##в
##е
##⅓
##ⅳ
##７
##ｎ
##９
##ᆵ
##ᠠ
##ᠭ
##ᠤ
##ᠷ
##₂
##ㅎ
##ㅈ
##т
##ᆳ
##ฮ
##ด
##ⅶ
##ㅂ
##ｍ
##л
##ы
##〇
##⑩
##ร
##บ
##ø
##ხ
##ი
##ნ
##ვ
##ა
##ლ
##◆
##ㄱ
##ค
##➌
##ㅏ
##◎
##ㅑ
##ㅕ
##ㅗ
##ㅛ
##ㅜ
##ㅣ
##⁴
##σ
##ᅀ
##ᄫ
##④
##➄
##ﾏ
##ｹ
##ㅁ
##ই
##য
##ⲟ
##ⲩ
##ⲁ
##ⲛ
##ㅌ
##ㄴ
##ㅐ
##º
##ล
##ㅊ
##µ
##ᆡ
##র
##ন
##ত
##●
##р
##с
##■
##ｇ
##ᅠ
##ㄷ
##⑫
##ж
##ⅷ
##➁
##⑨
##ħ
##י
##מ
##ם
##န
##က
##အ
##ပ
##ည
##ဆ
##င
##ရ
##လ
##з
##ᇰ
##⑦
##भ
##र
##म
##न
##г
##ч
##ហ
##ម
##ន
##ᄶ
##ո
##ջ
##ա
##լ
##ւ
##ի
##я
##ᄭ
##⑥
##¹
##➂
##च
##ल
##þ
##１
##２
##ŋ
##β
##▸
##➊
##ⅹ
##п
##ß
##պ
##ե
##❶
##⑧
##х
##ძ
##ე
##ь
##ד
##ה
##ʔ
##ɹ
##ψ
##ㅤ
##ㄲ
##ⅵ
##ᄲ
##ɾ
##ꡑ
##ｉ
##ɯ
##ꞏ
##ц
##ㅖ
##ᆢ
##ᡳ
##ᡨ
##ᡥ
##ᡝ
##ｘ
##ш
##ㅢ
##ʌ
##ʹ
##々
##ɇ
##ㄶ
##ｮ
##ｺ
##ﾊ
##ﾞ
##ﾚ
##ﾝ
##ﾀ
##ｲ
##ზ
##უ
##რ
##ळ
##ю
##ר
##ת
##א
##व
##स
##त
##क
##ग
##ध
##ʒ
##ट
##פ
##ו
##ש
##դ
##գ
##ր
##ㅔ
##ⓒ
##ㅍ
##ð
##▪
##ㅃ
##⑯
##➎
##⑴
##ᇫ
##ɛ
##ﾠ
##ⅸ
##➀
##ܫ
##ܢ
##ܬ
##ܐ
##ɑ
##נ
##ᡠ
##ᡴ
##य
##ʲ
##ㄨ
##ㄥ
##ˋ
##➋
##ʘ
##ᄠ
##ᆔ
##ᇙ
##ช
##ย
##ᵝ
##כ
##ל
##ζ
##ㅆ
##ק
##แ
##ᄔ
##ㄻ
##ᴗ
##ක
##ɒ
##ʳ
##ʊ
##©
##₁
##న
##ƚ
##ˠ
##ɨ
##క
##మ
##➃
##ঞ
##জ
##ল
##ｃ
##ｒ
##щ
##ｸ
##ﾗ
##ﾘ
##ｽ
##ｯ
##ｷ
##４
##ӕ
##រ
##ស
##ទ
##ប
##យ
##ᐧ
##ะ
##โ
##ח
##⁸
##⑬
##फ
##द
##ｌ
##ข
##ᅌ
##ธ
##ｖ
##ｕ
##³
##◈
##ｋ
##⁵
##½
##５
##８
##ʏ
##ɐ
##ජ
##ප
##ෂ
##ㅉ
##➍
##থ
##ｙ
##¾
##భ
##త
##⑵
##⑱
##੦
##थ
##ए
##ܣ
##յ
##ն
##ज
##ᚢ
##ᚱ
##ן
##⑮
##❹
##ә
##ɤ
##⓶
##ᶡ
##प
##স
##ｐ
##ｅ
##ｄ
##ב
##ԃ
##ల
##స
##ɣ
##צ
##ז
##ɔ
##і
##ఫ
##వ
##గ
##ʿ
##𒃾
##𒇻
##𒊭
##ම
##න
##๑
##ꊕ
##▢
##ʷ
##ｑ
##བ
##ག
##₃
##₄
##ˑ
##ﾄ
##ａ
##６
##❸
##ह
##ਕ
##ਲ
##ɕ
##ʰ
##ס
##ג
##𐤉
##𐤂
##𐤓
##𐤔
##𐤄
##ט
##ᠨ
##ᠵ
##ත
##ퟅ
##⑲
##ਤ
##ਜ
##ф
##ʑ
##ະ
##ຖ
##າ
##ນ
##ﾙ
##ﾃ
##ｨ
##ｰ
##ศ
##เ
##⁰
##ʀ
##श
##➅
##𐌀
##𐌔
##𐌍
##ক
##ব
##ﾌ
##❷
##ㄸ
##კ
##ო
##ㅘ
##ต
##ᠴ
##ས
##ལ
##ང
##ད
##ץ
##ҥ
##ｓ
##𐤀
##𐤋
##ត
##ឡ
##ច
##⑷
##ъ
##ㅞ
##ณ
##ˆ
##ᠥ
##ᠬ
##ᠡ
##ය
##𐤌
##ꮟ
##ꮙ
##ꮿ
##ㅀ
##ƒ
##ර
##බ
##ຕ
##ໂ
##œ
##ព
##ល
##ﾟ
##շ
##ˊ
##య
##ǃ
##ퟦ
##উ
##ј
##ද
##ල
##ไ
##ᠢ
##ᠶ
##ᠰ
##ᠦ
##ট
##প
##ළ
##ග
##ᇝ
##١
##ව
##ᠪ
##მ
##წ
##ბ
##ʃ
##ख
##ө
##ꦗ
##ꦮ
##⑪
##ѹ
##ѧ
##ƶ
##ｿ
##ﾁ
##ﾖ
##ధ
##ㆁ
##ส
##ำ
##ܥ
##ܠ
##ܘ
##⁷
##ᅘ
##ს
##თ
##⑳
##❽
##հ
##ղ
##թ
##¼
##𝒆
##𝒌
##𝒍
##𝒚
##ር
##ት
##ራ
##გ
##ﾛ
##ㄳ
##ү
##డ
##ట
##ˁ
##ｗ
##ब
##ష
##খ
##ˏ
##ｱ
##⑭
##ע
##დ
##𒉈
##𒂵
##𒈩
##ɡ
##ퟨ
##ረ
##ስ
##₆
##𐀲
##ᄡ
##ﾎ
##⑺
##տ
##չ
##ﾋ
##ㅿ
##ퟗ
##➐
##দ
##ধ
##ㆆ
##қ
##ђ
##բ
##ป
##ฐ
##𐤕
##𐤇
##ম
##ใ
##ﾜ
##វ
##២
##ᜋ
##ᜏ
##ᜃ
##ᠯ
##ʺ
##⓫
##ｊ
##ᆈ
##ᅟ
##ҡ
##ʁ
##կ
##ף
##ⁿ
##њ
##ћ
##ɫ
##ʂ
##ॱ
##ª
##ｂ
##ㄾ
##ȝ
##ም
##ሃ
##ᄧ
##ᡞ
##చ
##⑰
##ք
##ถ
##❾
##ᠲ
##ꮒ
##ᏼ
##ꮻ
##ㅚ
##జ
##झ
##⓬
##బ
##ㅄ
##ㅟ
##ᠮ
##ㄠ
##𑀦
##₈
##𐤑
##ꅊ
##❻
##ﾐ
##ꊓ
##ᵻ
##ҷ
##ᠣ
##ᠩ
##ｼ
##ｵ
##𐎦
##𐎡
##➒
##ᜅ
##ဘ
##ဇ
##ᄢ
##ǝ
##ɮ
##ణ
##ҳ
##⓹
##➑
##❼
##ꁹ
##❺
##⑶
##𐀒
##ⁱ
##አ
##ᇯ
##ᵇ
##හ
##គ
##ꋡ
##𑀲
##𑀓
##ዴ
##ቅ
##ड
##ꅐ
##ᆒ
##ᇔ
##ₙ
##ꂿ
##ɜ
##ퟁ
##ퟴ
##đ
##𐀵
##𐀪
##𐀚
##ქ
##⓸
##ᇹ
##ﾷ
##ｈ
##ɟ
##ཙ
##ན
##ඩ
##ላ
##ሴ
##ष
##ɞ
##ꡓ
##ㅒ
##ϛ
##ꡕ
##ѣ
##ტ
##ܕ
##ɵ
##ս
##➏
##ʾ
##𐀢
##𐀈
##𐀐
##ˀ
##ਰ
##٠
##₅
##ퟘ
##㉒
##ʉ
##শ
##➆
##𐤁
##𒊹
##₀
##⁹
##မ
##ဒ
##མ
##པ
##ཚ
##ར
##ណ
##ក
##ਆ
##ਣ
##〣
##㉔
##०
##𒌆
##𒉺
##𒂅
##ϲ
##ᐨ
##໕
##ప
##ਗ
##ｧ
##ﾇ
##⒁
##ｚ
##⓷
##ŀ
##є
##ᠳ
##ង
##ᶢ
##ｆ
##შ
##ʝ
##𝕓
##𝕖
##𝕟
##𝕥
##𝕠
##ʐ
##శ
##ఖ
##ꈕ
##ฤ
##ﬁ
##ገ
##ഠ
##ឬ
##ធ
##ˇ
##ᜀ
##ᜎ
##ᜈ
##ˤ
##ԉ
##⁶
##ｶ
##ฆ
##ඳ
##ꁭ
##ঘ
##హ
##ㄞ
##ซ
##ｻ
##ภ
##ҕ
##ㄣ
##ㄍ
##ꡐ
##ฟ
##ܝ
##ܙ
##ᄟ
##ᄨ
##ᄩ
##ᄪ
##ግ
##ይ
##ɬ
##ㅙ
##ㅝ
##ʡ
##ʽ
##𝙻
##𝙰
##𝙲
##𝙴
##𝙱
##𝙾
##𒈦
##ﾉ
##ᇕ
##⓭
##ﾓ
##ङ
##џ
##ꉥ
##ဝ
##ӄ
##ﾮ
##ꈏ
##𐀟
##➓
##ᵕ
##⅕
##⓯
##ꁜ
##ᵈ
##ㄧ
##ㄗ
##ㄤ
##ㄔ
##ㄢ
##ㄉ
##ฒ
##փ
##ㄟ
##ﾆ
##হ
##ষ
##ᅙ
##ብ
##ꨛ
##ཤ
##𐤐
##𐤍
##ට
##➇
##ण
##ך
##⒃
##𐎠
##𐎼
##𐎹
##𐎺
##𐎢
##𐏁
##㉑
##ჭ
##ѕ
##ञ
##ԁ
##ฝ
##ⅻ
##ᇚ
##⑻
##➈
##ㄝ
##ɸ
##ﬂ
##ɚ
##ꥳ
##ꥴ
##ʱ
##ᄙ
##ꦪ
##𑀯
##ಥ
##ꠓ
##𐤅
##ओ
##љ
##ᇧ
##𒀝
##𒆪
##𒁺
##𒌨
##𒊑
##𒋀
##ዝ
##ǀ
##ɲ
##ᆦ
##ܛ
##ණ
##ܪ
##ܡ
##භ
##𐤊
##ʞ
##ퟤ
##𒀕
##ƿ
##ᇣ
##𐤎
##𐤒
##ᜌ
##ꮃ
##ꭹ
##ᇾ
##ｬ
##մ
##ꄱ
##ﾒ
##ଡ
##ଶ
##ｴ
##ᆐ
##ⴻ
##ⴷ
##ⵣ
##ⴰ
##ⵢ
##ⵔ
##ﾅ
##ꊔ
##ฌ
##ᜉ
##ㅨ
##ϵ
##ዕ
##ቆ
##㉓
##ᇢ
##ㄚ
##㊿
##ﾍ
##ﾈ
##ꑭ
##ꝛ
##ܟ
##ጉ
##ሥ
##⑹
##ភ
##ﾕ
##འ
##ញ
##၀
##၂
##၁
##ን
##ጠ
##ዥ
##ខ
##သ
##ᛉ
##ㆀ
##ᠸ
##𐎫
##𐎶
##ວ
##ງ
##ພ
##ບ
##ᒑ
##ᓕ
##ᒃ
##𐌴
##𐌹
##𐍅
##𐍃
##ᡵ
##ꃜ
##ㄋ
##ㄛ
##ɥ
##ㄽ
##ដ
##վ
##㉖
##ᇌ
##ᄣ
##𝕔
##ມ
##ຳ
##ຂ
##ອ
##ￜ
##ҟ
##ㅸ
##इ
##𒀔
##𐀄
##𐀫
##៧
##ᄤ
##ᄥ
##ᄦ
##⅛
##ㅹ
##ң
##һ
##으
##ᅡᆫ
##이
##다
##ᅳᆫ
이
##는
##하
##에
##ᅡᆼ
##ᅳᆯ
##을
##ᅥᆫ
##의
##로
##고
##서
##지
##ᅧᆫ
##가
##어
##ᅧᆼ
##시
##ᅩᆼ
##해
##ᅮᆫ
##저
##ᆻ다
##한
##은
##ᅡᆯ
##를
##리
##도
##기
##ᅯᆫ
##ᅮᆯ
지
그
##니
##과
시
##ᅳᆼ
가
##라
##자
거
##스
##여
##인
아
##으로
저
하
사
##요
##ᅮᆨ
##게
##ᅩᆨ
##사
수
있
##원
대
##정
##나
##장
주
어
기
##들
##아
##에서
##ᅩᆫ
##ᅢᆼ
##화
##부
##되
것
##면
제
##ᆸ니
##적
자
##려
##러
##야
##ᆸ니다
##대
##그
##만
##ᅧᆯ
##상
##제
서
과
나
전
보
다
위
##주
##ᅢᆨ
한
마
##회
미
바
##성
##와
##치
##업
##하는
##용
##일
##수
정
##보
##유
화
조
등
모
해
##구
경
##년
고
##거
##조
부
##전
##하고
##미
##버
##우
여
##할
공
##했다
##국
의
##계
중
일
되
인
##ᆷ을
##드
상
##산
관
##관
오
##문
##비
##소
##동
##터
##데
##하여
있다
##처
##며
##ᅣᆼ
##까
##행
유
##신
##이다
##무
##간
##트
내
도
##습니다
소
##위
##래
##진
##워
##명
##르
비
##체
차
##공
있는
##ᆨ을
말
우
개
20
##세
##분
##히
없
##ᆷ이
##마
##었다
않
##된
때
구
국
##금
처
##개
##ᅳᆨ
##단
노
버
생
##안
##선
신
##차
##재
예
##당
연
##생
##내
발
피
##법
##경
##한다
##실
##역
안
원
방
##월
선
##교
따
통
추
##물
세
##음
및
또
##료
무
##방
그러
##력
만
##학
##록
##운
##ᅥᆷ
##호
##ᅧᆨ
##식
##오
동
##지만
##민
##하게
##항
##에게
##타
##었
##바
아니
##영
실
##통
##런
##에는
##ᅦ이
##른
##00
##들이
##건
더
문
현
##연
계
교
##각
##던
장
##속
같
##류
분
진
##적으로
성
영
요
##ᅮᆷ
것이
##설
에
확
결
##출
최
##난
##청
##적인
##까지
##양
감
대한
##모
재
##발
##해서
사라
치
##표
##급
강
적
불
특
스
##반
##부터
경우
한다
##ᅳᆷ
당
와
##련
##중
##권
##능
받
##혀
많
건
##후
들
매
##ᅳ로
##했
후
##작
##든
알
설
##키
위원
##하기
반
우리
##육
##울
단
##져
##라고
##술
##준
##심
##령
행
##면서
##직
##티
##ᇂ게
법
##본
배
##질
##ᆻ습니다
할
회
운
##종
하는
##합
라
##입
##별
##억
##번
##증
포
##루
##형
201
물
##천
##결
##피
##테
##품
##포
##격
##린
사업
##두
입
##께
증
드
##디
필
야
있습니다
남
때문
위해
두
##는데
##태
사람
따라
##매
##석
##프
본
##약
##도록
##험
직
##점
작
평
참
##토
학
출
##리고
10
못
##획
활
##더
19
##들은
##레
##하지
##책
역
##환
##립
규
##량
각
그런
##크
##복
산
올
외
금
명
##ᅥᆯ
함
호
##군
##하다
집
##으며
##임
지원
##함
##것
##님
생각
##라는
##았다
심
파
검
청
##들의
것으로
달
##감
지난
##론
사용
어ᄄ
변
통해
타
필요
##ᆫ다
종
판
##규
혀
##녀
##란
##노
제1
##외
목
같은
환
##족
##향
지금
앞
하고
코
##황
간
##달
양
로
새
##파
지역
##날
##등
초
##기를
##돼
며
##강
##판
##되는
##편
관련
##축
##남
열
것이다
임
좋
체
또는
업
이러
##에서는
것은
##근
투
##례
##입니다
##망
문제
살
잘
위한
서울
##절
##위원
이상
높
다른
한국
약
##들을
##에도
자신
##활
##택
들어
것을
밝
##씨
##목
##이나
가지
민
##추
때문에
협
총
너
##액
그래
##겨
질
하나
점
있어
##보다
취
함께
##사를
##송
머
##네
##배
##기도
표
12
맞
##현
채
##랑
##병
##습
농
##였다
운영
을
##대로
손
##된다
근
##거나
##변
##율
그리고
##찰
##리를
데
이런
##예
형
200
##집
가능
부분
##희
했다
교육
를
김
##카
##되어
##담
속
##기에
##코
##하면
##견
은
##지는
##하며
##자는
돌
편
##자가
제2
다음
##럼
##승
히
##쳐
밝혀
##률
뒤
군
없다
##사업
##광
##리는
발생
11
##초
리
는
##았
정도
번
##림
걸
사실
##온
복
##느
등을
광
이번
##합니다
##머
##장은
충
진행
아이
##너
또한
게
##셔
누
##성을
가장
관계
토
순
된다
##정을
준
##름
##해야
시작
완
애
항
만들
눈
식
##지를
##즈
##자의
현재
이후
연구
##투
##득
없는
##푸
##말
추진
말했다
사회
많은
##접
크
##애
여러
##겠습니다
창
날
했
##ᆸ니까
보고
카
##력을
느
계획
밝혔다
줄
있었다
대해
대상
이용
효
허
결과
시간
끄
##장을
절
관리
용
메
담
##ᆸ게
기업
내용
다시
프로
##언
음
##허
##는다
##존
모두
합
##될
##이고
대표
얼
##평
언
##독
면
관한
##극
##냐
될
##받
예산
상황
정부
이어
권
##협
##염
모든
하지만
독
##기관
##비스
##쟁
박
##처럼
향
따른
찾
어려
말ᄊ
##응
국가
##하였다
##시키
책
##ᆯ리
태
해당
승
##ᆫ터
시행
##락
##으면
##색
대해서
15
##ᆺ이
접
네
바라
##북
##째
##기가
##니까
그래서
##악
큰
디
##션
##성이
그것
패
온
다양
기술
전문
미국
삼
개발
많이
제공
그러나
##통령
30
##ᆻ고
##라도
##브
##졌다
어떠
확인
##ᅦᆫ
나타
돼
##위원회
어떤
대통령
등의
정보
뉴
##ᆯ이
##객
중요
##쪽
포함
백
있었
##됐다
##상을
##인이
##박
방법
라고
국민
##장이
있을
저희
##되고
세계
친
기준
##불
아니라
##끼
병
특히
##관리
##익
##검
##조제
##들에게
##겠
천
안전
새로
싶
##화를
갖
있고
좀
이렇게
그는
평가
쓰
##켜
환경
18
제3
##사가
그렇
##스트
북
경제
##의를
##겠다
있도록
사이
##기는
##학교
##늘
##사는
##시설
##ᅯᆯ
##층
##서는
규정
존
설명
이를
##하면서
다양한
##레이
##기업
##순
겨
##자를
넘
업무
죽
##죠
##원이
논
##츠
##으나
일반
지방
##어나
##교육
수도
##백
##범
##원을
범
##가는
행정
##융
참여
##인의
##랴
별
중국
##므로
##리가
끝
그런데
##길
볼
국내
일부
##막
##ᆻ던
이것
증가
##침
가지고
같이
어떻게
실시
되어
##ᆫ드
예정
이유
##이는
글
##ᆺ을
##없
철
##확
커
##때
##0년
모습
13
##플
되는
##이었다
설치
202
##스테
일본
14
##사의
##굴
##최
##써
개정
활용
16
문화
캐
시장
##음을
하여
잡
서비스
활동
##렸다
늘
100
##로나
##회의
그렇게
##채
이날
홍
##창
보면
##다는
이라고
##되었다
사건
사항
쉬
##에서도
##벌
티
이야
##원의
조사
##열
##ᆷ의
##칙
구성
측
##그래
학교
올해
계속
##원은
산업
##센터
상기
##케
##ᆯ라
추가
제가
결정
말씀
개선
나는
정책
않고
프
코로나
17
빠
적용
도시
##패
##취
받아
##탁
축
##앙
떠
나오
##ᆷ에
투자
특별
된
##균
##치를
경기도
자신의
폐
따르
##략
치료
##지고
합니다
플
먹
주시
기록
기자
뜨
필요한
##도를
##페
##시간
내가
확대
벌
첫
##19
상태
왜
트
급
당시
푸
이에
있으며
좋은
이미
##들과
##다고
동안
주요
이러한
직접
전체
어느
##착
시설
해서
귀
##메
위해서
21
##년도
강화
피해
없이
##주의
최근
##아가
마련
##er
##큼
##력이
답
##되었
폭
##어요
자료
##ᆺ한
사람이
갈
난
등이
브
##00만
##철
베
25
##커
테
지속
않은
바로
##시는
막
##살
있는데
엄
의미
##이며
경우에는
아무
새로운
효과
키
##이라
아닌
##징
법률
앞으로
처음
##식을
몇
등에
곳
##on
잠
##위를
##짜
##지가
경기
##릴
흐
이제
나가
##인을
##퍼
생산
위원님
##측
너무
##탄
##기로
꼬
만들어
힘
사랑
길
시민
이하
##인데
생활
##ᆻ는데
##욱
##회를
영향
기간
##ᆩ에
먼
육
지난해
기대
분야
신청
한편
있다는
느끼
학생
희
씨
##친
##하거나
인정
왕
##ᅥᆯ어
##효
레
##조의
보여
판단
##스러
물론
즉
이루
##팅
##제로
따르면
기본
그의
개인
싸
##산업
응
##다가
얻
##지역
##ᆻ을
휴
##이라고
##충
않는
과정
요구
##했던
발전
국제
유지
낮
여성
##기술
금융
##환경
##계획
극
혼
##부장
##시아
##엔
이해
그녀
않았다
프로그래
##밀
나와
##항에
분석
나타나
높은
이는
공동
##총
##베
##습니까
준비
##도가
있다고
자체
월
적극
##어서
##왕
선정
##도로
주민
다만
여기
기관
##찬
고려
기능
이라
##리에
전국
제4
##in
##시장
##답
판매
건강
발표
수준
##되지
##정보
부산
##물을
침
##이라는
##혼
오늘
돈
##시에
##ᆷ은
##봉
의견
22
알고
황
##안을
에서
50
대비
뿐
##명을
##로서
##농
놓
##명이
##지원
##수를
##인은
##ᆻ는
##드리
으로
##인지
최고
##곡
##흥
##죄
상당
##운데
이르
중심
##제를
알려
자기
##부분
하지
##하도록
##가지
24
##하여야
현장
코로나19
공공
것도
터
악
바ᄁ
개최
능
##주는
마음
##특
인간
보호
모르
있어서
##연구
최대
23
존재
##글
대구
무어
##금을
##개발
##상이
확보
##널
##000
보내
199
##하려
클
상대
둘
##계를
기존
##하겠다
##ᆨ스
울
역시
도우
후보
더욱
하면
##긴
우리가
얼마
##ᆯ로
##곳
##부를
역할
게이
대하여
##치는
찾아
##슨
먼저
경찰
해야
아직
##지에
선택
##단체
감사
되었다
의원
노력
방송
구축
##보고
봐
검토
##8년
가운데
지적
##수가
제출
##문화
일이
##ᆻ으며
지정
않는다
매우
가족
올라
탄
규모
공개
##점을
##손
조금
만나
까
따라서
##나라
##억원
##부는
##지도
##서를
골
성공
소비
얘
##했고
##5년
방문
각각
나ᄂ
품
##놓
##가를
##복지
##인다
미래
##랜드
##념
##럽
지급
것입니다
##시스
##수는
##같
##세요
인해
예방
중앙
말을
##품을
자연
##무원
위하여
##이가
변경
떨어
긴
풍
자동
##조제1
받은
의료
##9년
때문이다
##7년
결국
돌아
##동을
시스테
##선을
##잡
윤
고객
그러면
건설
##으로써
##십
의한
##스를
##일부터
##전에
헤
##혁
라는
오후
밀
수행
##사에
지나
삶
뭐
##블
비로
##없이
##로부터
##께서
들어가
##냥
##개월
대학
##했다고
##진다
##장님
혈
대부분
##관은
송
괴
중요한
##at
감염
블
공급
##소를
##6년
데이
해외
영화
29
없었다
##시켜
##정이
##페이
##탈
오는
되고
##ᅥᆷ프
어린
##마다
변화
성장
않았
##드는
목표
대응
##이트
##지요
000
제품
##ᆻ지만
자유
##스로
##아요
##an
##심을
꾸
얼굴
##도의
##2년
##대를
오래
##전히
조례
조성
정치
##상의
콘
28
해결
장애
##었던
##한다고
##새
##리아
##들도
크게
경쟁
##or
##문을
##폭
사고
감소
##정책
##사회
깨
##명의
##람
26
주장
##1년
##혈
관광
##도는
피고
질의
##동안
##머니
혹
바이
이루어
않을
처리
팔
대상으로
##촌
##정한
정말
제작
##씩
당신
##장의
그리
27
예상
##든지
어디
##원에
우선
##권을
##더라도
##마트
말이
##안전
거래
핵
예정이다
서로
조직
방식
풀
##자료
##러스
##자치
되었
##지의
강조
착
징
##일까지
##4년
##숙
문제가
웃
##으로서
외국
##돌
혁
수가
인터
신고
정신
##과의
석
##ᆸ을
집행
있으
내려
가격
31
교통
맡
40
바랍니다
즐
##자인
제외
대해서는
##덕
기반
##전을
부족
위치
구조
##감을
시험
##훈
##각을
봉
검사
##링
뉴시스
제5
뛰
상승
격
##가가
##3년
충분
집중
##en
##칭
##적이
협력
붙
##기간
##뿐
활성
전에
같다
##찌
##걸
제주
한번
##부의
##수의
##로는
듯
배우
의해
반영
##ᆷ직
##느냐
만큼
찌
암
현대
##왔다
##올
누구
##뢰
답변
##흐
##ar
몰
앞서
경영
##룹
마지
믿
헌
##귀
##기의
거의
##줄
듣
##부에
##자와
전남
표현
##약을
압
일을
lt
##자로
조선
##자에게
##밖에
##조사
규정에
##음이
##즌
##벽
##아서
##볼
##트를
우리는
##도시
사무
비교
##려고
##한다는
요청
인천
종합
##소년
홍보
##다면
##너지
공간
gt
받고
##폰
탈
우수
##인가
성과
##비를
정확
감독
제한
##국장
있게
##조제1항
공격
##풍
노동
갑
##하다고
##텐
관계자는
##업을
나서
##촉
하겠습니다
위반
깊
##갈
##라인
홈
##스는
발견
마지막
비용
됩니다
##al
등으로
형태
계약
##은행
계획이다
때는
광주
12월
##폐
보다
사례
여러분
담당
3월
보건
사람들이
친구
##성과
주변
##하시
영향을
번째
6월
나온
##봐
제시
##턴
짜
전망
##슬
##사와
##먼
##부가
좋아
아니다
##린다
##세를
민간
스타
이야기
니
##틀
##대의
잔
##위원장
##험을
주로
사진
##탕
말쓰
보이
이름
민주
##임을
삼성
##압
등록
데이터
러
수출
##위에
북한
있지만
##라이
납
##암
##대에
##으로는
선거
하루
사업을
##칠
회의
이전
##관이
가까
녹
아래
써
##어야
##심이
소속
사람은
1년
##격을
방향
자리
있던
제1항
등장
평균
연결
9월
##필
##역을
##하자
##뜨
맞ᄎ
##척
##물이
##스의
읽
주택
##웨
컨
##시험
도입
##사항
견
건축
##하는데
청년
중소
참석
##헌
##릭
업체
웨
7월
##상에
페
##경제
모습을
도로
4월
흔
이라며
언제
단계
##완
글로
##골
##원에서
절차
##의회
10월
퇴
현실
설립
하며
5월
이ᄅ
염
아주
수립
##스터
보인다
확진
##끄
라며
통합
##국의
통한
오전
이동
##님이
마치
촉
##량을
나라
##관계
##거리
스마트
뇌
##조에
##es
##쉬
의사
##클
##르는
##점이
##공사
않아
역할을
##벤
행복
그대로
쪽
##하셔
1월
##무를
드리
##장에
##핑
##어가
##금이
위험
과거
##ic
##스크
전문가
좌
행사
주시기
구체
##만원
##이를
##정에
뜻
자신이
저는
숙
기획
##장에서
##자에
##자리
끌
있기
아버
궁
##거든
##움
##물의
##어난
##개를
정하는
##참
가능한
제6
혁신
이게
때에는
제대로
공무원
##별로
갖고
다르
이와
인사
고용
파악
퍼
우려
##교통
알아
드러
신규
안정
##한테
사회적
그냥
최초
빨
##구를
직원
사망
##ᆸ고
순간
대신
됐다
제조
작은
##스가
국회
##슈
##주택
바다
##자들이
8월
스스로
그때
##잖
죄
실제
소유
글로벌
##ᆯ러
목적
전기
잘모
11월
##이었
루
##털
달리
매출
과학
##증을
영업
##생활
그다
그가
슬
##성에
판결
자동차
##됩니다
##업체
운동
무엇
살아
##건을
넣
하는데
저희가
##동산
##으니
##했습니다
##획을
가진
정도로
서울시
뉴스
60
움직
##센
##넷
단체
작품
##ᆨ트
##고를
구매
기타
생각을
가져
##기준
##혜
##치가
프로그램
##음에
소방
훈
펼
동시에
되면
주는
##하던
##궁
인한
무슨
몸
다음과
##디어
##구하고
곧
불가
수요
중에
논의
공유
어려운
거쳐
그것은
##하지만
망
##이기
책임
##들에
여행
##움을
##오는
##욕
##ᆻ음
##단을
##뉴
근로
작성
차지
내용을
일어나
##델
밖
해도
부모
##혹
게임
농업
제안
만든
선수
제도
못한
활성화
##쿠
##개의
최종
##에서의
마을
가스
##it
워
하였다
없어
##ᆯ레
##통신
##되며
검찰
##지로
역사
행위
##대한
전자
두고
##옥
사실을
분명
청소년
수입
##꼬
##텐츠
##대가
효율
받았다
각종
##ᆸ다
##휘
##투자
받을
##으로부터
##상은
부담
브랜드
##평가
##관을
전환
위해서는
꼭
아마
##하고자
확산
##회가
##빠
##리의
앉
땅
##거래
청구
##냈다
참가
시간이
##붙
##맹
경험
##좌
중심으로
##령으로
시즌
얘기
휘
우리나라
198
동일
조정
비스
팀
빈
##있는
##라면
행동
최소
있음
특징
##펴
비해
한다는
회사
##제가
의하여
출연
##와의
플래
##지지
전달
##스타
##드를
전략
##팀
생각이
형성
낙
##행정
2월
소개
##리지
대한민
소재
내년
쉽게
##했지만
##하신
국토
억
##하기로
##등학교
상품
##보다는
지도
##내는
있지
자세
말씀을
빼
##서비스
기억
##거든요
전혀
달라
반응
과정에서
묻
이것은
벗
현지
재판
향후
이내
##누
##원으로
체결
##꺼
도움이
기초
목소
보는
불구하고
##식이
겪
##했을
##껴
원을
##중에
년
재산
##함으로써
그러니까
3년
금액
아파
협의
꺼
해당하는
##드시
##퇴
##듯
차량
핵심
것에
##예요
##시키는
질문
##대표
살펴
##휴
말한다
제7
##분을
되지
재정
수는
하기
그것을
부동산
##안에
##히려
##쳤다
대체
설명했다
##하다는
상당히
그동안
더불
얼마나
##바이
엔
##만큼
##육을
##어도
##었고
술
그럼
유럽
##회는
##규모
전통
심사
##ᆻ으나
슈
보유
##시오
덕
예술
현황
실제로
팬
지하
예를
##ᆼ이
##함을
##st
근거
대책
오히려
숨
못하고
관련된
점검
공연
경우가
정보를
주식
##활동
연계
##보는
없고
##춘
열린
작업
특정
##사무
##비가
제기
더불어
국민의
##20
지원을
쏘
##줘
빛
대전
##괴
##일에
부분에
반드시
일단
사유
가는
##ou
고민
정상
장관
##료를
##주시
마찬
문제를
중소기업
적절
##도에
인증
색
좋게
##보호
##납
확정
장기
##더니
희망
받는
##ac
##50
회복
##씨는
##le
2년
영상
이뤄
##되면
어린이
##딩
전시
이상의
##꾸
잘못
모양
보험
잃
복지
##정의
시간을
참고
시스템
기다
단순
칼
찬
출시
##하기도
아까
##ion
당연
##대상
범위
결혼
이야기를
##ᆻ어요
가능성이
아니고
익
혹은
부정
흥
##나는
##자들은
##캐
결과를
라이
이사
필요가
##흡
해양
##힌
음악
##체를
사전
원고
##일을
그림
반면
##쇄
설계
어머니
##법을
마찬가지
밖에
배출
곡
##괄
##만이
##얼
전쟁
##자들의
##렴
느껴
##행위
쇼
만약
흘
##과학
##는지
하다
##했으며
지방자치
사람을
##사로
신경
##르게
##ᆼ장
##튼
##장과
에너지
이라는
70
중인
##어를
##었습니다
엄마
##회에
##량이
섬
##싸
공정
체험
이행
기여
혜
조치
##리로
##성은
선고
○위원장
##품이
##지털
##특별
의견을
##낸
공식
의무
##ᆺ포
싶은
##단계
걱
독립
보통
##보험
구분
00
##같이
##인트
사람의
것처럼
옆
전했다
분위
##가의
##겼다
욕
##조제2
##주고
##짝
##인과
인식
바뀌
옥
없을
없습니다
창업
수익
덤프
진단
쿠
스트
정당
자치
마음을
2020년
내부
근무
##로운
##실을
##소가
##에요
##30
제8
노래
##소에
##ᅦ이션
힘들
여기에
부분이
2차
##쩌
뉴스1
설정
선생
일으
##받은
안에
##르고
출신
액
강조했다
꽃
것이라고
프랑
아름
유통
##이자
대법
지켜
공부
##이드
##과는
가입
언급
대한민국
##적을
##문제
전부
th
영국
않다
충분히
그다음에
저희들이
주고
딸
##정부
##학생
음식
##자원
경우에
##수록
표시
##보면
##권의
접근
냉
##10
##회사
사람들은
하면서
체계
##끌
##만을
##닝
불러
비율
선보
발굴
##성의
유치
##라마
범죄
디지털
힘을
끼
넓
##페이지
굉장
##구가
##우는
##하겠습니다
##예산
##웠다
비롯
##삼
##구의
보조
##회에서
##대는
##화가
서비스를
자주
공사
##릭터
나타났다
##먹
지키
훈련
##빛
##했다는
불법
##기와
대로
##대학교
흡
멀
##자체
##른다
35
##적이고
하락
온라인
습
전반
##픽
가정
##즘
##대책
활동을
##스티
##식품
##려는
##익을
콘텐츠
##험이
##쇼
쓸
컴
취득
##분이
높아
독일
##서에
조합
바탕
삭
##제는
적이
방안
특수
통과
한다고
수사
만에
러시아
##텔
나누
##시고
유명
꿈
여자
건물
자격
거기
캐릭터
덧
##과장
##담을
하게
##운동
##디오
##웃
수밖에
국립
##물질
##소득
##진흥
여전히
시작했다
넘어
균
캠
##구역
##인으로
첨
탐
##튜
80
##따
##그룹
겁니다
달러
##했는데
##감이
1일
모델
##단의
속에서
##대비
통해서
완료
##지와
제2항
거기에
인터넷
머리
##치고
끊
나를
비판
관하여
공모
옮
##정은
##ed
##처리
##ᅦ이스
명의
##프트
##ct
자신을
본격
##나무
##본부
그게
하나의
임대
손을
##톤
것과
소득
##분의
나머
일자리
재미
면서
수상
밤
주인
##ᆰ은
묘
##만의
아파트
##전자
굉장히
소통
인도
편성
##명으로
금지
남아
보였다
##ᅪᆯ
1만
택
진출
##쓰
##장으로
언론
지속적으로
##행을
##알
항상
sk
##네요
시청
##겠다는
##잖아요
강력
아동
대형
떠나
우리의
##벼
부분은
5년
측면
규제
##엄
반대
헌법
분류
젊
혐의
신뢰
##간의
##기관의
##ing
위에
보니까
##픈
자가
뽀
##리즈
##대학
전년
원칙
점을
##반기
재난
이끌
##일이
36
오른
자는
다니
lg
있어요
능력
##개정
취업
이때
##쁘
##신을
##상으로
##씬
##시가
식품
완화
##몬
##호의
센터
추천
있으면
지지
장애인
만족
빌
아니면
##ᅪᆯ영
기념
선발
##콘
많다
##겠지만
졸
사이에
돈을
하늘
프로제
##시스테
##스러운
##맥
플랫포
197
##ᆻ기
##에게는
조건
매년
있었던
그것이
소리
##자기
##계약
##석을
2018년
##관의
실질
제거
쌓
##킹
솔
틀
##사고
##ᆸ지
플레이
부과
관심을
##님의
동의
##벨
토지
측정
##bs
놀라
지자체
##선거
##되면서
부여
똑
신설
완전히
##et
##금융
시절
지금까지
2015년
##란다
변호
##분에
##산물
##하였고
합의
##짓
##렌
##민주
##ro
나무
왔다
마이
항공
상담
일정
##나가
외부
했습니다
심각
##주를
돌아가
하셔
보니
2017년
못하는
원래
자료를
지식
불편
##프로
광고
안내
종류
##없는
기재
은행
1차
보이는
##분기
##수도
방역
상호
맥
만드는
##계의
2016년
투입
제9
##트로
##제의
정부는
문제는
정비
앞에
##방법
##아야
##전의
이거
보도
##고요
했는데
달성
혼자
불안
인생
##수로
이것이
##끔
##달러
##으므로
2019년
던
사용하는
신속
##화된
덧붙
##ᆷ버
##빈
주거
##명은
몸을
##킬
계획을
인력
아름다
##조합
##멸
##ᆭ은
##조를
##세가
약속
##같은
엄청
##이어
생기
전투
가치
의원은
##두고
##시킬
기준으로
내지
대출
##목을
##건설
나의
늦
없다는
예비
##해도
채용
호의
배치
##어들
수술
##포츠
증거
##진을
부탁
##재산
마케
향상
둔
약물
끝나
방법을
##해를
있는지
융
확실
##권이
밑
입장
in
co
후에
32
지방자치단체
유사
##ᆺ데
쳐
##시를
수용
나오는
##인에
주의
##기획
육성
##섯
진짜
##스럽게
소송
강원
눈을
초기
시도
##맨
##금의
##el
취소
그래도
찍
비롯한
연속
##었는데
낮은
##부와
그를
##단이
없다고
지난달
##풀
프리
특허
##쯤
대답
중에서
##세대
대통령령으로
##덤프
##호를
관심
##하려는
정의
속에
못했다
흑
##퓨
##뷰
##마는
##is
레이
##하였습니다
##되기
디자인
##단은
##ay
##체의
공포
의결
##차를
##으면서
대중
##구나
전화
예산을
##위는
등은
있다면
가능하다
##어진
경남
사용할
이벤
필요하다
##종의
##랙
거예요
##춰
훨
바탕으로
##있
##am
##서의
아울
창출
직업
##군의
허용
철저
토론
발생할
학습
##ᆻ다고
길이
##관광
표준
정리
교수
거주
특별한
경우는
사는
탑
33
가서
질병
에이
짓
##re
직무
##조제2항
##병원
생태
보장
그룹
10년
500
으
지구
굳
훨씬
무료
##워크
맞는
부분을
##체가
상황을
##조정
중이다
심의
##내고
실패
섭
##리스
##나요
##하였으며
##협력
벤
이유는
불과
인물
##as
000만
도움을
tv
롯데
##까지는
통신
##준다
생략
##킨
촬영
##한다면
듣고
뒷
##소의
##실장
1억
##드리겠습니다
아울러
34
##면을
##주가
##이지
##질을
있어야
##닥
##형을
196
말씀드
아침
##비는
빠져
질환
##류를
##12
외국인
##계가
적극적으로
추정
쓴
받았
방지
자본
짧
괘
마음이
##뮤
##곤
않으면
남자
산림
3일
##겠다고
##데이
당사
미리
그들은
##몰
자산
노력을
카드
법령
정부의
지역의
상황에서
친환경
##간에
##이지만
##점에서
구입
잠시
임시
해석
래
절대
##든가
작년
일반적으로
이곳
빨리
##경을
나머지
객
그녀는
기회를
실천
기능을
##전문
노인
##조차
허가
민주당
뚜
마무
들어서
##듯이
샤
##지사
자원
케이
2014년
정부가
##홀
권한
전해
당부
##잔
부문
발생한
환자
##경기
##프라
##어로
##만으로
남편
고통
대표는
##경찰
같습니다
##이익
##컬
아프
그녀의
##함이
긍
##계에
젊은
생각해
체육
거리
여기서
##용을
##ᆻ다는
본다
##등록
90
##소는
##인증
최선을
단위
내에
지니
반복
스토
말고
완성
울산
중단
##뿐만
되는데
##세기
##ᆫ차
간단
##묘
계시
##시키고
긴급
정기
이번에
제일
벽
##싱
고개를
들고
계산
사항을
##률이
동물
않도록
이름을
곤
포함한
확인할
세부
평화
##까요
바란다
발행
걱정
향해
##섭
놀
45
##하실
옛
다음은
##광역
##구는
##깨
좋다
원하는
it
##쁜
2000
타이
##인에게
굴
3개
갑자기
일상
ai
이들은
##되어야
##심히
이다
##법에
아시아
##청은
##컨
성격
##리카
##액을
군사
수고
프로젝트
사항은
앞으로도
##과정
뿌
곳이
연장
수정
##홍
방안을
자녀
##운드
드라마
##군은
논란
##회계
차례
타고
##렬
맞춰
외교
발생하는
이것을
까지
가르
누가
도와
##체육
방식으로
##장애
비중
프랑스
놓고
##단에
##ᆨ시
##선이
##로를
불가능
위탁
나이
##니스
걸쳐
##둔
시대
채권
##화에
##가족
유일
뭔
##값
덧붙였다
제10
획
##크로
##금은
##도와
차이가
발언
개별
명령
접수
내용은
##려면
##리와
늘어나
##놓고
힘이
목적으로
##검사
##액은
영역
업무를
올려
다가
국회의
##번째
운용
제1항에
것이었다
나왔다
개의
장비
실현
##학을
유형
##원과
##구에
주인공
##ᆻ으면
잊
맺
맞춤
그러한
나아가
##결과
갖추
##우고
달려
내용이
##였던
미국의
보수
##리한
##리기
st
전라
일은
둘러
이들
##위가
조치를
그에
예측
효과를
바꾸
적절한
딱
##어져
38
차별
인근
나갈
##트는
##발전
겸
단지
그들의
##액이
##리그
대기
했던
##윤
심리
떠오
신체
눈에
싫
자율
법인
제공하는
인공
전용
공무
##ec
회원
아내
국방
##당한
취약
##학적
백신
##분야
이유로
코스
싱
##심의
##갑
##룡
##들로
신용
양성
##점으로
##ad
5일
즐거
초과
일부를
37
컴퓨
교육을
지금은
##문이
##서가
여름
##함에
이로
##니터
##움이
##ol
인상
기울
품질
##율이
10일
##실에서
##보건
##엘
##신청
케
이외
주목
긍정
##id
상황이
해소
##기고
##재를
30일
보상
강한
##면에
마케팅
전날
비슷한
시리즈
경과
사실상
##웅
##바일
##지방
##bc
도민
자리를
쪼
수집
두려
접촉
것이고
든
소관
##트워크
편의
##됨
참조
화장
##마을
않습니다
300
바이러스
잇
##ᆨ이
접종
##선의
##0만
##씨가
지배
##안이
기록했다
자체가
검사를
모집
인수
##었지만
과정을
##점에
대통령은
##본부장
주관
겨울
뒤에
앞에서
등과
동료
몰라
방침
##부장관
효과가
##ig
의심
노출
피부
맛
비상
승인
##임이
##ap
사태
##ᆸ은
##구조
매일
혜택
##증권
했지만
##니아
##스와
보급
##연합
최고의
##간다
##정으로
열심히
거부
7일
##록을
투표
##서관
2008
대법원
##빙
통계
##제품
나온다
2013년
##전이
그러면서
소비자
##군이
##호에
바에
집단
기술을
줘
##가에
##학과
##시의
##체계
##낼
##조건
##방송
빅
하더라도
졸업
장소
멤버
##수산
##ot
적합
오랜
받지
조절
종사
깊은
말에
15일
##륙
최신
##인들이
##사업을
마무리
원이
사업에
##둥
명확
십
기업의
##릉
the
펼쳐
아무리
뿐만
##지게
결합
남북
연기
##하라
평생
모바일
보완
방법으로
생명
##감사
멈
스페
전북
##샤
의혹
병원
##었을
수원
처음으로
통일
길을
##il
##11
확장
책을
명이
거야
최초로
##롭게
##노동
폐기
위원회
20일
##공원
##이란
물질
꾸준
##위의
사실은
##항의
가득
실행
##제도
화재
시행령
척
그렇지
5개
##제에
##운영
웹
##제한
##지면
많아
여부를
##안은
##플레이
##ent
모니터
삶의
때까지
##치지
대화
##았던
맞아
당해
##맞
##이의
##라우
종교
도착
고양
##스에
2일
그린
플랫폼
말하는
쓰는
정확한
##뇨
쥐
어찌
##0년대
##량은
민족
대부분의
만한
##지기
잡아
경우도
컴퓨터
프로그램을
도내
이란
법무
2012년
유니
##해진
분리
널
관심이
##해주
##켓
##조치
극복
##당이
분양
감정
주차
누군
##죽
##에선
##스토
##하려고
관할
그럴
우승
##드립니다
당초
광역
벗어나
농촌
##대회
##하나
유발
4일
##증이
이익
내에서
##ᆯ링
2개
대회
##해져
국정
##담당
예산이
##카드
알게
##지어
걷
##1조
갈등
보기
##트가
##상공
사업이
##셔서
##소송
다소
구속
##법이
빠르게
##녕
메이
도전
출발
들었다
있으나
생각합니다
종료
세워
강남
세종
2013
##국은
##점은
##비용
##번호
스트레
##직을
채무
##테이
39
14일
있으므로
여부
##림픽
##돈
삶을
아니한
태양
##리며
개인정보
##율을
형사
당연히
들여
##십시오
스포츠
1인
인구
점이
이래
빠른
##가스
##국이
##받는
지역에
##다니
운전
##ᅥᆫ드
구청
점점
##이면
상대로
4개
##조의2
즉시
점에서
실적
##쪽에
요즘
주문
이의
맨
구체적인
떨
특성
생겨
##제1
적은
시범
##의료
호흡
혈액
것인지
수도권
##어버
##둘
하이
아는
성능
뮤
쏟
오염
촉진
포기
끌어
피해를
##유의
외의
자금
간의
따로
손해
아닙니다
##리어
과연
관련해
제정
##락을
알려져
흘러
어렵
작용
##히는
부르
대단
평가를
##광역시
##절차
모습이
교육청
경북
연간
위로
항목
##럼프
응답
시기
에게
##으니까
48
##보자
##ᆸ이
##트의
##보를
숲
##남도
시각
##2조
아쉬
합리
홈페이지
정도의
##진이
생각한다
##많은
##ia
28일
##협회
##력은
비롯해
스마트폰
화학
기후
시정
중간
고정
##만한
##세계
##령이
대리
##지면서
##식으로
##갔다
필수
##듬
##있다
값
##받고
##훈련
입을
발달
아닌가
2010년
##상황
증상이
##3조
건립
물리
##하셨습니다
권리
어째
있습니까
포인트
##주민
궁금
##표를
미세
하자
##꽃
##가능
조기
##께서는
입니다
##론을
42
혹시
장관은
되겠습니다
대규모
##하니
##ᆻ는지
청와
##하시는
집에
##업무
세포
규칙
사람들
뽑
##보았다
##ation
섭취
##버스
##티브
##등급
원내
흔들
통하여
21일
##문에
##시스템
44
##녁
##자산
8일
##ns
43
##고는
소외
세상
이탈
##수에
인간의
##방을
쌍
때마다
비밀
##칼
주도
국무
사업은
25일
트럼프
무려
와서
##중한
##위로
반도
무역
##스코
침해
##드러
##력과
27일
상황에
##ᆼ한
부서
이하의
보관
수많은
##ᅢᆼ크
안에서
##주로
배경
하시
##팔
##연구원
최저
성과를
##션을
보건복지
##님을
##만에
##듀
연출
말이다
##담이
194
실험
그렇다면
##경영
유기
##말로
대통령이
##핵
물어
##단지
것이라는
유전
그걸
23일
컬
24일
22일
##향을
자랑
##컵
26일
가까운
지출
##개선
직장
##em
월드
완벽
소설
네트워크
메시
55
##쪽으로
##부에서
마찬가지로
선언
##명에
65
맞춤형
##위원회의
##적으로는
저장
강력한
##틴
##이사
곳에
수수
거짓
##문의
괜차
16일
##ᆷ으로
##토록
##공무원
모르는
사장
채널
나중에
칭
삭제
이유가
##랄
규모의
##공간
동일한
195
6일
6개월
kt
된다고
있었습니다
할인
글을
18일
위협
전개
상처
##했으나
11일
##물에
17일
52
처벌
된다는
작가
##물로
날부터
##우스
##률을
위치한
먹고
소요
해주
##당은
아름다운
##oc
12일
그건
##량의
공직
##부터는
환자의
낭
추가로
앉아
덜
13일
텐
75
##법인
##nd
하천
공감
높이
##4조
보여주
##중앙
관찰
누구나
면역
##키는
##지에서
실무
##신고
대변
나도
중요합니다
챙
##화의
##큐
##질환
이건
세입
사람들의
가벼
원인
##학년
있음을
처분
돌려
않습니까
##6조
바이오
##김
가로
##헤
제품을
##웨어
꽤
아닐
알려졌다
호텔
언어
기계
생각하는
얼굴을
옷
##조제3
29일
보안
사상
##신이
##되었고
않게
증명
회계
##약품
인터뷰
답변을
19일
당선
##부모
##실에
##언론
##건이
리더
훌
무기
##km
조사를
##생을
9일
교류
때도
##최신
증상을
의회
마스크
책임을
##15
의식
2014
##리오
있었고
고마
쓰고
##om
저도
증상
경상
추경
재배
임명
형태로
파괴
##솔
출입
열고
##율은
2011년
뜻을
페이
교체
##전한
##력의
명칭
2015
영어
서류
##했음
복합
회장
##비로
한국의
부처
벼
##랜
저녁
수질
2016
모여
##법은
앞두고
##예술
우주
등에서
##7조
지원하는
##당을
이른
##개소
아들
감안
##콩
가치를
##작을
맹
보존
시군
용역
네이
그려
납부
협약
##난다
##봇
때에
받아들
주장했다
생각하고
46
류
만들고
한정
##메라
커피
##하였음
흉
보이고
미술
아니었다
운영하는
인프라
맞추
##전에서
##받아
인기
부칙
후반
차단
##건의
##터를
인권
##허가
##재단
장면
휴대
2018
어려움을
##항공
##cm
##기구
선박
남은
입주
남성
능력을
##심사
보이지
명예
앨
##심판
##규칙
요소
##상품
했고
##비의
##길을
제고
나선
##보니
외에
##드로
그저
건의
구간
대해서도
의하면
안타
47
밝히
유도
사과
아버지
##겠습니까
##건강
##자동
##공단
상관
##률은
2011
##깐
##받을
관계를
그거
1회
입장을
싶다
##찍
##공감
진입
기사
##년도에
##us
소리를
2만
##5조
적극적인
##위원회는
##라든지
혐
못할
공공기관
##친다
무시
기부
상징
49
##실이
방침이다
하나에
##os
사실이
1명
변화를
약간
재활
그만
새롭게
띄
##세의
일시
인지
버스
##ᆼ크
지적했다
##iv
이용한
세월
##시다
차원에서
심각한
제2조
##요일
식으로
##와는
##관에
##8조
숫
문을
관련해서
위원장
어떠한
##아이
2021년
##치료
복잡
탁
다이
##짐
##40
자세한
지휘
##물은
드리겠습니다
2020
영양
진술
충북
카페
입법
##13
##하겠다는
##칸
사업의
무엇이
민원
##았고
##책을
벌어
##일까
##식에
##서울
##바이러스
징역
##칙을
수업
엄청난
통보
분명히
그들이
짐
##드의
##읍
개방
아닙니까
춘
말은
##드가
엘
##산을
소프트
보아
센
애플
이내에
따뜨
취급
수급
##혁신
혐의로
##케이
##보증
감염병
제3항
방법은
##뷔
모니터링
##나마
디자
국토교통
떨어져
of
##차가
원활
유튜
무엇보다
##시대
끝에
이용해
옳
힘든
##지구
심지어
단속
정한다
장치
쌀
##억원을
최대한
보증
##식의
몽
개편
##하세요
베이
##활동을
운행
상대방
##이라면
경험을
##껏
##od
게다가
묵
이제는
가까이
준수
필요하다고
##화로
의해서
아이디어
전파
알레
제외한
차이
이용하여
비록
억제
##는가
나올
평소
##되었으며
##덤
뉴욕
확충
##베이
고위
##셜
우려가
##논
모두가
깔
생존
자리에
존경
갔다
##낙
위기
초반
시는
##공을
기금
방법이
어깨
듯한
##데이트
반도체
비슷
##당의
왼
다운
둘째
받아야
##기기
살고
##진은
더불어민주
유입
##연을
규정을
##ᆷ과
##해양
##적이다
얘기를
현지시간
있었는데
폐지
##면서도
이상으로
방어
인하여
2009
##침을
##세포
하나는
구현
적어도
만들기
기존의
##부로
검색
##아의
비즈
목표로
꼽
##식은
오픈
치료를
##하기를
2017
슈퍼
꾸준히
##대에서
##묵
의미를
##공개
##밍
공시
이벤트
착용
시행한다
마침
##ᆯ을
##공감언론
별로
아무런
경제적
대표적인
##리라
외에도
갖춘
##설팅
##권에
얻을
측은
##들어
##처분
유리
시작한
##14
방향으로
말해
정책을
비행
##다른
현행
서울특별
모아
그리스
어쩌
문제에
상상
##자금
##op
◎공감언론
위원장님
활용한
99
강제
부터
##이기도
변동
##듭
나눠
임금
사용하여
수고하셨습니다
##계획을
부족한
##9조
##어날
떼
##성장
자리에서
##가로
기회
##꾼
베트
결코
당신이
창조
네가
##카오
바닥
제1항의
어렵다
맛이
동반
물을
##청구
시스템을
##지며
마주
사법
블랙
이론
다루
개녀
오르
통상
지속적인
##인들의
쏟아
##롱
근본
##안의
##ᆻ어
##하다가
운영을
##화는
합병
##명한
##제와
##석이
찾는
##까지의
재무
##핀
선도
대통령의
##건축
주제로
업계
##mm
##향이
##80
충분한
##계층
##판을
##시면
하나로
칠
##님은
없었
##기능
##쾌
가공
저작
##화와
균형
##해가
잡고
지상
소상공
##종합
멋
##미를
4년
##ᆷ이나
증권
##효과
올리
에는
56
생물
협조
##력에
##사에서
검증
뜨거
생성
고등학교
##ᆺ은
매입
밖의
##치게
되기
선임
운영하고
데뷔
금년
앱
##직원
##주년
##종을
매매
##했기
지표
##군을
결과가
##국에
##망을
2019
하니
나름
같아요
전망이다
뛰어
인재
##첨
상당한
연합
추진하고
전면
##호가
##마저
받는다
##건에
간담
관리를
사람에게
##시킨
가고
##오염
머리를
마지막으로
파견
싶어
점차
위원이
##름을
비대
첫째
가을
파트
걸로
상임
##내용
##ᆻ든
양도
설명을
좋습니다
획득
업데이트
##자들을
거듭
도는
다행
##비에
마음에
어려워
##뮤니
방사
##항을
일본의
득
pc
발급
2007
다녀
##16
분노
##성도
운영에
가구
##상태
원의
손에
##농업
축구
열어
193
명시
이중
상고
왜냐
중요하다
멸
정규
공소
##력으로
징수
2008년
덕분에
##씨의
##아버
그렇죠
53
같았다
돕
주셔
##령을
캠페
##테크
먹는
선물
##자들에게
대처
들려
##실로
농림
이달
공익
풍부
희생
법적
##렀다
##체는
좋지
합동
봄
##ᆷ프
정한
채택
##라고요
베트남
##름이
2009년
있으니
같은데
낳
성립
##미터
72
거죠
##질의
높다
##지능
##에만
계약을
##류의
##시켰다
매각
좋아하는
95
##가고
절차를
##났다
것인가
##일정
##몽
##시로
시작으로
등급
사랑을
튀
##하므로
눈이
산정
##수와
진흥
사람들을
1조
제어
옮겨
##조사를
##ri
내게
##면으로
넘는
상대적으로
들어오
철도
덮
##이한
2억
노후
##쥐
기상
아예
것이며
횡
##가요
주신
들어와
구체적으로
##버전
느낄
구성된
이처럼
내놓
대상이
계속해서
통제
사람들에게
54
폭발
##ce
진료
셈
보고서
수소
##야말로
원내대표
##악을
##소에서
그렇습니다
##이니
검은
확진자
깊이
실내
태어나
##국을
중국의
역대
##성으로
##공부
교사
##천만
192
##작용
4차
sns
선포
문화재
역량
세출
지연
누적
실태
##ᅰ손
전문개정
응급
이메
갤러
물었다
상위
창의
상태에서
##ong
승리
대선
의미가
기반으로
##ow
##려서
그곳
이용할
아빠
##유를
2010
입고
총괄
어ᄍ
관련한
제목
개설
##번에
##톡
기업이
하도록
##ᆷ플
계열
임상
발전을
##싼
세상을
##앤
대사
소리가
회의를
쫓
무르
바꿔
안전한
##물관
브라
##검을
57
##봉사
말할
##해졌다
애니
##권은
한반
##ut
신문
##떠
##능력
##방향
##시민
쓰레
##제2
하겠다
준다
미치는
##18
마법
##기반
법정
##ul
우수한
##ᆷ새
기준을
##것도
상반기
##철도
##더라
카메라
##증의
##었다고
그렇지만
가능성을
건강한
탓
ch
쇼핑
신종
##if
##적의
##ch
##선은
어울
##대와
수치
##퀴
초등학교
별도로
##이용
소화
무엇을
매수
비정
##바로
관광객
연습
쪽으로
활발
##데이터
##자들
고속
깨끄
64
아이테
지역사회
##만은
훌류
다음에
무서
스위
##질이
##끄러
괜찮
ap
공통
연락
59
500만
다섯
정치적
아직도
질문을
서울특별시
kb
하반기
자극
위원장은
관람
연령
##릿
헬
예상된다
##뇌
##전은
탄소
##세에
몸이
고시
리그
미디어
심판
20년
발휘
행사를
##분석
##감독
의거
10시
촉구
그러므로
편집
##땅
주기
밥
군수
뛰어난
하여금
사회복지
##님께서
##일은
단독
대장
현재까지
일반적인
개혁
소년
선진
과도
##가락
미세먼
충족
관객
전력
패턴
본인
단순히
나섰다
위원님들
위원님께서
2012
근육
에서는
종목
전남도
사이의
현장에서
말씀하신
##누리
공장
걸어
##보기
62
잠깐
##에너지
##유가
플라
사전에
분들이
과태
##기지
너무나
국장님
입은
##연금
##억을
혼란
6개
엘리
원으로
가야
##앉
1000
##하겠다고
당장
멀리
##크라
쩜
트레
과학기술
아이가
컨설팅
재생
카카오
제12
여론
유튜브
고령
있겠
##전거
##리게
##사이
##재생
오늘날
##등의
상태를
##액의
녹색
줄어들
가게
커뮤니
왜냐하면
##급여
객관
##조직
##하면서도
봉사
##책임
적정
당신의
직후
이후에
집을
개념
가동
##엽
포함한다
##어는
##해요
가면
##로의
##파크
150
문의
이전에
기회가
##하의
시켜
##시와
추구
머물
결정을
모른다
물러
##결을
되었습니다
3차
##략을
짧은
##하려면
##하였
동기
물류
##진의
##여서
3개월
지역에서
##선에
수준의
타당
대기업
쾌
##장치
##낸다
##전략
##트리
##뚜
##집행
올랐다
교환
뒤로
가리
없도록
인공지능
경계
고려하여
과제
받게
조용
정보통신
죽은
즐길
연말
돈이
##명과
##협의회
85
##트에
##넘
그것도
##되도록
##뻐
##여성
포함하는
뭔가
않을까
쉽지
퇴직
준공
##im
법은
##관에서
해제
66
##호는
알겠습니다
소녀
제외하고
언제나
떨어진
사진을
담배
자문
400
얻어
초청
1개
58
엉
교수는
절반
##가격
게시
##ag
관련하여
100만
빚
홀
콜
한다면
부품
행위를
준용
그와
##학의
생긴
##자동차
일에
이탈리아
##17
이상을
##ᆺ째
##시설을
정착
##게임
##르기
것이라
비난
유명한
마감
##셨
##상과
놀이
##재정
##로서의
의원이
##쩍
없지만
작업을
결산
상장
열리는
연구개발
발표한
분쟁
나타날
##펜
##탑
했을
##상담
내고
실시간
##석은
예수
##마를
일이다
##증은
만들었다
스태
담은
##숨을
그녀가
녀
묶
골프
31일
더불어민주당
##000만
의뢰
방해
도모
국내외
아니냐
분야의
어두
##양의
##재판
아르
사건을
란
##발을
##금에
##되었습니다
취임
페이스
오프
##케이션
##공동
전주
당부했다
제공한다
##금으로
합격
##사업의
##교육청
조각
이익을
경우에도
행정사무
자꾸
##견을
하나가
비속
본부장
폴
조달
##룩
보고를
##컴
입찰
발표했다
활성화를
통화
미만
도망
##법의
편안
##실한
이유를
보충
이들이
최소한
활약
지시
어제
##닉
##사례
부지
벌써
한마
증가한
받아들이
##범죄
쓰러
하거나
정확하게
뿐이다
못한다
##소방
텐데
가상
개인의
##국제
시장은
발매
성남
파이
때가
##술을
금리
##우를
스타트
너희
주말
##되거나
트위
소멸
##ur
##일의
칸
사후
##집니다
강의
정확히
지하철
붉은
업종
서서
상태로
##민의
##폭력
##복을
##보며
깜
##사용
##추진
##동의
회사의
말씀이
분포
##체에
패션
많았다
행동을
##신의
이자
점유
데이터를
다르게
권고
학부모
사내
전담
ar
곁
최소화
##산화
문서
##공항
있을까
몬
에너
중심의
그에게
##수수
부인
##힘
##얀
말았다
비즈니스
가수
업무보고
원인이
유사한
없어서
충남
필요합니다
동생
주지
품목
3만
징계
##업자
법에
새벽
이메일
##사항을
상세
##로가
규정하고
그만큼
키워
번역
만난
잘못된
##이라도
주어
##추어
##그램
41
에스
입력
비속어
그렇다고
출범
결과에
##um
조심
초래
공기
분야에서
혜택을
원자
어쨌든
건조
##시설의
낼
질의하실
유해
테이
1위
후원
ip
맞이
안타까
등이다
사기
뻐
##의원
점은
##평균
그중
kbs
##앗
잠재
건너
경험이
감사합니다
대하여는
##형의
내는
증액
비교적
반응을
##혔다
##속에
크다
폐쇄
이름이
67
산출
할머니
그날
##원장
선생님
진행된다
##산의
##등을
변호사
옆에
##기록
##ip
섞
##우가
개정한다
63
지원할
출석
의사일정
시내
##류가
##시키기
가끔
##tv
분이
활용해
이루어져
제공하고
##방안
좋을
국회의원
곳에서
목표를
것들이
##였
철저히
낸
이끌어
쇠
##어의
유효
올라가
준비를
보며
만성
##콤
##0조
공고
제1조
선호
##시티
##부장관은
파트너
출판
씨는
앨범
이들의
##기까지
선배
2022년
##에이
##인들은
공원
단일
널리
일제
##심으로
##보조
프리미
##마자
51
##섬
정도가
##해보
감시
적응
결론
보지
저지
##ᆷ피
##럭
아시
비용을
작동
이상이
##기본
이걸
배터
화려
국가의
2007년
집계
##비아
가슴
##양을
##딜
그럼에도
크로
##세로
##사이트
일자
##협약
인용
지내
등도
아이들이
멘
담보
블록
##하에
이슈
보육
런
##소한
##점검
위임
현재의
재단
신청을
충격
수준으로
##셀
##보다도
##집을
활용할
연구를
##ab
풀어
##군요
신라
##현황
간에
연관
과세
시가
##놔
##식과
부담을
re
듯이
##주에
않아도
가맹
자전거
모색
거절
하여야
##경이
##교육을
올해는
솔직
##멘
시행일
현재는
##나게
##적용
경찰은
##문은
상생
##된다고
굳이
##덜
지역을
##관련
없애
##해서는
조례안
내리
##재난
경우를
올바
##더라고요
##받았다
빙
사업으로
##인력
##씨를
있었지만
##치의
##세는
영업이익
sp
당신은
첨단
않겠
##앞
못해
학생들이
120
네이버
##관과
##24
일부개정
성적
의견이
재료
붕
##25
시장의
임신
환경을
메뉴
흰
##화학
꿈을
개선을
로봇
로마
2021
##국민
##시피
##수한
절감
협업
문학
##모를
유저
능력이
나쁜
##로드
수록
대폭
고급
##면의
기소
충전
근처
알려진
##형이
여겨
테스트
상업
소환
물품
##사업에
##대행
주십
찾아가
실질적으로
동아
진정
강화를
진정한
##시행
##실의
대책을
젖
##았는데
축소
뼈
사용되는
맞게
투명
제13
관측
복귀
느낌이
저하
##ᆨ터
##연구소
##업계
사람도
##ir
곳은
##가지고
밖으로
운송
참여하는
##봄
인건
##조가
기분
들은
차가
철학
홍콩
변화가
##지자
a씨는
시상
최초의
융합
국비
층
교과
생활을
수리
##륜
##체험
투자를
##까지도
##끈
##언을
가격이
##방에
셀
유의
많고
상속
갖는
소독
무너
급여
있고요
시설을
스킬
청와대
##봤다
집에서
##미가
##산이
내린
##단으로
않으
1일부터
##르크
##동에
발의
식물
검토를
밟
고등
제도를
음식을
##cc
먹을
##연히
2000년
##공업
##덴
##첩
탄생
##함과
최우
##동이
도시계획
##란드
질문에
유일한
읍
보았다
바람직
##붕
위생
협의를
##대출
없게
유엔
고도
방향을
어른
옛날
##낭
68
일정한
에어
라인
##다란
참석한
포장
관계가
보일
구역
##젠
질의를
아프리카
세상에
승인을
부적
##나다
경쟁력
##눈
때부터
올림픽
완전
##자도
무거
심장
주소
##정과
의존
##됨에
##이라든지
유용
긴장
##니어
측면에서
##잖아
누리
이루어진
관리에
sh
3억
지원하고
공중
얻은
대화를
사용한
죽음
오랫
띠
##건으로
삼성전
아무것도
출전
이스
넓은
##닫
##조는
96
도서관
협력을
줄어
강원도
유행
까다
우울
소프트웨어
세대
뒤를
일치
말도
##관계를
말한
다수
##영상
선출
괴로
말로
예외
블루
남녀
농어
##개가
깨달
없기
for
하던
소장
##억원으로
닫
흔히
연주
클래
드립니다
회장은
지닌
되도록
97
격려
##청에
예고
자살
주주
##부처
바람
낮아
##가구
끊임
98
열었다
계기로
##데미
되었고
제약
추진할
보자
종이
2회
배달
자기가
피해자
정체
동네
##하되
제공할
##승을
끈
##잉
##재해
지원에
훼손
나에게
가치가
##오고
eu
9시
69
핀
존중
경고
##회장
주최
190
아이를
오랫동안
끝까지
행복한
쉬운
전세
후보는
##선으로
유출
페이스북
저렴
##하였으나
##국에서
연방
꺼내
##둬
다ᄅ
시공
내용의
##호로
##팩
자아
##학습
본래
사랑하는
##거리는
입학
84
나오고
##보장
이야기가
##이야
이웃
생각했다
수십
##지원센터
##루션
돌파
상환
##전쟁
이른바
감정을
##라운드
스타트업
소규모
74
수석
그러자
많습니다
운동을
때문입니다
높게
곤란
역량을
시간에
600
##힐
000원
##재로
##였고
##기만
##근로
##판매
30분
##콜
드로
호소
어쩔
겨우
북부
권리를
##점의
2005
10개
주력
##밀한
아끼
##생산
보전
익숙
한강
원심
않기
##넣
자신에게
##관으로
##ᇁ은
##위원회를
계상
설득
아무도
##청이
사이트
##워서
##놓은
10만
위에서
76
영혼
##말을
대표이사
##냐고
부장
위의
스티
자라
mbc
들어가는
거라고
##리면
##럴
후속
스피
일어난
##도에서
거대한
살펴보면
영원
찾을
##시즌
옵
나가는
참고로
##차는
시장이
죄송
분위기를
77
코로나바이러스
셈이다
해상
##셉
##종은
특징으로
겪고
##가와
##펙트
냄새
패배
정지
기쁘
반대로
같아
모데
음성
뭘
시기에
오직
2명
##하지는
##렁
옷을
늘어난
##한국
##경쟁
##격한
문제로
좌우
##문학
##협의
악화
##색을
결의
기원
##먼트
신분
종종
펴
보여주는
안심
##차례
대학생
존경하는
##종이
제2항에
전체적으로
불리는
##보가
바와
교회
형태의
홈페이
진행한다
뚫
올렸다
기본적으로
미래를
##정비
##연이
구글
##운용
무한
##라든가
##메이션
인기를
만일
서식
기대한다
분할
초대
단기
##영화
기대된다
가이드
벤처
감독은
##설을
작품을
빗
##파이
##ta
##un
하수
그녀를
재해
as
충청
끝난
월드컵
##서와
위험을
시장에
요양
##라우드
확인하고
##사랑
분야에
이같이
않지만
수여
생각할
불교
행정안전
조작
주었다
못하게
진행하고
논란이
새누리
봅니다
##밥
시선을
92
정원
제11
##았을
##ayong
제14
없었던
넣어
##절을
##로그
결과는
쟁
##시킨다
##ter
##하기에
거두
결제
심한
했다고
입증
고향
무조건
##조제3항
##결정
##th
감축
목소리를
발사
##여행
##축산
부드러
##븐
정당한
참여를
것들을
##졸
##실은
반환
담아
배제
출혈
##서로
참여한
드려
##온다
시장에서
들면
별도의
##해질
무효
비가
도달
대구시
현금
것인데
계획이
조금씩
##면적
특성을
위법
성장을
미사
따뜻한
상품을
##해지는
지금도
창작
확실히
멈추
체포
다르다
임차
##래도
예산안
##천시
믿고
위험이
토대로
폐기물
콩
교부
어디서
##mp
얼굴이
아우
도출
순으로
되어야
걸려
곳으로
안녕
##으시
천천
86
##생물
##순환
##놀이
축산
증가했다
94
댓
기간을
##으로서의
만들어진
##경은
##긋
스크
오빠
할지
##개혁
고구
##봐야
개발을
똑같은
##해지고
일으키
출산
al
본인이
몸에
내렸다
is
##하이
##소리
나타난
73
어르
##저히
시키
##당에
##깔
##리스트
지분
##통상
확립
무릎
들이
고발
시에
##군에
##금지
##소로
##테인
##수준
##ᆯ리티
연수
방식을
예약
2006년
##사인
넘어가
다수의
천연
중점
햇
##위원회가
주제
천천히
신축
등기
안보
둥
크리스
내외
일으켜
신한
##탁을
닿
실시하고
주십시오
##침이
##기관에
##범위
##장에게
##참여
좋겠다
연도
##조제1항에
수수료
면접
펀드
인사를
해양수산
##밭
장난
면제
순환
##예방
##타를
##히고
재활용
2022
감사를
성인
미안
과태료
수산
감염증
##팡
##국가
##룸
##부문
커다란
78
디스
감각
경기를
설문
##포인트
##리트
컬러
자연스럽게
의원님
##금리
##전으로
북한의
##ᆷ피언
210
공간을
피고인
현상
버려
##쿄
##비와
##개로
것만
아니지만
손으로
사이에서
도서
물건
학술
교육감
##통합
농가
내일
##수입
##되는데
부디
##홈
##행위를
본격적으로
추진해
##대리
정도는
예능
##에게도
청소
##체인
전후
처음에는
싸우
요인
기술이
근데
회전
수요가
나타내
##kg
특별히
##곳을
93
요구하는
사용자
개입
##법상
업무에
우크라
하나를
지금의
부상
임용
벨
미세먼지
상황이다
중복
환경부
##둑
돋
기운
적합한
펜
배려
목소리가
##ᆻ으니
바람에
입원
없어요
##레이드
훌륭한
지침
##달라
응시
사람과
도지사
##쇠
간접
있어서는
하나님의
용인
허위
무게
300만
개봉
봐야
뜻이
주시고
##경에
나타나는
공격을
적발
아카
미니
요리
파워
내용에
생각은
있죠
살아가
2시
수학
##여야
한화
기준에
##기한
허가를
##웨이
##북도
부당
마리
##패스
전기차
##선수
##체로
##펀드
후에는
배당
지어
마치고
르
##위원회에
제재
##방지
경력
쳐다
사용하고
##수사
04
제주도
체크
전공
영상을
##르몬
제15
##연한
며칠
시민의
담긴
자세히
맞지
평택
단순한
가지는
##ra
중장
축제
##역에
수영
go
필요할
관계자
하려고
보유한
넘겨
일환
모습으로
88
관여
##과장은
남겨
체납
사례가
편리
7개
시대에
선정된
##명령
시장을
공항
이틀
모르고
밝힌
크고
##구청
동부
##치로
자궁
##쓸
스타일
##통을
기능이
기자회
워크
##염이
공동으로
몰아
중학교
언니
##22
방문해
부채
##연의
바른
추진하는
고려해
잉
##목적
선별
##정도
명을
앙
제16
수준을
화가
그러다
제4항
가축
전원
이기
##미는
날아
마치겠습니다
호주
뻔
분위기
##달라고
고유
##ps
배포
족
##변화
동원
간호
05
수의
한마디
질의해
##이므로
pro
일도
계신
선제
들어간
##레스
여성의
느끼는
##메이
저희들
영웅
정신을
제조업
무언
삽
on
유동
면적
낯
사로
개시
##체계를
위반하여
식사
##스틱
석유
##진과
불가피
2005년
귀여
내세
사항에
근로자
그간
##수요
불이
##된다는
것인
드리고
예전
##자격
일주
##하라고
##람회
나누어
되며
un
없으면
##행사
물건을
만날
to
##아는
우리에게
##화하는
손해배
가질
이어서
##설명
금속
##무역
##표준
남부
입장에서
회수
달아
싫어
국장
마친
##빌
쓰레기
노선
말씀드리
##접종
안으로
안정적인
본격적인
유관
##동물
5만
##단과
독특
저항
첨부
지체
통지
법을
저소득
접속
##됐다고
전라남도
보유하고
말하고
자의
어린이집
데는
무리
##고가
사건이
우크라이나
화물
출생
속으로
유지하는
코로나19로
곳을
앤
79
##담당관
피의
알지
여야
고생
보면서
규모가
##70
and
진행할
마침내
부착
흡수
가만
##구로
##준비
긍정적인
1천
##온은
##하를
실질적인
눈빛
포함해
##eo
찰
##부담
2006
ad
사유가
제출한
응원
경비
교육과
##뜩
없으며
반사회
그나마
갖춰
격리
이용하는
손상
팽
소상공인
기도
##지역의
술을
추적
##지수
전화를
진행된
재능
대체로
그렇다
##녹
##소와
옹
##미나
드는
평범
##텍
그러니
계기가
사항이
칭찬
##서도
청주
유전자
웃음을
도덕
강하게
##마의
지원이
지원해
장착
○기획
시나
처음부터
원장
늘었다
아니하고
댓글
##유치
##규정
올바른
관련이
중의
##기금
##호선
정식
##ᆺ하게
오늘은
도쿄
집으로
장학
매달
가시
매장
##사들이
감면
##병을
인정하는
##흘
##독을
기간이
##투표
200만
여수
겁니까
es
##보전
챔피언
도지
단축
모자
##층의
##영은
##자료를
뮤지
끝내
##몇
병행
압박
영광
도심
털
별표
##계약을
시의
장은
승진
##매를
유지하고
##총리
##년간
시민들이
과장
공약
##즈를
마음으로
다하겠다
참여할
존재하는
단백
씻
역사를
##었으며
나름대로
늘어
검출
일방
명백
##득을
##확인
##위에서
의지를
이상입니다
것보다
su
##사건
##하더라도
들을
##부지
5억
##게요
아니라고
##하십니까
##pl
관세
상정
##ine
낫
대학교
##백만
협상
빼앗
##주기
##대체
때의
유인
금액을
09
아무래도
엠
학교에
일하는
뜨거운
애니메이션
기본적인
○도시
않는다는
##조제4
부진
관리하는
의료기관
클럽
89
부대
건데
택시
8개
겹
사업자
제17
시작된
이르는
그들을
##길이
##고자
독자
6시
보낸
엑스
##연은
이해할
기독
##대응
##심한
꼼
신선
말라
##나이
아마도
풍부한
특화
깨닫
가졌다
데려
정도를
포괄
태풍
가려
보건복지부
포함된
붙잡
01
셋째
##빨
피해가
의장
##조선
직전
위촉
속하는
나면
대단히
부분도
##점과
##에게서
대표가
주세요
함유
##멍
##구와
날이
묘사
차를
##키로
##에서부터
죽을
##색이
##쇼핑
작곡
##해왔다
살해
제2차
효율적인
어쩌면
합류
향한
##았지만
실시한
물이
곳곳
통증
유아
당황
특례
지방자치단체의
체중
03
관내
받으
스테
##재는
##신은
you
일종의
산불
##져서
제3조
캐나다
83
무관
##재가
##23
정밀
다를
않았던
##대전
##끼리
연료
봐도
이해를
##버린
드래
화면
##하기는
cj
현안
##화하고
kr
고대
서민
5g
내내
기각
들어갔다
흐름
사로잡
거지
박사
높이고
##ᆺ의
비율이
점에
ex
임원
지불
갤럭시
##하자면
있는가
씨가
내의
혐의를
느낌을
높이는
구제
##명이다
동해
확진자가
수렴
##줬다
##산에
할아버
돌아와
##청의
##기업의
##용으로
확보를
살인
치열
추진을
부활
회사가
지원한다
어려움이
##ᆫ스
##정치
##해주는
목적을
어려울
87
##성한
##브리
##감과
구성되어
전까지
##란히
부합
초등
06
##장비
##영향
수련
간부
한반도
##셨다
심사를
##주와
노사
##그러
##감한
한미
닮
해요
마땅
우리를
넘어서
파일
상향
확대를
분석을
그분
191
##화폐
전송
수면
##차피
문자
##ea
내년도
끊임없이
##악한
##절한
##초에
인간이
##무는
아라
1위를
개막
동작
흥미
범위를
맡은
신호
효과적인
놓은
검사는
중증
높여
제20
##들이다
이해가
무렵
국민의힘
상태가
##적용어
##했어요
##이에
반사회적용어
##다시
추석
재개
##프를
선사
구비
어차피
국고
기분이
강화하고
##치며
부담이
##행이
농산물
패키
##산은
##뚝
##들한테
없으므로
##교를
의도
##또
대외
야생
중에는
시대의
119
##해와
비중이
임의
없는데
건네
중대
올린
앞장
사례를
매력
원인을
웃음
데리고
커뮤니티
밀려
전략을
경쟁력을
놈
##라리
게임을
##해진다
탑재
pd
복수
##경의
인적
전부터
사이버
##본다
가난
이미지
##마가
##폴리
시민들의
비례
계획임
##과제
무사
위와
##계획의
##정지
##형으로
이렇
에피
이름으로
닦
듀
보인
이스라
2주
뻗
##바닥
곧바로
닭
자원봉사
##회의를
##ts
덩
##양이
##밖
백성
자발
라디오
본질
지역은
20대
반발
스토리
압도
##위원회에서
복원
증가하고
의미한다
축하
##박을
##짜리
중기
##트와
##릇
##되자
되겠
마스터
향상을
현장에
거는
##이었던
라이브
테러
피로
이르러
않았고
##느라
것이므로
충돌
갖추고
##디아
61
레벨
본부
부사
아니한다
##갖
모으
각각의
##었다는
##하기가
동남
끌고
연애
de
##이즈
○교육
##라서
##이던
전의
이사장
법률의
기관의
물가
공인
##힌다
##오를
지역주민
이번에는
활동에
자네
항만
##업에
농민
의지
인원
사회의
##품질
##ess
연구원은
##었어요
성실
2층
이혼
여의
##역의
복용
말까지
##쿨
달라고
메인
말씀드린
자기의
그들
신앙
##ity
아니에요
우리나라의
##na
반려
##플러스
아이의
##산업의
##한데
##연수
않았지만
별도
안전을
##영이
눈길을
세무
##않
사료
##돌이
##제3
메모
배터리
렌
제18
본인의
이리
하나님
승리를
혼합
02
아니라는
##패를
##기관이
##호와
나오지
2004년
##법률
착수
콘서
한계
##자나
관절
소중한
별지
겉
법이
최적
점이다
어르신
##전과
##선에서
속도
08
본문
워낙
변화에
##로로
##공급
데에
##림을
나뉘
##생태
브리
무엇인지
대안
##라의
##고기
야구
예방을
흙
법원
클라우드
증진
자를
트렌드
한쪽
11시
##염을
요금
##버렸다
수비
의사를
사업비
몰려
모임
급증
대개
주민등록
밀어
식당
비용이
기록한
위원입니다
창원
건지
##임대
원천
##줘야
거기서
##생활을
세운
지혜
한층
보게
몇몇
말씀해
부르는
대행
사용됩니다
치매
##화한
화성
##금액
불확
대우
일찍
##자유
되면서
뛰어나
효율적으로
소형
제19
계절
##재의
왼쪽
지리
신중
전체를
판단을
##권과
##and
퀴
싶었다
당뇨
발간
몬스터
민법
##분간
매도
콘텐츠를
검찰은
온실
예산은
살짝
3대
##왕의
##포를
##환자
홀로
보강
꺾
구별
##소비
##ob
##0억
당시의
저희는
2배
넥
두려워
부부
신의
행사는
과정에
무선
##피해
자유롭게
##일보
공화
일관
소식을
푸른
sc
포항
북미
사랑의
장르
가속
##군과
읽어
요구를
생길
채취
비추어
##평을
빅데이터
지능
말입니다
판정을
##모가
##ate
삼성전자
연휴
##실적
##복합
특별회계
미칠
제5조
필요로
미흡
주변에
무상
자립
프로세
전라남
근대
비대면
전일
기독교
나은
눈으로
산업통상
##기에는
##자고
등장하는
##000원
##ᆫ터테인
##됐고
##들과의
톤
없음
##닐
##크를
양국
듣는
##버려
붙여
되어서
뚜려
프리미엄
사립
전형
인정되는
메시지를
환영
##나의
10억
##밀히
가만히
출현
철거
제4조
방송된
##레이션
해보
##코리아
무료로
과도한
답했다
한글
파리
##곱
1층
냈다
##셨습니다
##벤처
털어
원작
오프라인
##타민
##공정
마시
종류의
##센터를
##물과
2002년
손실
밸
##들에게는
붕괴
대립
##의가
차지하는
챙겨
노력하겠다
갖게
테마
장식
##스에서
셰
이사회
수신
추출
##ᆯ린
##치에
82
무대
부실
지역별
자체를
하나도
들어갈
돌아오
##ᇀ은
##국과
사고가
ii
규정이
##미술
개요
##겐
##센트
쓰지
공사를
한때
##쌍
국민이
##교사
이었다
##궐
부산시
손가락
회사는
계좌
생태계
산업통상자원
##신문
그렇기
##60
##하시고
##기계
부작용
##망이
법률에
빠진
버리고
##렉
sbs
무척
목숨을
부딪
##거렸다
##위생
##되었던
##법으로
con
바라는
모른
##산시
##탐
여유
##후의
붙어
##목이
인하
결승
##드려
보여준다
정말로
##과학기술
편이다
시점
하다가
##우의
놔
##ov
활용하여
생각하면
##est
##춤
죄를
##라가
목소리
연예
설비
이재
타이틀
번도
이름은
기준이
나눔
시작한다
수행하는
이송
서부
전단
2004
드러나
##수익
뿌리
##올림픽
가중
800
기록을
##위기
##용품
생기는
##만으로도
설치된
가격은
셔
게재
스페인
제1호
##ers
다해
##임금
이들을
당일
떨어지는
##찾
이스라엘
미친
기반을
프레이
##차로
제품이
4만
##채권
##자로서
방법에
찾기
눈앞
##방이
바람이
시급
숙박
수령
07
포함되어
있거든요
##화점
막기
##혁명
기존에
차지했다
모습은
돼서
서면
국토교통부
지나치게
풀이
##탄을
윤리
##og
전해졌다
##사업은
##ᅮᆫ다
##악의
뷰
갱
맞은
하는지
##px
스트레스
비트
수주
다름
cl
하신
정작
고통을
틈
군데
##자본
싱글
##스케
보편
성명
세계를
상태다
3명
rayong
제품의
##ᆨ한
경향이
기다려
위대한
매립
##장애인
상실
이어지는
효과적으로
온갖
심의를
서버
##바이오
조항
취약계층
애로
집어
발생했다
박물관
다문화
세계적인
선포합니다
고백
기여할
사건의
##차량
##옹
화장품
##수지
상시
##례를
어업
떡
스카
##방의
사냥
재발
##이상
##고에
내다
실효
눌
##모데
큐
화합
##르지
##팀은
대표하는
위치를
동의를
있느냐
시간은
##들었다
##입니까
지점
주가
신속한
##동조합
##직한
의약품
장을
파티
너는
팀이
비로소
보라
만약에
님
깜짝
싶습니다
아들이
추측
##되게
##igh
눈물을
ict
드론
궤
관심과
##ᆻ지
하시는
##바다
개정규
##석의
##둠
뒤집
확인하는
##접한
생각에
다리
공개했다
전체의
아닐까
주체
##감염
오브
##순위
바가
##센터에서
신고를
##로도
독서
극대
했다는
독특한
원격
##받지
1인당
영향으로
목포
담겨
4대
거친
지사는
코스피
추세
부정적인
감지
gs
출자
소위
조성을
높이기
공을
##00만원
와이
공개된
##겠지
문화를
##건은
탈출
인쇄
주간
or
개발한
원활한
대통령령이
##희는
고구려
관점에서
일환으로
##에서만
wh
표정을
교육부
않으며
##형은
a씨
북한이
달하는
시사
진행되는
적지
구상
나라의
##국장은
##고속
목적이
노력이
차이를
##감에
경찰에
종전의
의정
또다시
목록
진행하는
진로
명령을
##검사를
발병
##살을
협의회
작품이
감사의
시원
일괄
진행했다
##리다
국세
최근에는
##닌
모르게
헤어
##하라는
감액
휴대폰
##끝
숭
농어촌
적법
진지
##코올
즉각
기본계획
보스
##화에서
##감은
발주
##렬한
공제
체계를
권한을
간단한
있거나
이상한
##치기
살려
고지
매주
살피
##되기도
##띠
오고
진심으로
제로
단단
호르몬
##돼야
폭력
##연맹
세우
담고
돌봄
##브로
상표
발을
##pg
##젤
##따라
배정
은퇴
##정보를
상의
##드와
음주
대만
제이
오로
단어
이어질
이주
청렴
##지역에
im
편입
필리
연극
##회사의
하도
공산
##었으나
신장
직원이
##구에서
사업장
봤을
##21
##회담
##제공
##온이
수익을
말하면
채워
경기도는
맡고
대한민국의
##발생
##지표
집합
##이라든가
지향
##주행
##스탄
묻는
제1차
일대
방금
##니까요
전설
tr
##적한
24시간
조건을
메르
원료
계획에
동참
그야말로
상태에
##하였는데
함께하는
학생들의
환자는
복구
##살이
내용으로
##위와
##린이
##식품부
조세
진보
해수
보도했다
연금
완벽한
멋진
건축물
경주
처음에
##막을
##미한
자식
인민
오해
전수
빌려
버튼
치료는
##시장의
지은
##000억원
71
민주주의
않았을
##후보
정부와
##상에서
특유의
15년
##윈
간편
##나와
노래를
규모로
도대체
단서
##ᆸ어
##요한
텔레
##ᆻ죠
불을
바까
치유
2002
농협
##터가
원안
표창
2003년
피아
##사업으로
##무가
화려한
요청을
덤
##네시아
수를
충실
##파의
텍
뭐가
있는데요
아니하는
한데
##컨대
아버지가
사정이
알았
복잡한
sm
들여다
고객의
트로
권장
##다운
세금
규모는
출마
자금을
지사
증상은
##등에
##뉴얼
##ist
느끼고
제외한다
##스키
##45
##박한
용도
모를
막을
차지하고
실정
패널
마쳤다
개발에
분산
지정된
##미널
치료가
파악하고
##촉진
##이닝
주장하는
오른쪽
기한
좁
했으나
##졌고
해운
이해관계
ne
말씀하셔
경매
미소를
다니는
##나갈
##었기
민사
현장을
##는다는
##역이
##타운
상용
189
출근
높일
좋고
급성
##역에서
시대를
바깥
##하시면
공동체
##ᆫ지
##루를
환자가
○서울
행정사무감사
##내기
무인
합쳐
있다가
##이와
주장을
부하
육아
프레
기다리고
인센
##이도
##ᆻ습니까
현상이
##문화재
##본을
##모델
빵
마약
이것도
기업을
마음의
토양
##늬
진화
들어온
상고이
노하
넣고
논의를
지속가능
1분기
임직원
말씀드리겠습니다
##해지
귀족
학교에서
이외에도
건강을
##포르
##놈
조언
이용자
누군가
##긴다
사정
##은행은
땅을
4억
찬성
나아
##고한
사장은
비디오
불어
##센터는
간다
평창
발전에
##겠어요
선행
나쁘
중대한
제6조
##방안을
길게
합리적인
오피
없지
책은
##트라
대상은
##격이
만든다
##받침
##풀이
##교의
레드
불용
en
실용
웬
##목으로
대구시는
인해서
섬유
아이돌
넘게
의무를
비타민
읽고
장관이
##뒤
##영의
종합적으로
돼요
##고의
pl
지진
국회에서
숨을
해안
ms
않아서
여기는
##국으로
태양광
여행을
분기
실시하는
##류는
야간
쉽
받아서
참석했다
스테이
3년간
##해온
위안
되돌
깎
대다
속도를
번째로
##시험대비
##되었다고
런던
##유산
##플루
##안타
갚
인정할
##못
##중인
사용하지
적립
##공이
세계의
기업은
##네이
나라를
##지수는
표면
적을
위원님이
김포
재직
경기도가
am
움
고민을
거론
##져야
조회
크기
헛
가해
문화체육
새누리당
낚
밑에
책임이
##지인
관해
짐작
철저한
디스플레이
##르트
##등이
손해배상
급격
빛을
짚
##툰
시달
##조원
거리를
중반
이같은
주시면
지니고
머릿
나이가
항소
대상을
##장관
시나리오
##배를
암호
허락
가볍게
2001
##스트로
그림을
유일하게
주된
정수
##인터
실업
황금
때로는
발효
소련
캠페인
후보자
이로써
##판에
역사적
##션이
사건에
사용을
##기념
1에
##스러워
세계에서
뭉
대량
제공해
스케
이성
로드
##주지
취재
##디자인
횟
3d
모래
감독이
위주로
벌금
##주었다
역임
##작업
거래를
대략
코미
확인을
##방위
##맛
논리
##조로
가라
us
방치
총리
지명
nh
위원회는
유대
다가가
조리
드라이
이슬
데미
1시간
세균
운영할
##했는지
멀티
형제
수거
자료에
막아
##스카
청취
확진자는
점도
그로
##달을
이겨
말씀드려
##즈는
테이블
##근무
##5억
다행히
순수
멍
강요
위원은
높고
낮추
대여
열린다
##생의
##딘
안전하게
##일로
끄덕
신속하게
##fc
후보가
된다면
호남
소셜
개척
윤석
인센티브
##민이
되게
폴리
##삭
##도서관
기업에
2단계
눈치
##즈의
공부를
진행될
청약
국가가
져
##매매
나타내는
위기를
##수급
##지침
차세대
공동주택
슬로
일어나는
##였습니다
스튜
보내는
서명
순천
##석에
##이로
자료가
투쟁
헌법재판
많지
##대문
부패
##왕이
700
구성원
##연도
##ell
배가
입국
##법과
전사
##인데요
ceo
ph
간주
교원
자신들의
개통
##관리를
예산에
보냈다
경기에서
참여해
당시에
현황을
구조를
재건축
다음달
유연
강릉
아버지는
맡아
아웃
리스크
##골을
남의
보행
##바라
##렇게
양식
아이는
때문이었다
마이크로
##결이
그런데도
an
##ᆫ가
탑승
회피
진행을
표기
##영업
크리
실시한다
##프로그램
야외
##혈압
버렸다
##되었는데
##전환
##행위에
켜
썼다
인도네시아
소음
손님
전염
##변경
두산
유족
##회관
세월호
평범한
비판했다
##반을
##회와
##ᆯ랐다
##조례
중독
180
인건비
##랭
##텔레
표정으로
영입
있었을
##청에서
##생이
기대하고
있었다고
똑같이
##였지만
##보상
천안
##서비스를
배송
포스코
발생하지
##드에
수행할
원인은
아이들은
여건
자제
입장에서는
배워
권력
여성가족
무단
동맹
회사에
에피소
처분을
성별
##진단
답답
##극을
신경을
한국은
것으로서
지방세
잡은
죽음을
성공적으로
영화를
움직임
##스피
보조금
출원
고객이
드디어
##드린다
않다는
하니까
##주차
전에는
선두
##ᆯ은
중에서도
서울대
고속도로
##욕을
싶지
꿀
고용노동
집안
##28
정책에
동시
위험한
진행됐다
##ft
협조를
비교해
정보가
태평
어디에
##27
버티
서류를
성분
##너스
나오셔서
##스팅
삼국
고소
산하
포함하고
##으려
잊지
훈련을
##조의3
sw
주민들이
그다음
불리
##중의
여성이
제7조
##됐던
드러내
휩
##쁨
보여주고
하위
##나라는
과정이
##시장에서
##ive
홈런
벌이
주행
인스타
장려
움직이는
곰
염려
##규제
##전용
##av
##시험을
가량
패스
유가
태백
아직까지
코리아
##사유
마라
위반한
##ᆺ가
##판이
##단위
깃
같아서
얻고
여객
소모
법무부
당한
##보지
제24
찾고
30년
연대
인상을
미래에
##하였다고
확신
##소유
트레이
8시
탓에
정하여
블로그
항생
않는다고
살아가는
의외
해당한다
노력하고
##뱅크
수사를
잎
직접적인
##과에
알리
솔루션
##토를
메타
대중교통
받기
거다
##학자
겪는
250
보호를
##di
생애
##소통
마련해
사안
어리
교통사고
준용한다
##팀이
10여
##하십시오
매월
관리가
##랩
##사업자
갈수록
초점을
##역은
##등기
##미디어
매니
다스
##급을
새끼
했어요
끓
대변인은
농림축산
나간
평양
투여
됐습니다
##실과
전산
##으로도
그렇고
##벌이
대부분이
공포한
서구
제2항의
신입
##엠
##시기
2001년
맞서
뮤지컬
치고
##주인
오리
안전관리
돌아온
싱가
실시할
차라리
##아시아
스키
시스템이
흡연
기대를
두드러
##타임
구축을
제23
있었기
주식을
3회
신임
엄마가
공연을
종사자
##시설에
광주시
91
국내에서
노르
다음으로
얼굴에
##셋
치러
영국의
##art
##ᆺ불
무장
적용한다
지나지
패러
hp
어지
##는다고
중장기
mou
##29
하드
##회의에서
민생
엔진
공작
펀
부회
드릴
사용해
일이었다
상처를
드래곤
삼아
##ᆲ은
이어졌다
여ᄍ
착공
정상적인
태어난
과거의
혐오
##돼서
##처를
##병의
중견
것임
##기간이
솔로
##심은
##폐기
차원의
치명
##고등학교
보고드리겠습니다
##가가치
주민들의
대륙
7년
##백을
경로
마디
어둠
2003
##기사
폭행
납품
##피아
##덩
사각
핸드
비전
탄핵
##로서는
선택할
기뻐
이해하고
사용한다
제는
궁극
의거하여
시행규칙
트리
##고용
추후
코스닥
##26
조금이
##ha
한계가
##프는
##자마자
전반에
##이었고
모델을
no
할까
##륨
##함은
##위원은
남자가
##의약품
팩
가격을
안고
##ᆻ고요
찾아가는
이수
##편의
##사회의
않느냐
밝혔음
간단하게
새겨
포함하여
느낌
당연한
##8억
공정거래
미국과
있어도
##호텔
만나는
##병이
정하고
필요하다는
##란을
##5만
##특별자치
be
환경에
늘려
얼굴로
##000만원
주변의
저감
중개
인가
용산
하나인
##잠
##화할
조속
문화체육관광
##ᆻ더니
브라질
얻는
##들로부터
못했던
수백
##찰을
소수
학원
줄일
##ᆨ시코
##공장
##됐으며
##어와
위기에
##강의
고수
아가
법의
기관이
110
당사자
떨어졌다
실증
있나요
##미의
무엇인가
직원들이
잡았다
진행되고
뽑아
유망
##떡
##2억
자존
9개
군은
##상적인
한참
##스포츠
##파로
##속을
##ᆸ에
아티
침이
##진흥원
갈라
넷
##7억
흩
도저히
과다
##중심
bl
##되었을
##코스
경과조치
##공자
##30분
담당하는
발열
##사람
가능성
인테
다짐
질병관리
작년에
나노
드린
##정신
곽
포럼
일자리를
적어
##주의를
생겼다
가계
더해
원내대표는
미국에서
갑작
사우
일일
걸린
이후에는
##습을
줄여
오래된
##6억
주무
최근에
판례
면에서
다들
203
다음날
비서
##년에
학교를
들어오는
거리두
##잘
오지
조종
프로그램이
0시
윈
##쪽의
여자가
동북
확대해
나선다
성취
이미지를
중앙행정
협회
전반적인
##신용
5년간
음악을
속의
듯하다
##리라고
##전화
##생명
고맙
마시고
만화
증후
대면
##소서
제25
기업들이
가르쳐
종전
##청소년
##dp
전체적인
분위기가
가능성도
매출액
참으로
거둬
수강
##내에
마르
신탁
요약
인기가
##거리며
3시
진단을
##탄소
유로
##행에
##거리를
여기에서
업그
국유
재산을
조용히
##문으로
땅에
삭감
율
부러
유발할
공무원의
##시간을
넘치는
##ᆷ으로써
한두
무의
위원회의
호응
##팬
과일
배상
급식
밴드
국토해양
생각하지
있으니까
##퍼펙트
수확
보태
수송
넌
##흔
##1억
국외
서양
##차별
존재한다
금강
윤석열
##차의
3분기
해결할
##인권
바라보는
불가능한
평생교육
방사선
##하가
열려
용이
뮤직
평등
아이디어를
사용될
##당에서
흐름을
안양
위축
이끄
공략
가슴이
대북
없다면
7시
##ds
##이었습니다
화를
실적을
##설계
증가하는
화이트
거리가
##픔
테크
발동
해가
##냐는
정신적
해방
금방
간담회
네덜
갓
세우고
명절
줄이고
자유를
인간은
좋겠습니다
고성
다운로드
위헌
예산편
아나
입술
있을지
##드라마
밝은
##색의
저를
알코올
답변해
스프
se
저작권
아버지의
##야만
여부에
원인으로
##쪽입니다
않았습니다
중지
##이게
정례
방영
관하여는
걸음
##교회
##들고
온실가스
오토
확실한
##4억
##천의
뒷받침
돌입
##유통
독점
온도
##조정실장
물에
##마크
##프가
어머니는
##기술을
대해선
소매
이월
##들께
고기
경정
상수도
키우
진행한
시험을
2조
훔
특징이다
자신은
##리케이션
웃었다
산업의
##과도
던져
##처장
##스레
기간은
##암의
알레르기
별다른
나가겠다
살아남
합성
받아들여
아메
세계적으로
누구도
##3억
음료
##재료
동양
숨겨
흠
필요는
기아
일로
타인의
##하게도
승객
##35
사고를
줄어든
제26
##ᅪᆨ
극단
##콘텐츠
##체와
감독의
축적
대부
위치에
##림이
모듀
불행
아이폰
땐
놀라운
방위
유치원
유관기관
응용
여섯
고전
외환
양해
스코
알았다
##둘러
조명
멕시코
것이기
리더십
공부자료
다중
##형에
였다
전반적으로
앞장서
잃은
협약을
시작하는
##청장
가능하며
mg
다투
##인도
우편
친구가
2천
단말
혁명
험
포르
계승
멘토
각자
믿을
##쪽에서
소집
모범
사람으로
##계는
상담을
##마켓
##넌
어릴
보세요
##사무소
##옵
신청할
커버
형식
업체가
고의
뜬
전액
##평등
규정한
##창업
홍보를
##사태
잃어버
브로
##파를
##았으며
##ak
20여
##별로는
부분에서
##파트
희망을
팀의
기간에
##90
지역이
##파가
바르
괴롭
수단
가결
역학
##과정에서
ww
출력
##스럽
##비전
날짜
점령
효과적
##숙한
시에서
컨트로
앞으로는
나설
지식을
체감
파산
##면에서
증언
##열을
늦게
fta
캡
##일러
읽는
되자
금액이
즐기는
엑
원고의
##으신
##채를
어렵게
이벤트를
병사
맞고
계십니까
잡혀
##창조
성공한
특별법
인명
##스런
##량에
났다
##목표
##면이
바라보았다
##마스
##즈가
회사를
여러분의
속도가
팀을
보이며
말이야
배부
농업기술
노예
노트
보다는
##교류
결정했다
둘러싼
##간을
웅
의정부
함으로써
말하며
세미나
##수당
태도를
영향이
후에도
문제의
미국은
삽입
검사가
##소송법
주저
##하는지
높였다
상한
갈아
권역
##목에
쌓아
워크쇼
공시했다
발송
랜
ss
반응이
생명을
적용할
##터는
엿
##운동을
하라
##클럽
쭉
상관없이
발생합니다
않나
법원은
강구
이끌고
전월
링크
노조
##위탁
봤다
##스트를
침묵
##지법
대항
##하러
제1회
심화
든다
프린
제외하고는
내용과
##인들
1의
나갔다
답을
정권
##니라
##단장
자유한국
도중
##되었으나
제시한
제9조
##긍
이가
이끄는
사회에
바닥에
이나
허리
끝나고
전신
놓여
장이
춘천
과징
결정하는
필리핀
조지
어떻
결국은
수탁
연봉
##ctv
특정한
##주년을
##ie
에너지를
둘러싸
알아야
탈락
수시로
##이너
예방접종
##축제
평가했다
지적을
##범을
나지
관계없이
자치단체
확인됐다
두는
##터의
자체는
유료
아이들
필요성이
서울중앙
##기준을
어떨
보좌
베스트
실망
방송을
명확히
과거에
##안정
##선과
자신도
아기
조직을
실종
##범이
떠올
윗
하여튼
불필
아래로
위원장이
의원의
같고
##레인
서초
##퍼런
##조제1항의
5시
##염은
케이블
손해를
at
##까지만
금년도
##효율
중구
도시재생
불확실
저렴한
점검을
##차에
유지할
색깔
##둥이
##대사
##시장은
곳이다
유래
안전성
감소한
사유로
중부
##세트
장수
내려가
도의
##밤
추진한다
##ik
근거가
범위에서
증대
##금과
##으려고
서해
흐르는
##기자
앓
##스티벌
얘기가
거주하는
세이
되찾
변신
자신과
##산림
날카
광양
상황은
##르며
면허
##임에도
그러고
##se
구체적
준비하고
절차에
많은데
이루어지는
아이들의
이후로
가산
성격을
싱가포르
호흐
##광고
확산을
솔직히
샘플
지붕
만남
요건을
그러하지
추가적인
##현은
하루에
양육
##부장관이
1주
일원
##재인
일정을
##ᆨ스는
아니하다
강사
배를
사람들과
뜻이다
원전
확인한
이야기는
찢
위원님들께서
반가
##곽
확정된
##월한
무더
인터뷰에서
아이들을
##염의
##박물관
nc
##다리
부른다
요건
거점
청사
##문과
왔
몫
부끄러
세웠다
동향
##했다가
총리는
##층을
투수
##조항
고려할
##음에도
##청과
취지
입지
타입
관계에
떠난
반영한
매력을
돋보
각호의
짓고
아이템
사라져
맡았다
fa
생긴다
확대하고
대가
나와서
##이스
발생하고
성폭력
만들어서
81
회장이
성공을
시책
밭
계급
가능할
믿음
근거로
산지
##계획에
인생을
명품
##제1항
2분기
결과적으로
##였는데
하얀
정서
인류
대통령과
cp
##지대
수준이다
것일
##당과
있지요
시간과
증여
종로
문제점을
대상자
##치와
설립된
##사업이
스웨
제품은
관리하고
사무총
점포
##병은
약한
4명
원에
지키는
저의
사퇴
400만
록
소각
##관계가
팔을
주민의
중고
공간이
법제
##ᆨ트를
나가고
꿈꾸
분석했다
서서히
cctv
통행
즐겨
##00원
##꼼
귀국
운반
버린
단위로
편이
##합의
##큰
이민
##사법
부가
시설의
##기간을
있었으나
5명
해체
la
잦
보내고
지적이
##미래
기구
##렛
##사한
##없다
심도
확인해
##버리
주차장
mc
각별
##동강
포스트
찾은
##통제
부각
이럴
기기
##시한
강남구
##중립
##되지만
제21
대의
tf
표본
제안을
##업의
##관리법
##권으로
혈관
##량과
##속으로
##투자증권
것이란
까닭
제국
장례
정해
보입니다
1번
행사에
한국에서
순식
정보의
##함으로
##시마
활용하는
연구에
교육과정
##방에서
##련의
시작할
규정은
##구성
수준이
마련했다
##캔
감동
감싸
양산
불합
출장
추억
대응을
##31
한국에
수직
##민은
##하였을
약속을
##방으로
##본부는
클릭
선보였다
##공제
내어
##목의
임기
즐거운
드러냈다
이후에도
2위
이르기까지
냉장
4시
손이
캔
미국이
##버그
경과한
신이
##님께
쏠
지원하기
살펴보
##드릴
기술의
##자문
자율주행
전제
완전한
100여
솟
시의회
가짜
사실이다
해결하기
##에스
행정안전부
중간에
##편을
멈춰
복무
드리는
일주일
고교
내야
지었다
##아를
임금이
##밀하게
##밀리
31일까지
##와서
##종으로
목소리로
작가의
##드리고
말인가
남해
일어날
사업시행
항에
##스트라
적도
##세이
##헬
##움과
##oo
서술
추락
이곳에
양자
시작해
제8조
다이어
수능
법안
##곳이
끝으로
##ff
장기간
##셔야
추정된다
쿨
공적
호흡기
육군
관람객
많을
##하자는
##출을
성공했다
포트
규정된
##영을
평가가
탕
##증명
##머스
##캠
##음악
플로
차질
이루고
계획은
다양하게
일상생활
전년도
턱
최선의
뭐냐
잃고
기후변화
스승
##빵
중도
활동이
하느
##면허
가족이
##니는
승강
##처벌
##로써
절대로
노동자
10대
##00여
양측
판정
돕는
보시면
비율은
일행
메이저
##두에
##곡을
유력
상대가
마음은
##원들이
현실을
중동
있었다는
##열이
##모델링
식사를
해결을
드물
생생
구직
출동
##랑이
파기
보여준
세계에
130
##된다면
소중
##토리
들어왔다
1단계
##유지
##시장에
제출해
##ep
드러났다
론
한일
따르는
##과를
##린은
공무원이
##하고도
부근
집계됐다
둘이
##오가
##변을
빨간
미사일
##년이
##기관은
차기
부어
자유로
세트
아미
##유예
함은
안의
30대
경기가
모르겠다
○문화
남한
cd
추구하는
기억이
것일까
이외의
안성
황제
플라스틱
건물을
걸친
##딱
lh
##주면
특이
##시간이
저축
조사한
##자리에
목을
5천
##사라
##ib
재판부는
페르
##림의
복수의
용서
아뢰
아픈
##족의
##ᆯ의
후배
라이프
증인
그것에
##이었지만
유닛
타임
정신이
식별
교정
도약
##공화
한계를
감당
존재하지
이듬
제28
##9억
##그라
2023년
행위는
##크는
##하느냐
됐
설명이다
처한다
규모를
단백질
논쟁
##르의
잇는
##할지
없었고
호기
책정
완벽하게
학생이
##쾌한
사육
지역으로
쪽에
체력
분석한
가벼운
아침에
특성상
식민
급속
진실
보고서를
만드
말이에요
남양
공업
형태를
달콤
방지하기
##청을
감상
구독
##편에
행위에
##축구
##신설
카운
일부러
바퀴
##틱
자동으로
등장한
소지
않는다면
gr
##색으로
중요성을
전체가
##헨
무력
원자력
##치면
군의
사물
체계적인
##이거나
부천
5분
누워
용역을
##팽
op
순식간에
##반응
10명
신뢰를
##ver
##8만
가능하게
##나를
전세계
수혜
##조리
어렵고
나타난다
##ᆮ고
##관한
남을
##인들을
소식
##속에서
##주식
원은
상반
날씨
600만
팝
지방의
기반의
소방서
맑
##용역
인물이
일러
주식회사
문제와
잠을
예방하기
공주
공판
웃으며
있잖아요
비공개
##채널
알리는
학교의
등장한다
##전시
덴
##협약을
기획재
고혈압
##는데요
매체
개성
구멍
거짓말
저런
이듬해
발언을
##인인
##담보
##념을
소극
조직의
원고가
이상인
부산광역시
은혜
감히
배운
교육의
나타냈다
##보드
##전지
있겠지만
번호
##정책을
열람
##가며
##하고는
##iz
이모
힐
공소외
창립
형성된
법령에
픽
6억
내리는
사마
왜곡
##공무
나타나고
염증
등록을
날려
##6만
녀석
꼼꼼
##2만
시설이
참석해
##대장
dm
##소장
##벅
##청장은
##바지
상당의
정도에
무죄
##강을
##분류
##잡고
지위를
결정할
문화예술
청산
회의에서
어려우
얻었다
머리가
상가
##층이
안산
개최한다
다리를
##박스
비정규
불렀다
미루
##동은
어머니가
적게
##놨다
##식에서
딴
왕이
조기에
절약
##늦
##심에
치료에
##인한
##투를
말하자면
변형
몰래
근거를
성격이
판매하는
현대차
확인하기
그렇지요
##나고
하늘을
개인적인
##설비
##인사
여가
휴식
##셰
느꼈다
##루가
##아리
맛을
채로
미치지
##데모
이어져
완공
사회를
제27
생각도
몹
골목
갇
파라
부분들이
주실
인천시
사실에
##융합
정책의
##이든
선을
아닌데
##션은
논의가
사령
##하듯
적당
##포럼
##구요
김해
승용
잠정
점수를
1호
방문한
지옥
기관은
##수행
열렸다
가리키
당신을
애초에
##ex
장점이
##지검
경찰이
et
##pc
해설
강도
임무
##뱅
되었을
##결에
##ect
내밀
약간의
아키
외에는
중순
##ight
불량
논문
개념을
인력을
공천
개인적으로
188
올리는
##머리
매출이
여지가
장비를
##회복
비치
재개발
공정한
싸움
감추
반박
빛이
부를
##ill
##통계
강화해
일찌
관장
db
차관
##어지고
원심판
올리고
##시설이
부의
##내며
##숲
브리핑
자격증
비싸
끝이
터키
이루는
##형태
썩
특징을
##테이션
한동안
발령
##행정국장
나고
줄이는
써서
주면
예상되는
시야
만료
선택한
행위가
##싱턴
감소했다
아저
##역으로
귀를
##4만
씨의
vs
끔
국방부
즐기
##ᆯ릭
추모
기둥
제안설
거고
##터에
세상의
왔습니다
과제를
방식이
그들에게
10분
스튜디오
유예
구경
따른다
쇼핑몰
않다고
##타는
유산
막대한
잭
해주는
2인
##능력을
가까워
인식을
##양성
번씩
행사가
##기에서
정보화
얽
##조치를
문득
번에
제22
의혹을
어우
정부에
헤드
도구
편지를
##령의
##주의의
6만
감정이
없으니
##나가는
됩니까
것이니
##인들에게
음반
##희가
어깨를
거울
요인이
감수
제2호
##기보다는
11개
인생의
카드를
성공적인
##먹을
재현
##걸이
##막이
터뜨
사람에
전제로
##청사
한가
의사가
##7만
##흑
이어지고
##되므로
대피
포상
아트
서로를
##조제2항에
부드러운
돼지
체제
고려한
서울의
##ᆻ을까
서로의
광범위
##론이
##공학
##용이
써야
##배출
지금이
##소리가
12개
이분
##료는
내보
미래의
영구
결정이
작품은
콘서트
가족의
자매
설명해
주재
마련하고
##부대
주어진
운항
##오니
핑
억울
상승한
일반회계
보낼
고쳐
모르겠
예산의
꾀
상승했다
사모
##처분을
신기술
아세
##하우스
듭니다
지원과
사무실
출간
경유
실적이
개그
줘야
꽂
오면
무서운
다채
받으며
ic
눈물
##소프트
못하면
정해진
##두는
##금속
##님과
터널
원칙에
유방
결정에
굽
명확하게
본조
부모가
##아동
조치가
50만
진주
시위
##감으로
형법
##르면
자료로
깔끔
##차적으로
##니와
서면으로
##파는
지방선거
문제점
높았다
문제도
앞둔
me
##ᆷ보
주사
수업을
샌
##비율
##3만
엎
하실
절망
##월드
##리면서
줍니다
모은
숨어
가능합니다
것이지
머무
##되었음을
없던
기업과
1년에
##권자
느낀
전쟁을
le
코너
붉
필요성을
킹
탄소중립
있습니다만
줄을
이며
중립
##인가요
직면
잡을
##국인
##페라
안을
대부분은
수준에
이후의
산학
##운전
터져
s4
##000여
삶에
예금
불편을
말씀드리면
맞습니다
범행
3천
##발의
분야별
비유
준비가
피를
프로젝트를
##프의
헌신
돼야
2개월
제시했다
##급식
인증을
##컷
투어
조사됐다
해주시
계획입니다
##천군
자격을
거대
우연히
##하시기
영원히
요청할
운영한다
1로
크루
##균형
차이는
조사에
##어졌다
안정적으로
##착을
비해서
제5항
요청했다
##동기
엄격
##ᆸ의
사람들도
문제점이
입장이
연구가
##해의
근본적인
##적이며
스크린
검을
다음의
현실적으로
마련됐다
쿼
바라보고
오스트
역할이
포지
일부는
비율을
6년
종양
##ice
##견이
##론의
바이든
가지가
깨끗한
##주세요
##검토
다루는
이승
여러분이
원산
두루
하였습니다
보아야
##구매
##박람회
대충
리모델링
##회로
##찮
매칭
멀어
속한
##중개
곱
죽어
##세법
ac
##라스
설치를
##all
세상이
내수
##소재
동행
번의
1999
빨라
동영상
공표
당첨
청문
미소
##보안
원수
##퍼스
구름
##48
가지를
이집
제출하여야
선택을
##안전처
튜
시점에서
##친화
무거운
전망했다
4분기
틀림
닥
대표이
젠
방지를
오로지
노력해
일어났다
수술을
##멘터
국산
##쌀
무대를
제10조
1시
안전사고
프로듀
노동조합
결심
맞다
골라
##200
커지고
##단에서
##채무
800만
##경기도
녹음
기억을
돌아왔다
속에서도
존재를
부재
몽골
지지를
##마리
당당
뵈
점심
한국어
##집이
##꿈
제29
떠올리
정규직
환경에서
엄청나게
##하지도
좁은
부당한
투기
학생들은
비싼
본회의
뿐이었다
##신청을
##편이
소감을
140
시티
원칙을
계시는
있나
제도가
증정
성향
##슘
그다지
철회
수습
##방역
영농
##지니어
구급
오버
##기관으로
전략적
항의
비중을
디자이너
##했었다
납세
어느새
부득
광복
예정임
버전
개최했다
촉구했다
덤프공부
말하기를
자부
양의
사건은
개인이
한시
##중공업
##절차를
거라
신세계
변환
##크가
연구원
ct
20만
최우수
국가대표
##결의
선정됐다
지나가
하겠
안동
##설이
청구할
기획재정부
##엑스
늘고
##료가
제주특별자치
##교부
가무
##ang
##ack
##안보
선보인다
##관리에
##ᆻ나
인문
극장
콘셉
피고인이
##있게
현상을
양호
롤
요소를
##1만
대통령령
상을
##가입
##차게
장의
##거리가
내릴
천재
순위
무지
처리를
##ng
밥을
##왕은
속도로
더블
강연
##팅을
연상
융자
소송을
우승을
##ment
검토하고
ib
3층
효력이
fc
기술적
간단히
##사항에
두통
시중
베이징
##플래
업무협약
번째는
전문가들은
주의를
파고
##니가
의미로
커플
##방식
민감
핫
데다
처방
장악
가격에
제30
외로
위성
한도
어려움
##쪽을
학교가
##정보통신
자체적으로
아스
면세
##조제5
사업과
외모
강화하는
퀘
바꿀
##이요
항공기
각자의
현장의
도래
잔뜩
체류
고객에게
화상
매뉴얼
결과로
##지주
제휴
##시장을
##위험
표현을
등등
스트레스를
사용이
##놀
온모
밤에
개체
생각보다
##공연
하나하나
##공사가
대대
##위원장은
공유재산
내실
총장
순서
원에서
##되어서
##현의
히로
이적
##ᆻ게
##데요
##하였던
출처
벌어진
##리자
아카데미
시기를
튼
##55
피할
데서
줄이기
특성에
160
##제4
유죄
쉽고
##인재
대거
악취
기름
일각
어디까지
대비해
하고자
체계적으로
##로에
단계를
삶이
건가요
발명
##어지는
공사가
kbo
선수가
업그레이드
그리하여
하야
##99
바쁘
무덤
안정을
##격으로
##mw
전라남도는
영유
##투어
##노인
찾았다
끌려
기자회견을
##도우
금전
충격을
상무
사용하면
##되었다는
법칙
의논
행복을
##ue
뒤에서
수분
어두운
지극
##공사는
2번
##위원이
kg
##랜차
링
해지
##최신버전
뷰티
알파
1999년
피아노
눈물이
판결을
수천
##장한
##했다면
하나씩
중국은
홈페이지를
원안대로
본조신설
한꺼
이의가
www
##화되고
##브를
이거는
이외에
##시하는
##사항이
작성한
##자에게는
죄송합니다
자회사
얼음
결론을
사망한
##심과
○기획조정실장
모순
목격
세탁
농지
대조
테니
어서
느끼게
초음
책이
조류
차량을
1998년
시설물
넉
싶어서
인정하고
조금만
모습에
##빌리티
이루어질
고무
전남도는
최악의
노려
##마케
난다
##ᆫ터테인먼트
##타로
가슴을
led
물고
승계
##히지
30여
해산
약물은
취득한
대표의
##플루엔
예쁘
트랙
배우는
워싱턴
##만큼은
##36
##선생
##기간은
돌아다니
신인
하에
##da
##교육지원
최소한의
춤
상대의
vr
교섭
##ᆸ게도
장면이
야기
##시장이
배분
##팀을
확실하게
##드에서
린
당시에는
국민들의
택배
주장이
##제도를
쥬
##란이
이전의
있었으며
구하는
##행위의
타당성
##환경을
##법원
기록하며
1개월
##멀
힘입어
##풍이
연안
되겠다
꽉
무용
##ms
마스크를
##당국은
한꺼번에
2루
##사실
##수원
상하
한국과
##혁을
부모의
지목
원칙적으로
여의도
모의
제11조
밀집
##현이
가지만
기술개발
##제작
지키고
급등
지주
다할
자로
해명
폰
가능하도록
##ub
we
슬프
신발
##되었음
거치
안건
선전
레이저
적용되는
##왔던
김정
일본은
확률
##락이
##료의
기침
투자자
he
인정한
골드
하락한
경기도의회
##ure
수호
##연대
병원에
저기
##ᆺ으로
뭐라고
잡는
교육은
가슴에
가사
더러
##옵니다
아티스트
개념이
앞선
##하니까
꾸며
##제1호
지정을
비만
포도
새만
없습니까
왕의
재고
총선
##세와
신청한
입에
지급하는
##보수
중점을
태국
이젠
도시의
교수가
이천
##토론
힘들다
교육이
생각한
꽃이
##답게
##크의
실력
정책이
이상은
연동
비용은
##은행이
사정을
정무
##디션
비트코
비정규직
남긴
관계는
정기적으로
액션
##pe
하려는
인턴
예정인
항암
균형을
진출을
혼자서
앵
기가
되기를
설치하고
제공하기
삐
##부서
하도급
연기를
아리
증가할
##최고
비롯하여
김영
상고이유
이슬람
맑은
없었습니다
언급한
앉아서
들지
알리고
힐링
급격히
##ᆻ는데요
개정안
다각
대답을
어우러
가득한
주먹
##평가를
부자
철강
주시기를
주입
주가가
즈
중심이
진상
기관에
자료는
##지라
기준은
지고
##교가
의학
존속
협박
보건소
부탁드립니다
달린
되길
##활성
사라졌다
교장
하기도
신기
##ᆻ었다
어긋
싶다는
##집에
연결하는
웰
##관계에
밖에서
법원의
알기
##39
기어
일곱
지하수
철저하게
700만
퇴근
개를
의문
제공을
나라가
##조한
게임이
바라보며
분담
1997년
##년의
##폴
똑같
##m2
직무를
집회
해군
잠이
##씨와
배수
보상을
전국적으로
일으키는
서울시가
##면은
같으면
공급하는
##뉴스
신속히
덤프문제
신도시
ma
내년에
조례를
##은행의
네덜란드
시립
##체제
처럼
##보에
순매
pr
정도였다
국무총리
접목
17개
##시효
##높
임진
적용된다
프로그램은
##벽을
##겠죠
않았다는
나타납니다
##높은
굿
##질러
시민단체
##나라의
##펀
소홀
생계
산책
문화의
요구했다
후회
얼른
때문이
##과에서
눌러
목적은
두어
##고도
검토해
의미하는
##세한
건강보험
전통적인
더구나
마사
##ma
남자는
견해
중재
참여했다
희망하는
금융감독
판단이
구할
것이냐
줄었다
제품에
활성화에
브레이
블록체인
중얼
의미에서
유혹
마감했다
그러는
물론이고
##트에서
##톱
위배
예정이며
척추
불꽃
상영
한국인
작중
##의의
이루어지고
고객을
혼인
여름철
세상에서
출신의
##진에
했기
건전한
2시간
##경과
##업무를
토지를
성장할
시민이
서비스가
지금부터
##결과를
각기
##이었는데
문재인
##경비
이익이
유리한
않아요
정황
소나무
##자들과
유적
가능성은
##야구
##희의
구미
침입
##태를
편하게
사라진
##ard
하향
나란히
가지로
만다
##가정
##세서
##49
국민들이
cr
나누는
관통
집중적으로
분해
찍어
##운송
애플리케이션
인체
##내지
##널드
대학의
헐
걸고
옵션
피가
동일하게
잡지
입사
낭비
자사
##조달
##달아
설치하는
확보하고
화학물질
하고는
##결제
책의
##빨리
5대
건국
##쿼
제도의
##운이
아니냐는
바꾸는
##진료
보살
##페이스
점검하고
정화
노란
친절
걱정이
기록하고
인접
시에는
프로모
##르르
발음
##센터의
선수들이
안파
거지요
상해
##공의
받으면
발견된
아마존
##기온은
흔한
방식의
일으킬
##37
크레
연구는
바라보
퓨
콜라
반면에
sk텔레
낙동강
제고를
모르지만
##늦게
폭염
##테이너
##오프
분은
의무가
압축
시험덤프
##보고서
그레이
낙찰
높아지고
신생
##압을
통치
근접
##기관을
사장님
공영
놀란
포착
의지가
자유로운
츠
저렇게
##소리를
치열한
##리에서
##조제4항
정보는
전직
힘으로
186
혁신을
##m의
프라이
금호
여자는
관계로
##했으면
연구소
많아서
영역을
타격
권익
##랜차이즈
스웨덴
##화되어
로맨
방탄
적의
수평
선보인
##결은
업무의
##상환
##속의
날을
30만
결혼을
환율
법규
나눌
안다
강수
너를
##만으로는
##과정을
파는
했으면
쉴
당기
##론은
분들은
부총
교황
직접적으로
농도
짝
명확한
실습
농식품
반영해
착한
성능을
돌아가는
성적을
확대할
독일의
자세를
주류
##작물
아들을
값을
손쉬
사고로
나오면
폭너
돕기
행정자치
남편이
정성
괜
##즐
장사
지역경제
준비하는
법원에
인격
하였고
숫자
○보건
##우와
신흥
동계
##시에서
##동으로
용의
단계에서
수료
구두
##토지
회생
태백산
청원
당분간
어머니의
##서야
금액은
##기엔
잘라
##글로
요구에
베어
임시회
##간이
##시스템을
시골
구원
씩
##세다
죽는
사용자가
퍼포
자에게
##덩이
제12조
모습이다
사이로
위원님들의
짓는
동안에
저소득층
의식을
원장은
##85
105
파주
소유권이
유독
000억
처리하는
불편한
이쪽
##더러
##쎄
##현장
광명
갖는다
느낀다
예방에
카이
구동
대답했다
하려면
##프레
상대를
한국시간
몰랐다
휴가
오늘의
먹어
너의
질을
조례안에
간행
기술과
환경이
조합원
군산
늘어날
개정규정은
안전하고
##싶
##인구
갈등을
보물
##측정
##이면서
○경기도
말아야
곁에
파악할
둬
태도
웨이
하락했다
과정은
임대차
##z0
분야를
##해야만
##왜
나머지는
획기
사서
쓴다
늘어나고
##스테로
ts
과장님
##피를
##하길
발생하며
○경제
견디
한숨을
확보할
##남이
없으시
합니까
재미있는
도정
노무
마련을
효과는
##명령을
투자가
개소
조건으로
입소
주위
검찰에
##철이
##협정
것이나
붓
하겠다는
물려
##약한
##신탁
##급의
그래야
초월
제시하고
편의를
사찰
마인
언급했다
간략
##활동에
이곳에서
부유
내부에
##그마
따져
가급
##일랜드
##전기
배울
양수
##상선
차별화된
##허가를
시설에
신용카드
새해
사적
##현실
실력을
최상
단행
서비스의
아름답
##타가
후손
##하였다는
캠프
약물을
원주
평가하는
마찬가지다
눈동
어떻게든
어렵다는
##셔널
청춘
애써
것임을
ec
가족과
대단한
##34
만기
##센터가
화장실
##되던
생리
좋았다
전년대비
공립
건물의
공헌
학문
우수사례
남동
깊게
수색
##2명
우유
##역량
100분의
##북부
서울에서
##스럽다
##9만
장군
모양의
##상승
산업단지
과감
판단할
커뮤니케이션
확률이
사업이다
##었는지
사람이다
착각
연설
##도서
예컨대
정부에서
##슬러
인종
경향
일부가
계층
검정
규제를
클래식
제압
소아
경쟁을
피부에
성질
새정치
발생한다
##오의
감독을
수산물
요소가
서울시는
참여하고
원정
성우
##회사가
청장
통과율
내역
cn
때려
드림
##화문
br
남자의
##농협
구축하고
사태가
전작
피곤
##루의
개발하고
##행위가
7만
경기도의
더욱이
가맹점
머리카
##ant
강화할
적용해
남겼다
##았습니다
반짝
판시
의사의
간담회를
야당
했으며
##mg
##권도
페스티벌
##십니까
영토
##부령으로
모았다
##ass
동서
용도로
걸까
미치
시행하고
##감시
중국에서
40대
뜯
아니야
의외로
##스턴
과잉
믿는
정통
뜻으로
가기
트래
웹툰
코드
쫓아
다시는
17년
기증
우리나라는
찾아볼
부가가치
겨울철
외면
매니저
생산하는
전형적인
##시간에
재판에
마크
공수
달래
효력을
설명하고
플레이어
##판의
##ᆯ레이
##방울
##언이
스스로를
차원
윌리
인원이
배우고
##니를
187
##됐다는
##일과
공지
중국이
하시고
됨
##중을
전통시장
예쁜
환급
기업들의
##주도
문화적
##시켜야
모르겠습니다
몰라도
시행하는
임무를
신부
분들
##묘한
체결한
조약
습관
퍼포먼
주목을
오류
국민의당
과목
이산화
불필요한
처음이
공기업
저희들은
4회
취할
초코
##똑
조정을
3분의
##캠프
서브
놈이
전국의
운수
그래요
도시개발
장면을
목수
오랜만에
조립
##시대의
끌었다
##절로
멸망
해마다
역을
부속
전문위원
배경으로
##민족
기사를
좋아요
##마이
때보다
일과
회장의
종업
##중이
사회가
##니의
배신
##수석
난이
욕망
토지의
식약
기동
연준
포천
교차
##플리
##액에
##버리는
앞세
상대방의
손실을
판매를
##서류
판단했다
##뚱
우선적으로
후기
제34
##달라는
제36
골든
소비자의
유학
힘들어
자리가
괜찮은
##학기
치킨
밀리
양이
##풍을
최다
여신
제법
뛰어넘
몹시
설레
데가
15개
공공기관의
도와주
##1명
3단계
##pp
시를
작전
우리도
화폐
예산안에
지는
##소설
자에
힘쓰
꿈이
방안에
##발이
세력
제3항에
##ort
##제약
학생들에게
일명
역전
아이들에게
되지만
##량으로
실시했다
시스템의
불과하다
##인물
들었습니다
##드라
시점에
##아지
무작
함부로
##만족
고양이
##하기에는
mar
백제
얻기
18년
##인터넷
길에
기피
플러스
절차가
통증을
검토보고
100억
2의
신제품
모두를
##적이지
확인된
육성을
20개
sap
##ef
신재생
펼쳤다
상하이
##탱
되었다고
요새
중화
원리
산소
기자회견
##스럽고
목표는
7억
##대구
풀이된다
##dc
##4명
##늄
알아서
말과
요구할
미군
결성
##예정
소통을
죽고
유지하기
남지
1995년
민관
##기획관
지수
##원인
팀은
싸워
1대
톱
##평화
좋다고
##기준에
##카와
비중은
대지
##브라
##심에서
##취를
그리스도
성과가
맵
후의
##할까
##일으
16개
횡령
수험
둔다
않음
부장판
##짱
동성
wor
중등
도움
우려를
##사령
되었는데
것들은
떨어뜨
기생
##놓았다
주의해야
##반의
##즉
마음대로
첫날
1년간
##섰다
##요금
매번
톡
문헌
낯선
새만금
지나면
이루어지지
##88
재차
전문적인
맘
집권
프로그램에
가요
국채
##리즘
##상한
##미사
##3명
맺고
##ᆷ임
양질의
플랫폼을
읽을
금융투자
우대
김치
전무
##타워
귀속
장점
연평균
아무튼
방송통신
얼마든지
종결
제3호
알아보
실제로는
##물류
##전문가
악성
청정
##대책을
몸의
영향력을
iot
마련할
감옥
클리
자치구
공급을
ml
장래
이정
눈앞에
이용에
임대주택
집이
파란
##우기
##지정
용기
##닷
##모로
치는
가져다
극히
탄력
고조
올릴
16년
##ᆼ을
조선의
##워드
##르가
여러분은
여부는
신호를
신비
##계로
표정
##품의
돌연
입장이다
올라와
##승인
이은
예로
만전을
경찰청
아래에
시인
소속사
1990년
국가와
프랜차이즈
인구가
소요되는
##쪼
시흥
쓰기
쓰이는
클로
총무
세금을
줄고
##one
달한다
1부
개가
삼고
문화가
서둘러
##센터에
##기본법
##6명
건강에
지난번
묻고
엮
##불을
스파
캘리
알렉
개선이
고문
중요하다고
싶을
##혈관
교육에
##업이
해임
국가에서
oec
수목
흥분
동굴
##처는
데도
국내에
않았다고
얹
기술은
끔찍
##암은
히트
대원
태평양
미성
반사
일본에서
##ᆺ날
##가치
##거를
사회주의
칼을
보정
맡겨
전임
비영
적자
감리
견인
덤프데모
##전도
##감도
소폭
가진다
밖에도
제작한
누릴
자칫
##화될
재외
포털
남쪽
주장은
것의
산재
브레
미쳐
고위험
제2회
예전에
한국을
아내가
분비
##좋
그러다가
받았고
망설
개선에
장소를
##맞은
배양
품종
##특례
##감사를
##하긴
신도
부탁을
피고가
몰입
가죽
맥락
제외하면
##마에
줄기
원가
판단된다
의료기기
##수용
얻게
노력할
고스
아니하거나
##됐지만
트랜
낮게
모르겠지만
3번
스포
여기저
개발과
##떼
외래
##쥬
##합니까
##버리고
여자의
김종
만나게
직원들의
##기로는
짧게
여쭤
말이죠
1분
##한을
구청장
##하셔서
반성
식의
oecd
방에
불러일으
오늘도
품고
과반
##먹는
찍은
50대
적당한
##배우
결정한
##지원을
활발한
분배
먹은
여론조사
무대에
##실험
모드
리드
모인
콘크
초등학생
가라앉
펄
기쁨
구리
파생
##값이
##적이었다
##모의
내무
인식이
희귀
##부동산
##사에게
돌이
최저임금
옳은
입점
v2
엄마는
자리매
디자인을
기숙
##고속도로
자신만의
##대교
퍼져
##하우
최적의
앱을
검찰이
씨를
중추
##터로
휴게
패키지
해를
아끼지
##io
##주주
날아가
첨가
테니까
##연합회
대상에
##뼈
살기
이하로
곳곳에
일일이
주인이
교도
촌
동화
지급을
크지
동구
##드린
돌렸다
동법
##점검을
##제조
엇
마구
로스
##본부장은
##부령
용어
시민들에게
업무가
##신경
휴식을
머물러
3조
늘어나는
esg
##방은
컸다
거리두기
한해
##민을
성을
##통이
##폰을
잘하는
방식은
존재가
##창조과학
영위
##라이언
기저
과기
잉글
시대가
위원님들이
심리적
mm
전당
합의를
##의무
3배
시계
늦은
##형과
적용을
sy
##초를
시험대비
##으셨습니다
##프리
군에
경제가
중소기업의
빛나는
도매
##아웃
lg전
때를
##담으로
짓을
대결
101
일련의
##중독
이뤄질
자기를
보호하기
제안설명을
도널드
##지역으로
처리할
방출
사회에서
내달
##증과
들어가서
만났다
토끼
이해하는
편성하였습니다
전지
상주
개정을
학생들을
재판을
중앙행정기관의
받아들일
##age
마련한
습득
##하천
겨냥
시비
압수수
비극
광고를
바쁜
만나고
공직자
방안이
##식물
고가
심하게
강서
원유
두꺼
##는다면
전망된다
사귀
보겠습니다
##등한
언젠가
제기한
##톨릭
##지도록
구성하는
조화
구해
##군으로
들어올
되는지
키우는
만들어야
그녀에게
##리에이
마포
부분의
스킨
##중학교
창고
##기인
정교
##에다
움직임을
구단
메가
##선언
##산과
##뜻
투입해
##하수
##선거관리
강좌
때에도
##있던
뉴딜
기울여
뽐
내리고
끝나는
어디로
이뤄진
부상을
나타내고
거기에서
개량
경상남도
보훈
토론을
경험과
오를
##타르
기록이
수반
영화의
작가가
지급할
무엇보다도
gl
침체
##수단
긍정적
외교부
전인
안팎
이고
진실을
군인
350
캠핑
취하고
선생님이
확인했다
##라미
갖다
##토의
그런지
국토부
전환을
바보
##들께서
자원을
안드로
진동
##5명
충당
있기에
크기가
실시간으로
지식경제
##38
##pa
전술
효율적
미션
경사
대한항공
득점
탈퇴
##하하
의장은
##테크노
소유자
##ᆫ다는
##1000
기다리는
가족을
##공동체
카르
대응할
국가는
미래창조과학
내부의
30일까지
##총회
##킬로
아직은
하부
##지급
##적은
##권에서
집행을
대미
가난한
대동
어색
필요성
##이고요
##act
롱
몸은
##사업비
##ert
최대의
##제도의
듣지
늙은
19년
운영이
출연해
##교수
너무도
관련해서는
하느냐
금감
셈이
평가하고
막상
금융기관
벼슬
##여건
두께
골수
행동이
튀어나
굶
##법령
##이행
사랑이
기조
바닷
소개했다
자유한국당
fl
순수한
찾지
개발이
그대
○교통
##교육의
후보를
말하지
양쪽
##유효
수요를
하나만
나누고
2105
사용된
##석으로
##자연
##학대
등판
라이트
경관
조만
받았습니다
##루에
경기에
면담
##지역에서
있음에도
경제의
##걸음
세련
##장인
##농가
쉽다
포스터
##기업이
1997
##시험패스
##디언
##역사
##권익
설사
한창
연락을
결핵
말합니다
건전
이력
##수리
바뀌었다
무산
분야는
##페이지에
느껴지는
실로
당뇨병
20억
자료의
##들만
바람을
위장
다채로운
인간을
머리에
늑
점수
아쉬운
시행을
법인의
##코드
플랜
사망자
억지로
자이
떠올랐다
##디스
아니기
웃는
##ial
하되
진학
마땅히
부임
##발표
마련된
##검찰
재택
##책이
법원이
8만
분명한
본능
극대화
##유럽
구속영
정기적인
약을
##퍼센트
4개월
대통령을
빈곤
부정적
좋겠다는
##7명
##있고
선착
영세
규격
뿜
히어로
##인민
##44
설치되어
미국에
저해
확보하기
##어질
관리할
일단은
조금이라도
조국
고사
곤충
아이디
소비자가
협력해
감염된
아래와
염증을
과학적
주파
고분
##문화를
병역
벌칙
##영향평가
토요일
예배
##인트를
그릇
식량
문이
제14조
해당되는
제32
##값을
베르
쉼
##뜰
거칠
전문가의
공존
모델로
특검
예정입니다
쾌적한
신선한
##이었으나
목사
모두에게
편안한
##분께
와인
백악
벌금에
매출은
놓인
인테리어
형평
판단하는
##교환
단정
##tt
하였으나
새마을
##우리
##소시
정립
끌어올
스캔
##진한
##것이
뒤에는
방문을
그제
집착
열악한
엄격한
러시아의
##폐기물
##겠는가
소식이
방법이다
장소에
8억
##연료
간절
웹사이트
턴
신혼
##이에요
콜레
독려
본예산
끝날
영동
다크
적절히
인플레이
의사는
채널을
강의를
##공사의
초기에
암살
부수
전시회
##gb
##였다고
서포
진도
장치를
##곳에
기지
적혀
맞춘
3학년
측의
지식재산
양을
12시
이용을
나빠
오르는
##일리
##란의
꿰
3가지
에코
겁
정정
##평생
##킷
방법입니다
##수산물
분과
가전
신약
대고
나서는
교육훈련
운영비
##학회
내면
설치한
사업계획
맛있는
##계산
중계
원입니다
박정
##공은
못지
정할
역사의
도가
일본에
행안
##린의
피해자의
맞추어
컨테이너
이들에게
판로
침수
초래할
##년도에는
가자
##75
##팀의
##옷
반대하는
##계좌
##표현
계획의
요구한
근로자의
실수
##지역을
높을
건물이
자진
경감
##인지를
부정한
활용을
하나입니다
염두에
수행하고
싶다면
##스토랑
##우며
박람회
남는
외상
비영리
##와이
삼성전자는
방문객
낚시
##ᆺ하고
##뤄
자고
일선
표명
1996년
공간으로
뛰어들
튼튼
피고의
##프로그래
추진에
저지른
##보의
##카는
메디
##지점
전동
글쎄
이식
##장도
달에
그래픽
걸릴
협상을
달라는
경쟁이
미스터
##길에
이른다
이뤄졌다
지키기
##그룹은
모양으로
돌아갈
유용한
뇌의
백화점
##었어
1명이
농산
준비해
구매할
초기에는
대접
지수는
역사가
타기
러브
제발
발전과
송파
유형의
맥주
##음의
표지
제33
애매
정도다
측이
##마토
스페셜
13개
##증진
##ᆯ렌
있겠다
진행해
이내의
어때
고려해야
##베르
피고인의
##8명
이룬
차입
상부
##라니
##남을
변제
즐겁게
보험료
바뀐
근무하는
대두
할당
##쟁이
이지
##녀가
자격이
국어
역사상
##눈에
왕실
잘못이
주관하는
이루어졌다
누군가가
죽이
푹
전국에서
전적으로
통증이
1995
##구간
집행부
방류
##그네
기다리
떠났다
메모리
강렬한
##문제를
위원회에서
쉐
##우지
##한의
업무협약을
방문하여
##ᆸ시다
물어보
차고
제공합니다
ps
국민을
제출을
프라
작업이
권력을
등록된
하수도
이해하기
북한은
제35
변화는
옆에서
양극
개최된
##정상
불구
제13조
길은
하기로
합계
제임
왠지
##ore
##요건
##플루엔자
내려다
2년간
##친구
연계한
##핍
해결하는
발견한
##독한
하세요
향했다
안겨
인증시험
시리아
무안
투자유치
##유공자
##ml
단호
파악을
목욕
날개
음원
분석해
영등
적시
교통안전
긍정적으로
##부품
유무
전력을
명칭을
##작은
##였으며
모험
언덕
들어간다
도민의
석탄
##ust
대응하는
##딸
##아트
상인
그곳에서
##러스터
비핵
##심리
작고
사용하기
##자와의
태극
단계에
##aw
너머
제작된
관행
서비스는
##지역은
적고
중국과
2개의
인식하고
있겠습니다
기원전
##이라서
판단하고
변화와
껍
my
##후가
부회장
애국
구성해
협동조합
제도적
편의점
##te
##카페
형의
특혜
취지로
갈등이
하겠다고
하고요
납입
##제2항
1이
넣은
##경찰청
##led
도발
##타의
##능력이
회의에
##및
밀접한
##조차도
##화하여
200여
##관리실장
근절
##ᆯ릴
자격증을
언제든지
##변이
정책과
산업혁명
##년을
차분
기업으로
발생을
합리적
상이
##실장은
정산
##오지
불거
바위
##음식
안정적
정상적으로
센서
jt
근처에
##계에서
주시고요
생활에
단편
분당
설치할
나가서
##원칙
파손
묻자
##일지
피드
세계적
좌절
물리적
##사카
것들
##모임
##덟
금메
병원에서
모델이
지냈다
지낸
국경
끝나면
##are
##인증시험
어촌
##ba
제거하는
이대로
##권역
견제
않겠느냐
의류
경남도
찾아와
매개
올해도
고등학생
시료
되기도
꿇
주변을
농장
자연의
##인원
만족도
##직이
사례는
어렵습니다
현역
##단다
어울리는
운영되고
위원회에
환자를
귀가
그곳에
##운을
공단
시선이
##증후
나가야
##베이스
##생은
원장님
전체에
않거나
물량
왔던
기록에
걸어가
손쉽게
##셀러
제조업체
##피스
헝
자세로
##각이
똑똑
우호
에도
여성은
계곡
켄
시일
김성
중요하게
하셨습니다
so
박스
##정예산
당의
고충
하나님이
국회에
##주신
삶은
형상
평가는
불공정
생각하십니까
클린
수시
미드
춤을
일할
##왕을
##담한
##지다
가령
동영
사용자의
지형
외식
내비
##초등학교
##문서
##홉
##력도
삼각
상품이
됐고
초음파
없이는
##았으나
제안했다
##100
열정
##슨은
##번호를
공조
영은
갱신
하므로
구성을
발표된
농도가
압류
제공한
##스트는
일어서
##림은
운동은
뚝
수치를
아니며
놓아
##리우
kia
하셨는데
보여줄
6명
실장님
작품이다
장관의
조직이
실질적
개장
도입을
초과하는
자체의
앉은
컬렉
소재로
##ld
상식
신천
국민연금
그랬
운영해
도시철도
나이에
주머니
주요업무
##운의
집행잔
지켜야
체결했다
예의
##학이
서울에
그쳤다
캐릭터를
탐색
임대료
혈압
무릎을
어렵지
표현하는
제시하는
내장
공식적으로
po
##응답
고추
시간의
14개
##플라
##들인
##부르크
선택하는
촛불
장에게
달콤한
##푸드
##기관과
연결되어
훌륭
명의로
##출장
방광
회사에서
##플랜
170
열매
나가겠습니다
불만을
빼고
##저축
15만
##주의적
식품의약품
차가운
엽
실리
여파로
벤치
맞았다
##오스
실린
콜로
주시는
일방적으로
농촌진흥
##편본
전이
위주의
##작용을
글쓰
뜻하는
처한
##9명
처음이다
##효과를
시행할
##보훈
##넷을
##6호
첩
하려
##급이
지도를
있기를
그보다
특이한
계획으로
정보공개
포토
잔여
시기가
의결을
가다
그거는
지시를
막고
전달하는
##전력
##고객
##더군요
합산
분열
자가격
주거환경
함양
민간위탁
비교하면
전망이
나주
##정책과
죽여
설치해
분석이
유물
##천원
##촬영
제한하는
컨트롤
##노총
엔딩
정복
모터
##ance
작가는
##시키지
가격으로
##폭이
##지방법
무소
##측에
대안을
##낮
일제히
중이며
홈페이지에
임직
##정부의
##화해
솜
1은
성숙
##테일
될지
면서도
##밸리
있는지를
버리
영업을
피해자가
수상했다
##버린다
사유를
여유가
힘써
뒤늦게
전장
일본이
절실
덤프자료
지방자치단체는
내다봤다
양반
걸었다
발라
협업을
조례에
다룬
먹거리
말라고
멸종
개관
계약이
##주얼
전쟁이
이용객
##받는다
##출산
법조
지가
##바이트
모양이
##카가
##65
아사
아랫
로보
##77
용기를
젊은이
네트워크를
##령은
차려
##티스
등재
이별
나한테
000원을
침투
추경에
dna
말미
빈번
봄이
직원을
##텍스
900만
##기간에
회복을
입체
길로
조선시대
##떨어
적용한
근본적으로
급히
이곳은
##지는데
목적에
미달
신체적
지적하신
##건대
한국이
##어리
##우주
조건이
취한
작품의
##자리를
##감의
사단
예산으로
전도
피부를
한양
감안하면
##행동
데이트
세출예산
900
규명
지위
##작가
2부
이길
##교는
광산
##라를
리가
꼴
생일
형식으로
탄탄
##종사
경험할
주셔서
여기에는
a씨가
밝히고
원활하게
##업소
생각으로
나타나지
채소
학생의
##루는
국가를
##ᆻ는가
배틀
대출을
국가에
판타
기운이
제네
일하고
공용
종자
경제를
치료제
고집
세제
입술을
신청이
잇따라
유익
냉동
심어
가져가
##아와
나무를
포켓
겪은
그때는
##hd
고스란히
불복
일들이
영장
설명할
제15조
##to
것이죠
잉글랜드
##ca
공청
도에서
신화
환불
적용하는
접종을
○부
없는지
##비용을
방탄소년
입에서
많다는
우아
도착한
움직임이
환자들은
아시안
냄새가
정관
갯
엄마의
수상한
지속가능한
워크숍
문장
전화번호
1998
##일수록
앞을
프레임
효능
기대할
##정책의
##란한
아베
##직에
편찬
##링을
최종적으로
##사도
##달러를
자리매김
슬라이
##제품을
##사기
##이월
연결된
1월부터
선물을
반영하여
##창을
사양
증가로
옳지
이노
##정원
##타이
활약을
산업통상자원부
##포니아
##파에
부분들을
로그
도둑
##감소
##변호
외출
덕에
##ge
##모씨
정신건강
저한테
효율성을
##보호법
쇄
제16조
벽에
탁월한
##33
이마트
##지기도
##쳐서
##협동조합
피의자
실시하여
##지나
정해져
##기며
고장
등산
편리하게
소유권이전
랭
##홈런
세로
상류
연구의
##주간
##었으면
대응하기
일회
메르스
사흘
개헌
거둔
영남
##목은
##팀장
떨어질
영등포
선보일
##란은
14년
##지거나
구석
하였으며
조속히
다하고
지난주
매출액은
교훈
캠페인을
##제일
발표를
이룰
무언가를
##시장과
구청장은
##억원의
##천은
꾸준한
수돗
걸리는
말씀하시는
갈음
변경을
##스텔
최신버전
질의에
##보로
도박
은근
해봐
손상을
제한을
모듈
##공헌
먹으면
부친
드라
000여
##ound
취향
##학은
시술
3위
호흡을
실험을
이태
긴밀한
3인
자신들이
##계와
얼굴은
누락
gdp
##시설은
거뒀다
##솟
국편본
약속했다
2030
되었으며
호수
##ae
암호화폐
자국
동쪽
될까
컨텐츠
일으킨
타이어
줄이
기여한
##교육지원청
아버지를
부탁드리겠습니다
실태조사
##두를
넷째
##라며
미수
해서는
##적으로도
예산편성
강화하기
넉너
##념이
##홍보
오스트리아
##5000
담당자
딱히
학교는
납치
염색
fr
##난을
걸리
능동
지극히
##으러
브랜드를
질서
소정의
##강화
저희도
반해
##용지
1994년
dr
조언을
없거나
전진
분석하고
증거가
적용하여
선호하는
허브
##디가
드리도록
##선택
원망
회담
유럽의
간이
든든
##종에
쓰여
악마
##대금
전과
보이지만
##드리는
강행
원고는
불가능하다
상급
초에
개인정보를
게임의
##벤처기업
##ᆻ거나
사격
대회를
대비한
광화문
오염물질
감성
담았다
##대고
펼치고
사라지고
민주당은
수차례
교실
##무늬
초록
해소를
##gr
북쪽
##되었지만
##our
덜어
유가족
떠나는
돈은
##집에서
1980년
타는
브루
베네
##ind
일체
##드레
##병에
##카를
중국에
##신고를
##공사를
실은
##심사를
출국
조사하고
##마저도
안되는
위법이
사소한
##ᆻ음에도
##버트
준비한
무기를
홍수
반납
조만간
특수한
도지사는
호응을
##처분의
공개한
아이에게
대책이
옴
아니고요
##청년
상대방이
직권
성폭
환기
군대
등에게
기업인
육상
주인공이
18세
##층에
공모전
형태가
쪽이
cc
##행사를
재난안전
id
마쳐
밤이
리버
가정의
우회
일시적으로
글이
##분양
##고리
이레
불쌍
때와
모두의
##브랜드
벌이고
사운드
입양
유상
미처
##신과
후보로
알렸다
사도
냉각
쏘아
샘
이행을
##일자리
##자면
쌓여
0으로
오페라
비하면
##데스
##분으로
나이트
한수
##수칙
의혹이
그랜드
샌드
일반적
복제
움직일
##ith
거리에
개조
##맵
선정해
##으려는
##대회를
##반도
민족의
않겠다
열쇠
엘리베이
페이지
괜히
말아
##모는
모으고
##부족
who
트러
생산을
##만원으로
이어가
##안으로
시간도
흥행
저가
타격을
##기업을
##백이
둘은
##티를
제반
뚜렷한
잠실
터치
##1호
상태였다
af
##과세
노트북
한하여
하나다
방과
##기업에
거라는
휠
##표가
변이
##윽
내구
##카의
옆으로
음식물
##틸
##것을
대도시
해남
##ᆮ는
컵
온다
메이크
##동과
##운다
포트폴리
않았기
요인으로
쪽에서
앞의
##합을
베를
상습
해피
##진으로
현저
자신감을
지분을
독립운동
기소된
날카로운
##요원
없으나
납득
##저당
원씩
조화를
레스토랑
인데
일요일
내쉬
가꾸
##판은
편지
베이스
평안
##주며
활동하고
감탄
산화
선진국
##후에
##작이
본사
##방해
백신을
유한
방송에서
##상황을
서쪽
##실태
##환경연구원
##손을
잔류
본부장님
##등기를
2025년
프리미어
좀더
국고보조
작성하여
프랑스의
##뎌
후보의
미만의
지난번에
##키가
##디는
tvn
##움에
##위반
정보보호
즉위
지루
업체에
민원이
##죄의
슬픔
##트워
당내
##대기
##냉
것입니까
댄스
주요한
##무지
버리는
스위스
##취업
박탈
발견하고
##홀에서
8년
이유에
##빛이
하반
가지게
패러다
약정
원형
실수를
##해줄
##녀의
케이스
감염이
##레벨
프로그램으로
세척
무림
지도자
##벤션
캘리포니아
##먹고
되니까
학대
현존
##있었다
자랑하는
두번째
인스타그래
집행유예
비비
한마디로
조사가
##코의
형이
##간담
로이
콧
이관
육체
##보도
불명
##천을
##렉스
시키는
카테
##증으로
역설
이차
지역과
해양수산부
달고
흘러나
종일
추격
##운은
##결산
도시를
잠수
위해선
공급이
##축을
의원을
많기
##레를
##구리
방을
걸음을
여자를
한의
확보한
잘못을
##자재
진행이
생명의
막는
##내역
공매
50여
면밀히
##백화점
제품으로
핏
헨
##할수
표정이
##사업과
##턱
##네트워크
##으면서도
간신
표현이
와중에
수단으로
미용
시행에
행동에
안에는
##더라면
##윤리
미성년
년간
##임대주택
전기통신
비판을
비틀
요구하고
인근에
원이나
무리가
산업부
이윤
송달
##사들은
도비
합법
이재명
가능하고
##셨어요
틀어
##ase
##들보다
사장이
##관찰
이르렀다
만만
순회
현저히
남성이
대전광역시
버튼을
##궤
룰
하남
현직
##시키며
부모님
습관을
익숙한
대표를
백혈
등장했다
전달했다
시스템은
##대학원
##갱
권리가
##동맹
특성화
매출을
65세
el
##억원에
공간에
프로그램의
자체에
○건설
앞으로의
##내야
달러를
##ᇀ이
##보육
구토
##a0
밴
돕고
승점
##기소
재미를
법령의
##아파트
시스템에
꽤나
사랑에
웃고
흡입
사용되고
대학원
증거를
차량이
쓰면
정상회담
후쿠
딸을
토트
포르투
해줄
차트
위기가
보컬
속이
직원의
수납
달라질
##유는
##동에서
관리와
##측을
팬들의
정답
번이나
되돌아
해고
##미와
보는데
##64
시세
##명에게
본다면
약화
다시금
위치해
하이브리
경선
비닐
대학에
국적
5배
##르다
대기오염
##투스
이동통신
지방자치법
소용
영업이익은
성경
지역구
먹지
##이오
##디를
느껴졌다
##조제2항의
인과
기성
아메리카
영화는
##있어
##응하는
왈
##능한
낮춰
##사들의
상품의
pm
건가
##신으로
사업화
작품으로
##받게
받았다고
크리스마스
일찍이
멜
디바이
발현
비전을
갑상선
cs
댄
사건으로
제국의
불만
출토
열차
인천광역시
의미는
메시지
##분할
아니할
평소에
주를
어떨까
놓았다
노하우를
##결정을
직원은
리뷰
같다고
thr
관료
개개
반입
한류
요구가
지정한
이내로
##분과
순차적으로
##사항은
##기나
성명을
한편으로는
##효과가
빠르고
침략
것보다는
의사와
고양시
##cl
이바지
국민권익
soc
거북
사실과
개최되는
5회
인정을
않았는데
농림수산
항생제
그러던
안녕하십니까
헌재
해당하지
유명하다
출하
그루
토크
##산업단지
##호흡
뱃
세일
##했어
시작하여
##후를
다르지
jtbc
않은가
##조와
##모토
9억
##부채
치안
싸우는
가톨릭
##증에
박물
대법관
체제를
이번이
남용
귀여운
같다는
업무추진
대회의
##pt
인성
인재를
##법인의
112
확대하는
노숙
사이를
곳도
안돼
제안한
피하는
총회
의약
짐승
##키의
##제2호
##코는
주제를
실려
팔아
취지를
##급으로
느끼지
##요양
##중이다
임산
생각하며
빠졌다
##급한
역으로
첫번째
유치를
##분쯤
19세기
거래가
유럽연합
장기적인
충주
##통의
접어들
트위터
업무보고를
여러분께
##라인을
##분은
##발전을
들어선
##취득
더욱더
##샘플
국민에게
적용례
제17조
아세안
당기순
시뮤
21년
공군
##내려
이순
있듯이
실현을
##키스탄
시그
성사
집행이
마이클
다큐
밝혀졌다
조사는
지속될
##군수
만들어져
1학년
내놓은
구강
마시는
k리그
폭탄
##요구
자본주의
3개의
성희
개선하고
경찰서
범위가
변호사는
개정된
전문가들이
시범사업
수당
원심은
따라가
##말이
##co
##럽고
2명이
##론에
##활용
결정된
##참을
답변이
##리라는
막혀
##녹지
열릴
서비스에
##브이
고창
했는지
##야의
오디오
##음은
숙련
##기관인
방식이다
설문조사
2학년
응모
랩
소개해
과학기술정보통신
##티드
##핏
허리를
개발해
##에의
##시절
##95
개최하고
##잡이
비정상적인
택지
##편으로
급락
구분하여
고립
폭이
##퍼센
유역
##그룹의
봐서
주장한다
기탁
믿지
측면이
봉쇄
빠져나
명백한
강제로
##32
범주
##등은
푸드
하라고
취약한
##검이
예정된
이행하지
##척을
##시지
돌아오는
간혹
딸이
엔지니어
##와도
붙은
추산
제사
한진
본인은
쳤다
낸다
스프링
당사자가
전문가가
##마케팅
##하죠
제38
올해의
클리어
주택을
고려하면
산다
##켄
##ᆻ느냐
동맥
최강
나중
벗어난
매력적인
제31
개발된
##미로
##속이
떨어지고
##꼽
##미니
##처가
선교
화살
이용자의
저서
신산업
숫자가
대쉬
내배
생기고
##병으로
측에
##질서
스트리
폐수
대성
나오는데
서남
##았기
녹지
##able
방법도
두었다
다이아
##현대
결정적인
원칙으로
입장에
정돈
올해부터
말씀은
중앙정부
##저리
청구를
주어야
애를
자아냈다
면이
원만
1992년
3000
학과
설명하는
차량의
대국민
서울시에서
5m
동경
한결
연중
##실시
설명이
집필
막내
##공간을
##ii
검거
국민건강
##74
제40
상황과
넷플리
지원금
담당하고
##계열
장기적으로
##퀘
싸움을
도로를
묶어
##문에서
inter
휩싸
출시한
생체
됐는데
##들여
사랑과
##혈을
아일랜드
달라진
폐업
헤이
할지라도
총력을
떼어
죽음의
성형
속성
밀착
벌어지는
기술로
배우자
내시
같지
차례로
##슴
##인지는
담배를
안녕하세요
국민의히
##이노
조금은
##201
스파이
전국에
팀장
고민이
##ᆨ은
##발성
길고
기후변
연재
특별자치
new
닥터
이라면서
의사소통
##qu
주위를
##소화
##거리고
##스틴
##툴
##스케어
필요하지
사드
시작된다
의무화
인제
40여
입구
##쑥
업체를
향상에
연계하여
평상
안전에
현실적인
뚫고
##였다는
받도록
보호하는
물러나
노력하겠습니다
경우와
상법
##신에
이유도
제갈
회의는
그르
난민
종족
##가락을
영산
도청
구호
##절이
유성
장시간
들어가면
##ata
사무를
참가한
수만
병원으로
진행되며
##채용
##ᆻ지요
맞을
물질을
인터뷰를
##오리
국제적
선거에
1991년
성수
부른
전하는
도의회
표현한
##기관에서
가압
사면
주장에
기획재정
거잖아요
일어나지
##야마
comp
원래는
투자의
앞당
있다며
행사할
아니라면
살이
경찰관
드러난
##근로자
외무
뜻한다
##ᆯ런
멜로
##애를
피고는
선조
제한이
경향을
싶어요
보류
##인데도
dmz
##uc
사태를
##매체
##ᆻ네
환승
에피소드
기대가
긁
못하도록
역사와
양평
요청한
알아차
##야지
복사
##위해
탐방
거느
##츠는
우선순
bo
##뿌
고유의
훗날
꼽힌다
활용하고
개선하는
영원한
태어났다
모금
##코자
안전과
여기저기
방문하는
비례대표
것이지요
##cd
듯했다
꽃을
패턴을
##주시기
시리즈의
##표시
적절하게
##우로
단어를
축산물
것이지만
맞물
전입
세분
아닌지
##준은
뱀
투자하는
마지막에
##회사에
요청에
현실에
모시고
연계해
이어가고
보호하고
##황을
생기면
○여성
급격한
압수
순간에
얘기는
한중
사형
들었
그해
예시
밸런
조례안을
##보관
검사의
종합적인
##개국
인사청
동아시아
##품으로
인내
환자에게
수립하고
##도다
##조의4
##숭
##일간
최우선
##방법을
친구들이
여당
할아버지
오라
핑크
적대
##움은
내며
원과
당했다
4천
##정하게
한눈에
제4호
소문
##주자
##손으로
##즈와
모양을
##했듯이
##어에
업체는
유포
##교실
##공부자료
활발하게
탱
행하는
일어나고
대표와
##징수
분의
농업인
추진한
##줄이
컨소시
남기고
확보해
간섭
여는
남도
이야기하는
시집
안된다
##하기만
##큼이나
민속
##교육청은
##루미
##지원금
##노미
##온을
승부
대변인
그쪽
불평
지원은
천하
있은
한달
##막의
상세한
5000
##ix
##싹
사회공헌
빌딩
경찰의
비밀을
대회에서
man
여호와
인력이
당원
안전행정
장소에서
##겠지요
공직선거
2대
실감
창출을
구사
185
##무기
발로
물품을
권유
##츠를
곡을
##환을
씌
온전히
##수출
인류의
스탠
어렵다고
이명
##요소
위원회가
오산
여태
증폭
운영과
##멘트
늙
확대에
여학생
##ti
##가리
부양
차로
설마
쥐고
포용
고리
내역을
개발하는
방제
주제에
##한이
이용해서
동안의
모양이다
셋
##푼
##인치
도봉
수출입
이어갔다
영주
10년간
시청률
유류
헤아
평가할
장성
평화를
수동
농림축산식품부
사이가
비슷하게
##취소
바람직한
유발하는
##일로부터
말투
두지
##ᆨ스의
추가적으로
소를
확보에
내려와
공장을
업체의
form
포함해서
##교육과
##교육감
어째서
목이
##부장관에게
운명
말소
동력
병이
요즘은
힌
##업체의
파악하는
종사하는
뉘
주한
친구들과
찾아온
항목을
부족으로
계획하고
##안내
눈은
명문
완주
##ech
한인
형벌
편리한
의견도
##였으나
##박이
여러가지
##샵
시작되는
다가오는
##트랙
##식에는
##들에게도
단속을
##유형
##66
소변
달이
없으십니까
펌프
##에겐
때면
##ace
델
과태료를
서울고
##공시
##래의
초고
220
안면
남편의
대가로
##프리카
홈페이지에서
증가에
끄덕였다
원본
스피커
선정을
검사와
지침을
○이
심층
##라고도
필요에
##추천
##퍼런스
##종과
도주
올라온
뮤직비
##자책
구로
돌출
##겁
하우
##ᆻ으니까
지켜보
##로워
##오면
양주
싶다고
강조하고
001
##추행
군포
민중
계속되는
##스트가
방안도
기재된
##작으로
못하
있어서도
자영업
계획이라고
자연스러운
가이드라인
##앱
방식에
##재와
작업에
##복이
전문성을
##슈타
##통화
살균
쑥
○환경
##안과
판단한
확보가
관해서
경우에만
선착순
##됐습니다
##회사는
##우에
##92
감찰
##학년도
매치
##작의
수입이
생각하는데
##콕
데이비
대표적
##카르
##자다
형을
주목된다
##교도
##보세요
형편
나타남
##항목
민선
더는
##자금을
검역
##나갔다
##뛰
##때문에
12년
강력하게
이원
삶과
주셨으면
무언가
섰다
왔는데
증설
##ence
언론에
○복지
스미
상호작용
싼
##공으로
외곽
##십자
후계
챌린
학생은
루이
가입자
짙은
##정당
이우
##시리즈
못해서
선보이는
읍면
자택
행정부
견해를
제3항의
##조성
인프라를
##직자
금고
돈으로
남궁
벌였다
##천이
적극적
동두
때문이라고
노력하는
르네
거냐
아니요
취지의
죽이고
기관을
심사위원
차에
파급
##지던
위원의
##시대에
버릴
앉았다
살았다
힘겨
공사는
##석과
철수
마음껏
만나서
##혹한
지친
##판으로
실어
프로토
저희들도
위치하고
에어컨
유흥
진압
날로부터
듣기
방으로
##경기에서
직제
기능성
재벌
불이익
다닐
시작을
##연하게
참전
세계가
매진
병을
##측은
친구를
즐거움을
c0
지킬
ds
명에
경제성
##취약
##vp
싹
##ga
##리나
##칭을
##즈로
##for
##인가를
비단
살던
풀려
1년이
말씀드리고
한우
의아
##각의
##해석
##외교
시행된
언제까지
##업은
빛의
잊어버
##시설과
보시
걷는
최후의
크림
##50만
##액으로
##방재
정보와
수행을
up
연일
넥센
##쓴
##기상
##노조
명으로
주의가
뇌물
넣었다
사나
조성에
유기농
4조
더더
##더스
사랑은
##학에
무시하고
마리아
진영
##위원회와
주유
영문
리얼
아이콘
길러
기대감을
##던가
킨
##행위로
않더라도
서귀
##시킵니다
이름1
유지관리
확보하는
김대
구축해
핀테크
무사히
원심이
책상
지나가는
서울대학교
끼고
마세요
우린
이렇듯
신안
##루션을
되었다는
토론회
나눈
##블유
##정책과장
지경
##학원
믿어
선천
예비비
객관적인
##84
##여부
장점을
풍요
너도
1996
이만
##동생
말의
##음으로
그리고는
바꾸어
무늬
구성하고
##ans
발견할
부르고
##레일
목에
연말까지
피하고
교육지원
사천
과징금
칼로
시너지
위원회를
달성하기
##워하는
권위
3월부터
콘크리트
중에서는
문체
니코
##학교를
걷기
간신히
같지만
봐요
높아질
아냐
##az
그늘
말해서
이번엔
서울시의
##외선
설치하여
농약
권한대행
##훼손
##der
개최한다고
뺘
거고요
강화에
주방
##음과
베풀
대치
111
7명
돌보
처벌을
##로만
이번에도
##준이
문서를
불가피한
지을
사건과
일으켰다
##사이클
형성되는
시점이
불과한
##량한
##산업을
##귀를
주민이
##자원의
가급적
일들을
툭
##룬
걸렸다
안드로이드
줬다
연결되는
환경오염
##커니
저절로
##사리
고작
절제
있었어요
조사에서
##사실을
왕은
이사장은
객관적으로
금리인
##캐피
##루스
묵묵
제18조
##업체가
경기도에서
시작되었다
바다를
물의
##하다면
##커녕
##부장관의
제39
기자들과
낡은
##데믹
경기는
제3차
특징은
##7호
과시
식이
못했고
##도르
귀농
imf
3루
불어넣
걱정을
sa
##어스
방침을
날로
##ᆻ듯이
기다렸다
마비
##포장
부작용이
##설정
명단
계단
예상치
강동
res
승려
##가량
한옥
운전자
조심스럽게
유선
누구든지
합니다고
12월에
짐을
##시켜서
위험에
형성하는
##론과
나라에
제천
폼
음식점
살펴볼
##뿐이다
영역에
##로와
후단
있습니다마는
궁금한
소문이
금연
대신에
##대원
##소판
원심의
벌인
휘두
##산으로
각급
##과학원
부드럽게
##보유
더한
##훼
재검토
예민
어렸을
걷어
진지하게
자금이
부위
칙
184
당신에게
정면
검찰의
늘어났다
에드
벽을
의문을
없음을
활동하는
영유아
정리해
주장하고
시즌을
기능은
주연
제도는
##유효한
가면서
상승세를
자발적으로
##관한법률
4개의
그러지
목표가
하늘이
목재
심각하게
충실히
소재를
ed
효력
소리에
되므로
감동을
시기는
개최를
소유권
있으면서
기본법
신재생에너지
구성이
차등
all
##으로의
##ᆻ기에
메리
##양은
캐스팅
마켓
##아도
##성에서
실시해
판단에
##았어요
거쳐야
소금
못했습니다
울려
나가도록
발표할
떠날
안타까운
기관과
##여자
##줄을
위원으로
김동
마다
몸으로
성희롱
가져야
##드림
구조조정
##어린이
내륙
질투
참사
##v0
시작하였다
악의
등장인물
어떻습니까
##ᆻ음을
어이
뻗어
천주
료
윌리엄
부엌
4번
수치가
##토가
요구되는
##재무
##층은
dis
당사자의
아이템을
연산
결정한다
고도화
에이스
아내의
크기의
치료에는
최순
예상했다
출신으로
연다
##용수
조상
장갑
000원이
##퇴근
부부가
원시
##책으로
고민하고
반영된
출시된
취지에
군민
##베이션
계상하였습니다
혁신적인
일입니다
풍경
커피를
꼽았다
위를
지칭
조에서
감염을
##퉁
포함된다
커질
검토가
상징하는
오바
국도
방법과
내기
단계적으로
그랬다
##사업본부장
마른
재가
사자
서귀포
제6항
전일대비
##ove
인형
수원시
##세스
설명회
날은
출연한
하이브리드
불린다
번쩍
압수수색
고용노동부
신성
장병
평년
증축
정보에
##쯔
한자
내용도
판결에
명심
녹아
이루어진다
지질
솟아
병상
##센터와
혼란을
##당하고
##00억원
##군에서
판결이
##툼
압력
인사청문
##숙이
추정되는
이밖에
13년
##쭉
##망의
속을
행정기관의
미얀
드레
여성을
신하
무궁
간염
알렉산
##구니
입는
테슬
학업
받았던
형사소송법
##삐
필름
##96
##밴드
박사는
타이밍
이종
달리는
##루와
비하여
##씨에게
덴마크
조문
크리에이
##내에서
조금도
지급한다
됐다고
세력을
변론
유전적인
업계에
접촉을
논의했다
##총괄
##겠어
##조제1항제
그토록
두기
넘쳐
##연구원은
건축물의
자녀를
개선과
개선할
##으로만
##용의
피하기
##개발사업
1993년
파악하기
계열사
산을
기울이고
선원
##돈을
귀찮
회원국
폴란드
2로
지나친
재임
땅이
대다수
##속도
##돼지
영역에서
##소개
아내는
##분쟁
##질로
보건의료
##산에서
교수의
군대를
펼칠
없으니까
##렸던
노인복지
30억
연내
제출할
이보다
여담으로
오리지
찾아서
맞춰서
자생
교육비
바로잡
폭풍
발견했다
단체의
김씨는
난방
하나님을
124
##ᆫ터테인먼
##me
변경하는
대형마트
의문이
##공에
국한
이영
경상북도
##로스
##변에
##추는
소개하고
과도하게
중시
##대상자
##스테이
연체
##교육장
1990년대
벌어졌다
하늘의
##고와
1000만
학생을
하나이다
모른다는
북구
쌍용
오미
횡단
##키를
사진이
광장
##내어
강경
##정보의
전차
사업도
공모를
##환이
제19조
##넬
민감한
세포의
일의
##섬유
거꾸
##질랜드
##사업법
기초로
피난
##포가
활력을
고개
필터
사용된다
강조하는
##농업기술
##채는
##2000
예방하는
##후는
##석에서
교육청에서
초콜리
##기게
영상이
##코가
거래일
##지식
침대
집은
##첨단
귀에
여덟
깨달았다
##듯한
달랐다
편안하게
##소기업
##농도
오신
환수
맺은
주기적으로
방한
병력
촬영을
빌리
치솟
사직
에프
금번
필요도
토로
누구보다
실리콘
대하는
탱크
콤
발생하면
##침해
지인
국가적
있을까요
장애를
산림청
불안한
미술관
이유다
공간에서
룩
후퇴
지식과
농경
친화
2에
여주
넓혀
보기에는
세액
물은
주민들은
의견수
너무나도
##디의
소리로
증시
압력을
된다가
지구의
슬픈
미비
진술을
ns
##리조
예보
흥미로운
연인
창설
병원을
하수처리
때만
##립을
뒤집어
1등
검토할
밤을
##오로
이어진
럭
살면서
##면과
민주화
쓸데
##조절
푼
조례안은
그림이
##함의
구성됐다
공감을
해주고
건을
소액
시절에
##집단
하였음
역학조사
준비했다
변화하는
##사스
위조
##블록
문화체육관광부
##잔을
##조사에
6회
흥미를
림프
윌
##과대학
규정하는
수수료를
##집은
집어넣
과실
##주체
##벌레
##ula
되니
##마와
여기까지
넣는
##그레
친척
닮은
일산
영화가
##부패
##네스코
125
바꾸고
말씀드리는
비리
##시간은
##골이
기업들은
자동화
이름의
##으라고
마련하는
##짖
전승
의미의
성남시
찾아야
임의로
적정한
##73
전성
베타
우리나라에서
5개월
##수술
박근
중요하지만
표현할
것이오
##다니는
적당히
##그리
장미
박차를
확인이
##켰다
한방
3명이
들어가고
사과를
수려
하는가
사이클
참여하여
바를
##ud
쿠팡
그제야
가열
인정하지
찔러
흐름이
##플랫포
어마
많았고
세븐
쫓겨
##hp
##정통
뭡니까
##난히
농축
항해
키가
##ᆲ게
##협상
2세
수성
생각과
판매가
되살
##태가
내용이다
효율성
투명한
슬퍼
신형
해결해
109
완도
체결했다고
##구역의
객관적
없었지만
##덧
내년에는
문의하면
기쁨을
중학생
판단은
##1z0
##들하고
제23조
##농정
상정합니다
##강이
##로이드
##합격
제자
돌아서
##팝
받거나
ser
모욕
##룰
명은
트럭
소비자들의
20분
몸과
무엇일까
##들에서
뉴질랜드
유지했다
1박
by
##집으로
얘기하는
기온이
사업입니다
##조약
##트륨
예방하고
제20조
줄은
갇혀
협정
업무상
테크노
어지러
##ens
강력히
똥
단수
##너지를
##훈련을
구성된다
##실점
동대문
드문
충성
능력은
##받기
아이스
##지휘
학력
재정적
##유입
임금을
##봉을
##인식
도중에
##에프
있긴
선정했다
마을을
지장이
수지
000명
전라북도
수감
주자
텔레비전
2호
if
회의록
세부적인
시작했고
##업계에
지으며
여부와
유권
##격에
교류를
선정한
제주특별자치도
설계를
토지에
중심에
거쳐서
효과적입니다
대학을
쓰다
합작
포르투갈
이곳을
##시에는
설립한
뺏
##인정
경기도에
잃지
공예
내로
곳곳에서
석사
옮겼다
##게이
터미널
정신과
부풀
소개하는
사립학교
죽인
후보자는
a씨의
건강과
공무원을
양보
경기장
바라며
올라가는
체험을
주민자치
불리한
정치를
##당사
##운드를
##켈
혜택이
다리가
어디에서
국유재산
굵
시행한
향하는
부문에서
죽었다
누리집
##댐
참고해
살아야
인물이다
그라
열을
독도
라면서
##문화의
##스톱
8명
##역과
익산
간사
공유하고
살아갈
함께한
피어
실버
독성
미네
김일
##맥을
##유플러스
활동은
변화의
사실입니다
캐릭터가
발자
쓰게
2023
행동은
##하에서
##있을
##온의
흘려
50년
안심하고
##썩
##거라
당하는
귀중한
아동학대
취하는
##처에
점진
지원사업
세력이
##반이
##철을
##놓을
갖지
분명하게
미친다
필연
잡힌
1988년
2tv
나라는
##포스
울고
신청서
사항입니다
##공화국
자신에
##ical
아르바이트
다중이용
선정하고
hd
##ᅪᆼ
##프라이
평가에
신청서를
토트넘
회상
지원센터
얻지
해킹
표출
##정책에
자문을
특징이
미생물
##설에
유네스코
단장
개발사업
방향에
##시다시피
##튀
주며
못했
실력이
○○
쉬는
떠오르는
가능성에
sd
10월에
되었던
##련을
##항만
법적으로
소속기관
탐구
집중할
사용에
비교할
행복하게
누구에게
사업자가
##자원을
##터미널
선제적으로
돌아올
one
바꾼
이집트
김태
포기하고
주가는
성매매
아르헨
기록물
샤워
맡게
108
발굴하고
농도는
최근의
조절하는
신청은
평생학습
거창
차질이
십자가
ir
미뤄
화제를
한은
기사가
전문성
변경된
제기된
비춰
입시
구조가
교과서
##열에
치료와
통산
논의할
제임스
##부인
정부를
지방재정
비웃
주둔
휴양
탐지
지상파
합동으로
실시한다고
결정은
원심판결
##공유
주름
이르면
범위에
주위에
남았다
때문인지
제공되는
##놓는
공무원은
##오던
비슷하다
여권
팔레
협의가
##지출
7월부터
접촉자
dl
항체
주변에서
신고한
배출량
이념
오케
##토는
모빌리티
부분들은
티켓
활발히
##락의
내정
##전부터
##초가
이라크
불쾌
동남아
시전
국악
땀
##류에
유전적
크기를
부장판사
1을
##보단
개회
##직으로
##례가
저당
##ph
애쓰
ev
fe
##웠던
지능형
세상은
형성되어
저술
경연
##int
##린을
국무총
좀처럼
##성적
오기
노원
차마
무형
포인트를
목의
정리를
위상을
18개
2기
카메라를
이루어져야
메이저리그
##위한
동호
대부분을
억압
잡기
없어도
##화장
범행을
##ach
인위
검찰총
##다나
하차
정의당
##치면서
중국을
하죠
본선
경제에
##입찰
직결
많지만
##케어
단계별
단계로
득표
3연
다자
가능하다는
발레
질적
분석하여
4월부터
주목할
##특별위원회
제21조
텍스트
##포트
##두로
##복구
자산을
가정을
○부위원장
조례가
많다고
1989년
원산지
동결
커졌다
중앙부처
가리지
학계
살펴보고
다뤄
##작업을
제37
1987년
넓게
##민주연합
시선
해가지고
여부가
인원을
##2호
31개
경계를
9만
##버넌
것만으로도
대비하여
중소벤처기업
##츠로
##상도
일상을
발족
문제다
1994
이전에는
공무원들이
지원한
신체의
##주어
파트너십
화해
본청
조건에
마을의
도에
못하여
##달러로
##었으니
의미합니다
지방자치단체가
독창
저자
##부산
상회
car
그리는
수행하기
핸
##락한
em
##내용을
세계로
p2
재학
권리의
○소방
취해
해준
lng
보복
보러
함을
노선을
전재
##건물
##됐을
##터널
강우
내년부터
지워
##버릴
1기
건물에
##ame
도시로
아니지
##무의
합의가
읽기
우측
달ᄀ
의원과
조율
산업을
뚜꺼
##께서도
부동산에
뜻은
##세기에
솔루션을
한복
복부
##경부
단절
수사에
힘들게
점프
카카오톡
이방
상황으로
5급
##더를
○감사
##생태계
##ock
압도적인
##스톤
초반에
##46
그도
##위원장이
날씨가
휴대전화
환경개선
들렸다
요청하는
있더라도
마늘
##교에
따라서는
##폭을
##ᆫ은
오락
##경북
아르헨티
학사
식민지
사용해야
신사
실체
극본
어머니를
조형
휩쓸
라면
##찬을
원인에
##나지
기체
따라야
놓치지
보도에
침착
달성할
##어머니
제출된
##안에서
##점유
쏟아져
청소년의
게이트
오르고
##공인
##카드를
손바닥
##공사에
선명
##계약의
출제
특화된
수요에
부추
온통
##심의위원회
식품의약품안전처
질환의
##정책관
더더욱
손님이
##되었기
부적합
조치는
규범
개정안을
300여
##날을
에서도
분노를
3분
##이동
알바
근저당
돌고
##블리
누나
생산성
공기를
수월
학생들
##올라
mri
들러
단체가
25개
두뇌
제22조
기능과
도입한
lg유플러스
##ai
레저
타워
선정하여
2030년
4인
거짓말을
치료하는
##시설로
중이
중년
##셨으면
극심한
예언
suv
보여주었다
##사진
개선하기
컨셉
수치다
톡톡
##하이니
사용료
시설은
##녀를
환산
높다는
던졌다
값이
과기정통
파일을
가이
장흥
##예를
표준화
##보게
##매입
로컬
행사로
예결
새로이
이르게
장애가
##물질을
신년
##포의
역동
보고는
아래의
##신한
동지
##강도
확인되었다
관광국장
거꾸로
저출산
자활
둘레
몰고
시카
설명한
포켓몬
툴
대공
##용은
##총을
##나라에
랜드
##당했다
덱
시험패스
아파트를
돌아갔다
지각
연쇄
핵심은
##주거
##증상
아뢰기를
월간
##어업
교직원
감정평가
환원
광범위한
통보하여야
○의
##사나
오리지널
초상
걸그룹
가로막
개선해
조직에
교역
가치는
##조의2제1항
1사
날인
1980년대
정유
인구는
행한
실장
힙
기꺼
시작됐다
봤습니다
달성을
재미있게
##리안
##길로
성장하는
부여하는
별개로
기록해
더했다
신은
치과
임진왜
정류
여건이
보고서는
경험한
바뀌는
##저런
##법원에
##정책국장
##사고를
예방할
부산의
브랜드의
송도
유학생
3점
신곡
독거
cf
종로구
잦은
취미
##예고
믿는다
앞뒤
극복하고
좋아서
정책적
##시아가
소스
농도를
기를
대목
##직업
마련이다
보여줬다
군이
ab
시설관리
대표로
꿈꾸는
인가를
뮤직비디오
뭐야
있기는
##통은
행위로
화제가
정직
공사의
연구기관
기능에
리조
##화되는
##채가
##됨으로써
보답
##당하는
예방접
##조제3항에
마루
친근
열대
예술가
언더
해와
오사카
요리를
##설치
##티아
##검진
중앙에
변경할
잃어버린
작품에
경우의
군사를
이용자가
사이에는
헌법재판소
전극
에디
작게
검진
법인세
##광이
위안부
적격
##단체의
말했음
반전
찌푸
최하
cm
아산
##회원
끝을
풋
부동산을
실패한
잊고
##ᆨ스가
높아진
##강에
##열의
산업혁
내부에서
자가격리
50억
##벨트
##사관
미르
도교육청
애정을
개인적
당국은
##티즌
못하였다
업계의
정식으로
도와주는
스카이
가평
눈치를
수립을
전하
전까지는
성장이
상세히
##민과
유니포
실정이다
적용된
나오기
폭로
금년에
멋이
사원
시가총
지내는
논란을
유지를
성장과
예술의
이끌었다
주문을
산악
측에서
낭만
##패로
아이스크
췌
##나서
드렸습니다
4급
상황에서도
##ve
마신
##당으로
달했다
백화
미국을
혐오표현
임상시험
옹호
연천
반갑
##탱크
##도지사
##뿐이었다
##골프
360
3시간
##78
해당한다고
운명을
##였을
자란
전라도
강북
출퇴근
##가에서
신상
범죄를
이따
분석이다
##모습
주전
정읍
국민과
##출원
파우
애정
보석
3의
##보라
##방식을
##대변
##셨는데
아버지와
양도소득
##화물
강진
##했는
##관계의
##일반
##설립
판매한다
틀린
밤새
각별한
발탁
일반직
대회는
모호
##망에
달성했다
졸업하고
##터에서
대인
##멍이
피부가
날에
##철은
단계는
소득이
사생활
##비도
베를린
지녀
##즈에
밑에서
바른미래
주체가
##중에서
경기도와
##5호
아저씨
##기술의
5인
##유니
부합하는
##졌습니다
직급
중에도
특성이
건설을
##지사는
교양
붙임
좋지만
라틴
사람이라면
해야만
설탕
정도면
갑니다
명할
늘리는
영수
다릅니다
##ᆺ지
쉬워
sk하이니
인조
##사회복지
9월에
금리를
민자
심포
ke
변해
불만이
전문가를
나라에서
일상적인
##맛을
덕분
재난관리
대금
총을
얼어
전문의
지급한
##방문
마련하여
감안해
##볶
차관은
아들의
봤는데
만나볼
##황이
연구에서는
##ᆫ의
성분이
외국어
수있는
성공할
##이라며
ro
법에서
속한다
전복
고난
국제사회
따르지
신중하게
아테
조성된
해소하기
필수적인
노벨
당하고
의원들이
예선
체결하고
##오면서
##타리
여건을
네티즌
뭔가를
lpg
되죠
활짝
의식이
발생해
##기보다
1건
리스
구입할
구성하여
어디까지나
남구
공유하는
자이언
##ᆻ네요
##타수
감자
나타났으며
접수된
당국
##ide
청탁
##마일
##주의에
주저앉
##늠
##적일
매장을
달려가
##쏘
##h12
##충전
나타나며
자동차를
##ational
사랑해
aw
##인이다
모스크
입었다
##바퀴
상에
fif
##눌
새정치민주연합
눈높
수단을
다다
##산성
##드리도록
살아있는
항공사
##제어
전쟁의
전투를
재배포
##서식
##저가
##판에서
15억
##어마
##조류
이의를
아내를
2는
겸손
댐
정량
##동원
뿌려
주셨습니다
##결합
##환은
환경과
추가경
성균
##타이어
대학에서
유언
도를
생각된다
뜻기
내뱉
신청에
3월에
아까도
os
##보존
총장은
퍼부
마케팅을
처치
세월이
그치지
패스트
농림축산식품
붙인
있겠는가
##3호
##겠느냐
바빠
데이터베이스
##진행
##티는
금요일
##금리를
##광을
관습
지정되었다
괴물
##녀는
##백과
이뤄지지
창의적인
이런저런
##셔도
자손
일간
들어와서
##3개
바라고
오전에
위해서다
성의
감사관
고흥
##래를
구슬
##배가
만들어낸
그중에
걸쳐서
행사에는
##으리라
##력발전
나서야
높아졌다
##지방법원
내지는
국민적
##렉트
담겼다
새삼
명목으로
싸움이
어플
○경기
연도별
특히나
발표하고
##ast
##구조를
필요하고
끔찍한
고품질
생각했던
##하자고
국왕
장차
기법
설령
20세기
과제로
쓰인다
가르치는
무방
동거
그룹의
서울로
주문했다
##공격
##커를
##물질의
컨설팅을
락
##매가
모양새
나아갈
##뚱한
상황입니다
##나들
술에
크로스
싸울
이렇다
지방공무원
떨어진다
가방
언어를
흰색
인물로
공기가
처우
제기할
위원님들께
##랭크
말하기
안은
##냐면
##동향
추진계획
퇴원
미흡한
수축
부위에
석면
도덕적
2가
가파
##결한
반려동물
##집의
나옵니다
굳게
쌓인
5조
불투
높습니다
죽일
질문이
##복무
##몬드
선수들의
재빨리
60대
lv
정제
레인
중점적으로
죠
세우는
##면역
집무
제안설명
시내버스
나만의
##고시
도리어
##터와
연습을
불이익을
서방
군에서
##였기
금액의
##68
##분권
배척
건강하게
##발로
각성
레전
시민과
믿음이
##민원
사이트를
선거에서
다음에는
##쉐
고요
etf
갖다가
밀접
쪽을
적에
##칼리
거세
관계부처
##불이
째
의욕
글자
가져올
##줘서
##대책본부
##파와
답이
제주도는
##덮
토목
하셔야
점유율
따랐다
부지를
타자
이어갈
접근할
##투쟁
대강
##졌던
##레저
수준에서
남아있는
제2의
연락이
해운대
##ry
##개시
올해로
벗어날
받아들이지
지원으로
협의체
##전형
##있습니다
mb
사임
한나라
파업
통영
현대자동차
고객은
이준
사업비를
한편으로
나서고
가져온
##오르는
##가인
시와
전한다
##국적
적었다
화순
연루
싶은데
##홀딩
거제
##연계
같음
##벽이
기장
##동맥
세정
##림으로
##ies
##들이나
요시
자폐
##디에
추상
관악
##것은
시작하고
재료를
보은
축복
걸림
보고서에
요청이
시책을
욕을
어머
정체를
발굴해
키스
타협
실시설
지점에서
남자를
규칙을
시원한
기해
유재
22년
활동과
월급
토요
나타낸다
##창출
감소하는
세울
과거에는
반응은
bmw
pdf
로부터
##팜
애초
바이러스에
계획이며
##매수
##무라
40년
전념
환경의
통찰
발생이
고종
기억에
못합니다
폭스
선거구
##때로
급수
보호에
with
모조리
##ᆺ과
우체
사회적으로
##츠의
2024년
생활이
남편은
지금에
깨닫게
놀랐다
ktx
꼼꼼히
직원들은
싫어하는
성능이
자와
늘리고
액체
향상과
승용차
포함되지
동방
치우
수익률
신을
탈북
박근혜
고부
귀한
비교하여
종류가
##하네
햇빛
코치
개원
##사상
나서서
재능을
기꺼이
1명을
6월에
벨기에
##사업자가
있단
추징
묵묵히
해변
경미한
판교
이리저리
심장이
텅
sk텔레코
##림에
퍼펙트
##장치를
장학금
하루를
##앨
말레이
물건이
상황이었다
인증덤프
##로봇
##옷을
적용하지
##솔루션
대마
##위치
##ly
일커
추운
후유
답변드리겠습니다
행정심판
##가게
영감을
까마
회의가
빚을
기출
넘지
축사
계약의
500여
아시다시피
디자인이
##상거래
자연환경
##미사일
102
강화와
최상의
살게
구축하는
##터스
노인의
가져와
ass
##등록을
초보
식습
묻지
##52
##파일
립
시급한
해병
경작
##약이
점과
이득
책에
졸업한
나열
동아리
20명
협의하여
이의신청
독자적인
처리가
종양의
기술에
확대와
##커스
민방위
오일
남다른
전날보다
좋아한다
단점이
미나
당기순이익
인구의
##오기
동물의
좋은데
##다녀
고기를
내각
소나
남성의
사막
왔을
##테리아
공평
꼬집
바다의
출연했다
해에
확고
스스로의
의회에서
##강은
운동이
아토
용량
칼라
후임
몰두
이용이
참여한다
해리
##db
위치가
우울증
##카이
##빌딩
숨겨진
fifa
짙
가깝다
##부부
net
없었을
버스를
중세
##훈은
경보
##59
##되나
##올리
보이는데
최고경영
##가공
내성
1위에
원도
함에
지키지
벗어나지
지름
능력과
부위원장
모델은
항복
고친다
치환
추가된
그중에서
##해볼
골을
고객들이
한번에
mic
##노트
번식
품질을
저수
##쪽이
과천
낮다
##경찰서
##바의
아홉
과거를
기호
아니더라도
대놓고
비어
재심
법률상
깨끗하게
속에는
##기간의
통보를
자연재해
얘기다
부인이
소진
벤처기업
##기면
##치다
각국의
생활의
##기부
##르면서
전염병
질환은
우주의
둘러싸고
##해주고
##정리
일이라고
##업자가
클래스
간호사
자영
열정을
손꼽
않았다면
작용할
영암
##피는
삼았다
차지한
인원은
dj
##그만
성동
소급
가늠
스트라이
질환을
##79
소장은
동조
##밥을
헤매
비정상
top
##우면
변하지
뜯어
이례
순조
##택시
강조한
가정에서
꾸려
cg
##노라
##ug
배후
살아온
##럼을
가리키는
껴
##i는
##곳의
중으로
일조
승격
순간을
챔피언스
##통에
파격
이끈
벗겨
##cs
로켓
##재에
연이어
안티
1970년
운영의
화면을
분야로
##경기에
사용되며
##날이
하면서도
관리자
알려지지
ind
역사에
코로나19가
##분해
하단
적정성
분을
아동의
##물고
사용했다
영하
온천
ag
장거리
대상에서
##ite
아나운
과의
##군다나
국제협력
모형
##교육에
##ros
어마어마
##센티
예산결산
bod
구하기
저자는
안건을
싶었던
구조로
듀얼
그림자
수해
개최된다
시민사회
발전시켜
망가
##족이
셀트리
블라
3주
사인
숨이
안착
이십
밀양
않았으며
수익이
이윽
설명으로
키움
##ᆯ레이션
현상은
문화와
##범의
건에
테라
원동
qu
교육과학기술
##교육법
반영할
여전
국정감사
다큐멘터
생각해서
##보호구역
##간다는
설정하고
끊어
##번의
포위
앞세워
전역
##진출
범위는
마을에
기관에서
생명과
재학생
표를
##되기를
고취
##브는
##기초
비용으로
며느
미끄러
인플레이션
훌쩍
##잡을
증진을
역할에
바뀔
col
##하늘
수은
기분을
주장한
##희망
감안하여
나쁘지
formula
벌이는
우는
움직이지
적재
성장에
색다른
##비용은
소비자들이
##전에서는
##공공
모습과
언젠
그만두
웃음이
답변은
##슨의
동월
벌어져
이해와
뾰
했었다
##ox
김용
230
뭔지
개별적으로
호소했다
합리적으로
암흑
선수는
##켓을
자녀가
##린다는
대해서만
이완
##재활
가지의
##가루
치즈
역할은
##들과는
지자체가
##다이
##겸
미쳤다
투자에
한국은행
100명
규모다
아크
바둑
##문제가
들어가지
되풀이
활동의
주당
##ᆨ스를
전달할
가결되었음을
##롭고
보임
○자치
사명
국정원
##칫
기록되어
##벨이
8회
키우고
차량에
호에
폭으로
넘어가는
카타르
모릅니다
##00만원을
참모
뜨고
##츄
마르크
일정이
제공하여
분명하다
타게
사후관리
하드웨어
기업가
시효
아모
서기
인간과
닛
혁신도시
제목의
5월에
전교
##일인
먹었다
##이라고도
c4
론칭
128
중국인
견딜
좌석
pcr
##대리인
2연
저에게
재래
좋다는
절단
아껴
##기본계획
전속
기운을
##암이
정책은
제4항에
소유하고
##500
근원
준비에
관광지
6천
도울
추억을
##즈베
기차
제의
159
흔적
움켜
치명적인
##yle
각국
7회
방울
방사능
##교육이
##권자가
##프레이
시절의
굴러
##널리스트
대화가
##법규
금품
명성을
선거를
수입을
평화와
마술
되겠습니까
##노는
장소로
##자유구역
버섯
##19년
기관지
##킬로미터
##하진
특색
##보살
농구
고인
감사원
강호
8월에
##활동이
바이러스가
##ᆺ에
##개발원
##뜸
해외에서
아바
클러스터
년이
연구결과
도로교통
않으므로
115
##경찰서는
##래프트
서울중앙지검
##bp
의회의
자동차의
남양주
카라
##지니
조항을
낮고
것이라면
부담하는
##닝을
권한이
일기
전자상거래
하늘에
##렇
##선수권
##per
깨어나
화재가
가칭
디즈
공격이
심해
둥근
공격력
##남부
수긍
한국당
넉넉
하러
재편
일러스트
##복지국장
제품과
아래에서
마찰
사례로
엘리트
##으로서는
대통령에게
민주당이
아시아나
##기능을
적다
닌
직장인
뜰
##돋
경신
던진
##됐는데
공격에
##킹을
송치
팬데믹
비행기
##통일
##용량
간판
힘은
어선
##00년
##필이
마이너스
##야는
자체로
지지하는
조직개
청구항
##광주
수익성
고성능
##cp
먹기
섞여
15분
다루고
실효성
계약에
헌법에
##개선을
135
지정하는
송부
##ication
콜레스테로
뿔
##라이트
인정받아
알려주는
익히
백두
사태로
크기는
말씀하시
1심
각하
금세
행위의
융복합
수변
지적한
상자
설정을
몰수
끼워
##데이터를
마냥
반영하는
퐁
의의
##들이었다
이해하지
적힌
7월에
lg전자
꼽히는
수없이
소비자에게
##든다
손수
불합리한
발부
##rayong
아니었
일반인
멈추지
노인이
##설은
21세기
##클래
거기는
동정
진정으로
가능해
화산
결정하고
##자산운용
선택의
겪을
걷고
전하고
왕복
온라인으로
제거하고
제공된다
성실하게
티셔
##vid
것에서
입단
투표를
증명하는
##정수
투자한
##피가
##47
비율로
원어
지나고
곤란한
병합
벙
법과
그동안에
친한
항목에
잣
##노의
com
아빠가
상권
부분으로
폭넓은
##곡이
하든
대내
발걸
식욕
##고로
##들까지
##오와
유지해야
옥외
상설
소리는
필요함
로서
제재를
안경
계정
작아
만들어졌다
눈의
##니스트
오렌
여왕
##애가
유동성
이글
부평
못했지만
거버넌
구는
투자할
변경이
##sap
시트
우물
침범
시험에
240
##중앙회
교회의
본관은
4월에
숨진
##종일
##회사를
생활체육
##오나
고독
있겠습니까
##표의
무상으로
숨은
감고
캄보
정체성을
세련된
경로를
의미다
##봐도
do
단원
22개
지내고
##처의
흑인
유감
담양
길어
수행한다
못한다는
##랑은
황제의
만하다
김장
폐렴
생산된
뇌졸
##ction
시청자
##협회는
##운동의
등급을
##장소
기온
예상하고
##시험에
펼쳐진다
닦아
다목적
공론
배고
못했을
없었기
없이도
직업을
기념해
생각됩니다
##내의
179
##궐선거
불구속
이마
##디움
선언했다
수중
측근
간략하게
지식이
중이던
제45
변경에
비용의
2000년대
적법한
항구
고맙습니다
##재배
게임에
고마워
참을
현명한
입건
읽은
##눔
스며
배열
석방
작곡가
추가경정예산
대명
리어
죽지
씨와
체력이
해준다
마련에
에너지가
욕구를
역사는
발생하여
미래에셋
주식의
##세종
1945년
부지에
조치에
소리와
만남을
##가능한
의사결정
##하더니
##ᆺ밭
때였다
김상
대표팀
##8호
들어서는
벌여
가처분
대가를
부응
재량
학급
##측의
올라갈
##건설은
끝났다
쓰러져
6차
생각하기
서울시장
눈부
급한
처음엔
수의계약
모자라
룸
건수는
##경제의
##대회에서
예정으로
선고했다
성범죄
##티가
##편에서
학교폭력
##클리
시설과
설립을
타인에게
삼척
본연의
주부
위태
라운드
인스타그램
국민들에게
이것에
##ator
믿음을
##매출
성장한
포기하지
kor
취업을
##특허
실태를
멀쩌
명예를
보리
##락에
##농산물
오게
##론가
코팅
안이
흩어져
##으려면
제24조
식재
깨닫고
프로모션
전방
농수산물
개최하는
수량
멘토링
기억하고
업무는
##업체에
부도
##중은
##율의
디젤
스타일을
조경
대회에
##표는
##길은
뇌전
쌓은
pp
##플러
성장하고
12월까지
전투에서
##레나
소지가
기록은
무의식
잘하고
사안에
계란
병력을
형성하고
##수련
인문학
##차고
작용을
서비스업
성적이
요인을
공식적인
쌍둥이
아아
##연습
쪽은
te
##ᆸ다는
제5호
부득이
공이
맞습니까
##인프라
야마
##셀로나
사각지
행정소송
워터
설명한다
##주의가
자녀의
받아들이는
아이들과
상처가
녀석이
iii
말자
##택트
곳의
노력과
##69
##관절
표시하는
추경예산
##6개
변수
머니
면모를
놓는
랑
##사단
받으면서
##드리며
##펠
길이가
띄는
##수소
수험생
있었기에
구조적
사망했다
이상적인
국가보훈
관해서는
더군다나
물질이
1점
다이어트
그쳐
##류와
코르
농사
손자
청주시
게임은
기회로
시킬
동작을
멈추고
##버드
확대될
상승을
##임은
121
깡
운이
떴다
데이터가
도급
포함돼
##저를
안개
부분이다
단독으로
미만인
제게
##밑
일본인
450
##ᆷ푸
팀에
하우스
##박물
추천을
부위를
말했습니다
##현을
방향이
카메
유머
규칙적인
##저감
정회
않겠다는
제4차
강화된
만나면
바이어
현실이
##영화제
##블릿
프로그램이다
역대급
##했으니
##공고
광역시
##해준다
3종
이야기다
급하게
보이기
##하느라
아니하면
##수수료
포획
노력으로
업데이트버전
##작품
분들도
보상금
기적
하지는
피부의
##72
장교
##질은
식중독
거기다
재앙
침공
시도를
포함됐다
때때로
배임
##츰
인디
따뜻
헬스케어
양해해
미얀마
모니터링을
##vel
##기후
##제출
##버스터
##마루
이룩
부담으로
입금
출품
채팅
근무를
모습도
공공의
##라와
##유로
개정되기
국회가
자발적
전문가들의
##캐피탈
##ᆻ거든요
총리가
교량
했더니
##인간
경직
변함
체험할
위협을
수자원
경청
업로드
##탄이
점용
행정처분
수준인
##300
##여부를
증감
의견에
팽창
어느정도
지자체의
요한
부서에서
발산
진료를
돌을
웃어
60세
고찰
부르며
간직
##하여서는
제2조부터
다듬
초창
소식에
줄어들고
##당국
##기록을
소개한다
love
##물품
이미지가
##리던
원상
법률이
##자격증
본부장은
부담금
당할
확산에
썰
임기는
##찔
이상하게
한국형
제25조
번갈
기습
경력이
학살
##ᆫ다고
흔적이
컴백
파크
##m로
진행한다고
한껏
##비행
경기북부
스마트시티
##stem
스타버
면적이
먹는다
정주
습격
저마다
움직여
365
##과제를
근로자가
추처
외쳤다
##쑤
##유기
만의
배경을
북한에
장애인복지
증상과
사외
부족하다
죄책
무서워
가려움
상용화
day
식품을
##방향을
12억
##케미
##꼭
##거는
향하여
해수욕
기금의
##부하
훑
증빙
돋보이는
##장학
금융위
하셔서
아군
##두가
밑으로
가뭄
##a는
진한
여기서는
이윽고
19세
잉여
저질러
전부를
##시책
외부의
연구에서
공무원으로
소외계층
##강점
은폐
변하는
추진하기
선택이
버그
경우로서
여성들이
##이었으며
들리는
지역별로
군수는
품에
부문의
4층
등교
의제
제42
전문가로
##차도
##자료로
##압의
이야기도
효과도
피고인은
갸
정회를
##진다는
##해준
##이었다고
않자
##본은
스마트폰을
min
안되
합창
집중하고
짤
##들처럼
넣을
한성
신성장
##킥
사회는
상공
대표자
문명
양성을
##추가
운영된다
이뤄진다
여인
않으면서
대구광역시
외국의
것과는
강하다
가능하다고
기록하는
마드리
##팀에
제3자
##나가고
주파수
상임위
기본으로
##야가
선정돼
신한은행
규모에
제기했다
##책임을
##레이터
##정화
##시각
##제3호
지리적
미미
하였는데
당초에
##리얼
한전
직영
##병상
제출하면
모여서
제조사
구인
fi
##교과
사라지는
소유권을
##도어
호평을
커서
1970년대
사랑하고
의사표
원자재
경위
도무지
##독립
##대부
쪼개
꾸미
##ater
시행된다
배부해
조별
##특구
도시가
판타지
창업을
않던
##젝트
플러
도로가
재정비
개최한
##거니와
에릭
의자
이데
피상
편에
예치
방에서
지역에서는
##end
##할때
말부터
##몸
규탄
송금
받았을
연계를
설치가
소프트웨
국공
올레
휘발
##연에
나타낸
가늘
의회에
명도
연구와
의안
##미술관
금리가
퇴적
예비후
데에는
케어
##생활에
##장려
환송
##채의
이하인
동북아
기점으로
방송된다
수행한
것이어서
공유수
##거래소
출신인
유희
##돌아
통지하여야
내버려
주인공은
per
적용될
듣게
방화
##념에
사회보장
개발제한
제품이다
알루미
면을
동요
##중국
필사
초중
최순실
주축
소수의
100만원
##중율
##넥
##사무처
마이크
다가와
1986년
cont
부회장은
마나
예방과
##그마한
##하듯이
거치지
##인지라
##ᆸ기
중형
기본권
남편을
김기
컬렉션
알선
업무와
##신용보증
저택
편성을
성도
##졌지만
##태평
명예훼손
제대
104
조례로
기반이
2분
##림과
청년들이
오염된
페이스북에
장마
범죄의
모리
여인이
연소
##ath
이유에서
##하든
건의를
##죄를
센터를
맞대
##건만
법률을
받았으며
실외
되었으므로
##ei
정글
육성에
속초
노력해야
본격화
됐을
기여하고
흐름에
##위원장을
건수
비트코인
di
근로기준
약속한
흘러내
깨끗이
지중
친족
빠지는
마련하기
##곡의
아내와
##wor
남원
협력하여
평화의
##ᆷ이었다
알면서도
##이었을
산학협력
중량
차이로
이어진다
가치와
##침에
##가면서
공사에
실전
에티
##번이
책에서
측정하는
저주
식도
시키고
##ᆯ리아
집중호
##ᆫ이
##제국
마실
리스트
왕자
대를
실패를
섭취하는
내재
표면에
##정책실장
모양이었다
비판이
이니
흑자
개념으로
9명
개월
블룸
느껴진다
##출판
해결해야
9회
##주시고
요원
평일
안전점검
본래의
##성능
도마
말만
끈다
##사업자의
전주시
차는
선서
알고리즘
유보
##방법에
달갸
개최하여
필요하며
##빡
스토리를
물질의
남이
우스
##거야
분자
넘은
영업이익이
일본을
톰
귀신
반영하고
선보이며
반등
아이와
##산업진흥
4명이
접어
kt는
자재
물놀이
쓰인
일본과
육박
##되지는
향토
개혁을
##사업소
확인되지
외국인이
4위
미스
않았으나
##ime
부상으로
손실이
울릉
##고인
메카
높다고
시작하면
검토하여
##끄럽
1985년
팬들이
##정부가
##임에
담낭
승부를
아닌가요
사물인터넷
슈팅
완료된
위원들이
cb
##환의
제기됐다
계기를
법인이
조치로
부총리는
gm
발명의
##준의
해야지
검증을
참여가
6개월이
##령에
데모
서비스로
조용한
##조사는
단체에
우위를
##표에
시상식
묻혀
정원을
농수산
감사하다
바다에
앓고
공룡
##프와
일제강점
아랍
소망
##두리
##책은
긴장을
경쟁력이
힘들고
##셨습니까
엔터테인먼트
단단히
##항은
##스러웠다
전망을
모방
실물
##득점
있으신
지시에
##단속
찍고
##행위는
위원장을
활용될
1993
군사적
인센티브를
##89
##트러
같고요
##71
크다고
검토한
행정사무감사를
페널
국토의
##값은
무게를
대주
##면에는
모셔
30개
기인
언제든
기판
##테면
퀘스트
박람
알아볼
다룰
간과
##000만원을
sn
쿠폰
끼어
면적은
대청
대웅
벚
법안을
김민
어려웠다
##틀러
인연을
보장하는
낳은
비는
뱉
제작을
태도가
푸틴
과정의
소유의
꿈과
##식당
즐기고
수에
부부의
신원
의견으로
충청남도
하자는
바리
곧장
인접한
단어가
청각
폭을
##했음에도
딜러
건담
감소하고
보조금을
style
개방형
질서를
명백히
몰리
##톤의
수로
##권자는
직선
##직은
편한
145
영혼을
##방향으로
제6호
재생에너지
유난히
접할
홈런을
김진
시행될
친구의
기금을
만주
좀비
장관과
상응하는
불문
있었는지
자산운용
볶
통과한
##실습
나오게
##휴가
##들끼리
것까지
감각을
경제부
##조제6
인터넷을
##서치
원리를
순찰
##ᅱᆫ
미혼
통하는
해석을
두터
죽이는
나중에는
핵심적인
종합하여
##ica
심지어는
##재난본부장
심심
겹쳐
##1일
발이
완화를
양상을
회장을
##론적
스쿨
승차
침몰
경제학
무너지
입문
##철의
이론을
살리기
디스크
찾아내
직계
세종시
대전시
보기에
##병과
말씀대로
##자치단체
갔을
##계획이
공간의
시드
서대문
존재할
##램
신속하고
응급의료
##변의
딥
경제적인
##돌을
시절부터
어드
잘생
제44
4가지
##교섭
달빛
질소
오후에
기반한
상세하게
선수를
건물은
선제적
##경으로
##그룹이
괜찮아
했음
mr
##휴양
거룩
상단
열리고
부분적으로
제시된
품질관리
드라이브
##76
무난
코어
##광장
식탁
##전선
결손
살포
바닥을
##콘서
##지하
##오게
계기
죄가
개최할
진지한
물과
저격
##려야
패소
원고에게
생각해요
핸드폰
처형
동포
하나님께서
연구하는
##컥
수단이
나스
##세권
처분의
##주의자
수년
별개의
##성군
##점도
소재지
출시했다
##yl
편견
화보
교사가
틈을
구축할
메뉴를
이온
아픔을
자연을
공급할
##님도
월세
칼슘
다가왔다
##물인
살펴본
넘어선
##조제5항
##네가
머릿속에
제3회
제에
##억달러
##수칙을
넓고
5천만
##사원
죽음에
시민을
##슨이
같은데요
##마당
##출혈
치아
##협력을
누리꾼
##테르
발전할
##픽을
12만
거둘
완성된
있지는
절도
수술은
##pr
화염
##주시면
##금액은
1960년
구형
##질과
발생에
두려움
타이틀곡
나간다
met
##강한
등록한
##디다
월평균
##hc
태블릿
잔을
##법에서
정형
해보고
상품은
칩
법리를
주민참여
발행한
거니까
중견기업
들으면
대표적으로
글은
헬스
줄곧
시ㆍ
##었지
있어서의
##스타일
요인에
지적도
자유와
##사각
감사드립니다
관제
제2조제1
적용하고
소유한
기술력을
하긴
부총리
체인
개정에
##업체를
##구멍
먼지
상고를
않기로
직무대리
목적의
##ok
원거리
마음도
##실적을
##키퍼
##되는지
주위의
농식품부
심부
투자해
코로나19의
참가자
불분
표결
분야가
입이
바르셀로나
##상이다
정의를
확인해야
가도
생각하게
##재난안전
##황의
고용보험
불과했다
용어를
기재되어
##종목
##란시스
말씀드립니다
##절차에
주먹을
상대방에게
4시간
##지노
부드
더듬
음식이
금융회사
##궁의
섞인
문자를
내세워
f1
lte
내놨다
공격하는
소멸시효
무너져
엄중
##ᆻ으므로
##학교에
##맛이
드러내는
인플루엔자
성우는
바뀌고
보여줘
펼치는
##렘
비즈니
오만
도전을
군주
2018년도
##비서
먹이
장애인의
이자를
가용
제보
생식
판사
테스트를
소주
부모는
부당하게
챔피언십
ng
거시
일각에서는
2위를
말라는
타카
의견은
평균자책
부부는
개발할
##제도가
##공모
직전에
자극을
##검찰청
##7개
가문의
생물학적
입각
반박했다
제시할
제한된
##화도
보수를
매몰
상태입니다
쟁점
자들이
아니므로
시작해서
활동으로
내디
장관을
덮어
아시는
승낙
섞어
##란에
클라
사본
전락
##하자마자
채권을
나왔습니다
미워
국민은
규정되어
##aa
결과와
환경영향평가
않았나
##86
##조각
탄탄한
마산
##달이
##ick
크루즈
움직이고
행동으로
기자간담
해라
관계에서
거거든요
##하겠음
평면
사무처
이슈가
성실히
##해라
##들기
원로
##주의와
##흉
우리나라에
comm
트랜스
세션
##중계
미국으로
사회적기업
단체는
궁금해
공급망
##막에
기대감이
자리로
##주차장
스트리밍
계량
스무
변한
##퇴직
하라는
영어로
부산에
cu
##여름
주춤
##비한
추진이
사건에서
산업에
지급하고
느끼며
##글라
##피안타
조속한
주권
##씨에
부분과
기업체
##ding
좀을
외부에
호전
순간이
설정된
냉장고
1급
귓
터트
뛰는
얇은
안정된
됐다는
빈트
주소를
pe
##hz
인허가
줄어드는
##선도
전략이
성격의
되느냐
일대에서
밝혀진
139
구축에
뜻밖
들려왔다
가담
##문일
##상가
괄
오늘날의
인상이
##서에서
상륙
비상대책
발진
달라진다
대위
##차와
##보다가
컷
둔화
간편하게
##반에
허나
갔다가
담임
신작
통학
남에게
자연과
##기일
경제적으로
세포를
카자
##증권은
2017년도
##본부가
##츠가
끝내고
말미암
##횡
피에
165
m3
알기로는
1991
개정규정에
휘말
##지지만
##색은
##순간
민간인
규제가
달간
펼친다
시스템으로
##질에
목소리에
2종
틀을
바나
강간
교육부는
누구를
계시면
예측할
공유할
##타점
기능의
예상보다
##텨
도움으로
잔디
##체제를
상소
현실화
##상품을
원하지
장소가
빠질
급변
대관
##베리
##쯤은
돌려보
##셈
조직과
법무법인
그로부터
바이러
조성해
싫은
경우로
옮기
누군가의
바우
##수업
우리와
##조정실
중산
본위원이
숫자를
우정
그러고는
무한한
각별히
부지런
과감하게
무소속
조롱
땀을
기재한
정착을
않으니
원코스
공부하는
질병관리본부
정선
##더는
노력에
않아야
보았
버린다
##있지
몰라서
바짝
##위원의
신뢰할
정차
세르
것이요
접한
재판장
입으로
보더라도
##연장
##혁은
전문가와
##ᆻ소
바디
106
##족을
##느니
고유한
##언스
태워
책임은
부득이한
system
##아래
여과
이를테면
11월에
부탁드린다
##맞춤
예전에는
받침
지속되는
총체
선거관리
종교적
많아요
나포
닉
고고
##밸
폐려
딸기
##희를
신고가
제27조
증가를
아들은
민원을
##상태를
사업주
로버트
서울과
가나
방학
예뻐
입지를
자유무역
구매한
말씀드릴
의용
월요일
둘의
보아도
이트
비하
##연수원
##행복
발전의
원주민
스물
사무총장
신청해
공개됐다
풀고
##만큼이나
도구를
실존
예에
##물었다
문예
##육성
현지에서
##조선해양
이득을
##타당
상태는
후보자의
양호한
왔고
미래가
파악됐다
정책으로
##청구를
##ᆯ리스
제41
##ᆻ어야
없었다고
현대중공업
삼성물
장단
분들을
어쩐
##이기에
스티븐
섹
드러나는
모집한다
기쁘다
##더가
상태의
##신도시
##율에
##사회를
때나
양적
11년
섹시
안정성
전기를
또다른
간접적으로
##리니
중위
알려주
훔쳐
제46
골고
들여서
##산단
##덤프를
눈써
보령
아름다움을
##분들이
환상
##사키
용납
사람으로서
자유의
질의하겠습니다
1천만
있는바
한다를
평가에서
고객들의
만들지
있었다면
app
2016년도
##ook
전격
원스톱
##시까지
연맹
2019년도
##빼
구성돼
주관으로
##책임자
gen
서울을
ko
오오
계수
시간대
구체화
분뇨
##공식
되새
늘릴
반갑습니다
##있는데
분들의
##목록
뭐라
##객이
##탄의
묻는다
##해져서
엇갈
##람을
##맞게
기법을
그런가
확인하여
우리나라가
맛과
##앨범
헌법소
대대적인
처분에
초빙
준다는
타이거
##먹은
##전담
성인이
콜센터
전남지역
3일간
방통
사설
리튜
차량은
방침이
노력은
보름
##판결
재산의
사업들이
대법원은
포지션
생기지
##요지
뱅
죽음이
발휘할
##파이어
눈과
평가다
현황과
호텔에서
팽팽
우뚝
복리
독재
지점에
그릴
판단한다
확보했다
다르고
world
기관으로
##움의
##백의
베팅
##구려
원활히
미주
##키아
밝히는
##병원은
대유
경부
중요하지
지위에
비축
했는
수산업
##미에
각계
음향
##분야의
경력을
데스
##과목
의장이
장과
어떡
##금고
##문화재단
노는
##교육국장
의원님께서
반복적으로
##약의
500억
존재하고
전립
관리는
넋
김재
마음과
종류와
가리킨다
영상은
삼성전자가
배추
사제
트라우
##댔다
일어
여기고
선생의
##지향
1984년
극복하기
눈치채
전보다
고을
좌측
##부여
##공예
종의
지난해부터
##혈증
##해결
##선박
##경로
이치
##분별
##현장에서
##레이트
과감한
창건
○여성가족
중심을
핵심이
##답을
상품에
지쳐
알릴
임업
후보자가
##모와
환경적
잠복
보도가
짜증
민주노총
##반은
탐사
##ement
무심
##자로부터
순이익
행정구역
제43
경찰과
세계는
전철
178
##터리
생육
피해야
건은
자꾸만
3급
갤럭시s
바이러스의
의혹에
인물을
주어진다
sl
속해
##주의는
##버스를
연기가
생태계를
##었음
커져
일본어
sr
##술은
산성
달을
sf
##궈
알리기
##더의
메커니
친구는
3기
연관이
집의
표시를
##사고가
구간을
만만치
상관이
결여
가습
##작전
종속
잃게
1루
태권도
긴밀히
내려오는
##일드
개정안은
##번째로
말대로
##랑의
##렸고
호는
느린
##박람
가마
버텨
예산도
억제하고
##타자
반영이
파악해
효율을
조그만
##병원에
##클로
1950년
익혀
받았는데
##증명서
sol
##괘
##템
##곳에서
##방법은
벌어지고
환율은
막히
##먼지
##참한
##부담금
##ᆮ날
##제도는
언젠가는
1세
맞추는
고안
제50
식약처
허무
##조에서
##워진
연면적
결핍
##브의
해소하고
엑스포
기대에
##혜택
유튜버
기하
여러모로
조성하는
내려온
청년이
반출
날마다
니가
입주자
경제성장
메타버스
매력이
외부에서
예비후보
쉬고
치료의
가는데
치며
##벳
알림
주민등록번호
농촌진흥청
8개월
sac
코미디
프로필
어딘
베이비
생각입니다
물고기
##강제
##상부
##급히
정신적인
경영을
진단과
사쿠
녹화
나무가
짠
사상을
풍성한
##창의
주최하고
##제3항
지적이다
음악이
회색
##례에
궁금증을
오디션
##올로
시민들은
주택의
대입
##anc
##원자
##놈이
반영을
억제하는
나왔는데
##졌다고
320
##플랫폼
##ᆻ자
개념은
외화
##해충
주석
중성
소울
원래의
103
전통을
기와
한다가
##ᆸ곤
##센서
##°c
오피스텔
상점
서두
##풍의
mo
패치
솔직하게
##42
문장을
갤러리
어느덧
업체들이
##생으로
존재로
깎아
장인
##병원에서
브라운
##전망
선비
##닷컴
캄보디아
안아
다양하고
전에도
##벽한
쿠키
마이너
관할하는
시연
접근이
접견
골프장
##루살
채무를
디아
일본군
5월부터
##래요
어깨에
##티의
##나라를
명단을
크라
다하겠습니다
고산
라임
학생과
지구를
##었죠
제도로
현대화
4배
상사
넷플릭스
##인력을
피해자를
형태는
이화
성질을
놀라게
엿볼
하트
벗고
절대적인
의도가
영리
불안을
호위
소통하는
능력에
일어난다
장례식
각오를
현실의
##4개
물량을
200억
표현했다
##닉스
이용하고
어리석은
이산화탄소
선생님은
갖추어
##업종
남산
확진자의
보증금
##회담을
부자가
사람이었다
역할과
감기
##브가
최장
사업비가
##근이
회의실
실천하는
##산업이
##저장
##암을
##보니까
내포
##하기까지
해줘
경성
지시했다
한국토지
협동
담을
김경
블로
비난을
##한지
전화가
왔으며
태그
이병
##밀이
캠퍼스
다우
##귀가
##상공회의
비자
부분입니다
사유에
깔려
윈도우
oled
재원
파일러
이뤄지고
175
조성하고
췌장
##대상은
지장을
바르게
정반
코를
시뮬레이션
어른이
웨딩
쓸쓸
소통의
무너뜨
못하다
관리의
펼쳐진
모아서
공격적인
말레이시아
선거운동
자리잡
희망이
박원
##바는
##평이
공연이
접근을
##2개
##지역이
##ome
과세표준
##최고품질
##창이
조업
팬들에게
네트워
조사대상
선의
순서로
##투자를
키울
지적하고
국토해양부
매장에서
판단해
sec
특강
총액
지나간
감소로
미루어
정비를
도끼
품은
위치는
행정을
##크론
브렉시
##유출
해적
##째를
##국어
은근히
##이치
##물가
저와
없으
받기도
사이드
자본시장
실적은
off
할까요
대사를
모이는
계속되고
##빈은
증가가
신규로
sns를
mod
노력한
들었던
40만
언제부터
금지하는
오바마
중국어
##비밀
##열은
뿌리를
의왕
국장은
예산집행
수준은
디자인의
##엉
건축법
2사
7천
a씨를
처녀
##경보
근육을
제26조
의무적으로
##도전
##상수도
증가와
농어업
##업자는
오디
부모와
통계를
##본부에
감사드린다
하루하
##쓰고
##컨설팅
des
사람에게는
##ᆺ잎
딜
1982년
사업자의
가능하면
##느라고
변동이
고령화
무작정
그러기
홈쇼핑
대덕
정도만
##도도
의한다
놀러
##점이다
사진은
이후로는
가설
절로
욕구
공직선거법
됐어요
##홈쇼핑
3세
입자
1973년
##ᆷ비
##과로
##치료를
여인의
내서
##모리
대상의
이래서
기사는
구속영장을
소통과
타고난
똑바로
언어로
산업이
레알
결론이
고온
호랑
조사결과
이해해
##form
조카
아님
스쳐
경제협력
풍속
때문으로
9월부터
모노
신진
##내를
통화에서
교육과정을
든든한
지속적
논란에
마이크로소프트
크다는
명령에
이왕
좇
내걸
단단한
부스
제1심
참가해
생생한
도자
##락은
갖도록
확고한
반대의
한국산업
##씩을
지원했다
백만
뷔
조항에
진전
호흡곤
진작
명사
의심되는
다짐했다
자라는
1992
##처분에
시위를
했어
##부분에
받아들이고
##사전
데다가
백인
참가하는
회원이
손익
팀원
##교육지원청교육장
##법인이
만들어내는
허용하는
##던데
000원으로
이후부터
태아의
건강하고
가깝게
기상청
경고했다
##82
시험이
천만
징계를
##ary
캐시
주심
관리하기
헤르
습지
의도적으로
8천
회부
연구용역
시장과
세계대전
중앙선거관리
##여명이
관중
추방
성추행
흐르고
##팩트
임진왜란
##가기
하구
사용합니다
소방관
재무제
##협의체
##벌을
김현
국가공무원
메신
거래소
이사를
경호
계속적으로
지적하는
##ys
울트라
이동할
드리면
2m
하하
감독과
나뉘어
##조정을
의자에
##체계의
보충질의
인지도
지정할
스스로가
##바람
입수
##하셔야
이뤄지는
330
싣고
마그네
않는데
통장
##올랐다
##레가
양식을
연관된
아줌
##했죠
15일까지
대응에
100년
##똥
부작용을
선대
스폰
##봉이
프로세스
##iki
소명
##율과
극복을
규칙은
b씨는
##배상
전쟁에
##끈한
용적
생선
번개
되거나
구의
다시보기
가입한
마당
치면
대통령에
사고의
서른
차츰
권역별
고민하는
##계약에
##랑을
제49
##훈이
##사와의
적용이
자궁내
cv
##포로
합의했다
강하고
형님
##커가
않겠다고
지방의회
6월부터
1979년
##태는
묻어
##사유가
번거
##층에서
오해를
심리를
삼는
상반기에
##적이라고
##구축
이뤄져
봉안
##제이
무리한
협력이
취급하는
미라
직속
약물이
##문화예술
골키퍼
##하셨다
유교
싶고
##수목
11억
악용
활성화와
살리
쇠퇴
korea
##믹
실패했다
증강
인스타그램에
의사에
지원하겠다
휴가를
슬쩍
수술이
##하였거나
구멍이
운영되는
계획과
나오면서
좋아하고
시청자들의
보도자료
구간은
조금이나마
골고루
던지는
선한
수출이
종업원
손가락을
절벽
알레르
주기를
짓이
직원들
스틸
조정에
식구
2015년도
드라이버
c1
##43
##교육은
상금
불의
평가한
독립적으로
##iss
신뢰성
이동하는
##메리카
내부적으로
분사
##본부의
활력
함정
포함됩니다
풍경을
1월에
방지하고
쑤
그들과
##선물
기숙사
천문
##장에서는
강세를
트렌드를
러닝
자랑한다
소홀히
목소리는
##ign
자로서
##백만원
사진과
도착했다
여성가족부
화면에
인출
대체할
목적과
행안부
##군데
혼잡
제작에
서로가
연차
추세를
산사태
성찰
명의의
키즈
정치가
특허를
할리우
크기와
사망자는
##점인
높지
##전투
집적
단독주택
##ᆸ습니다
이도
지속되고
수용할
올리겠습니다
##접촉
탐험
##서에는
기도를
마녀
##pd
오름
행보를
어디서나
##리도
코코
죽게
대리인
일문일
##분한
글과
의료진
##캠퍼스
원조
농정
##대상이
불완
생활습
##짐을
법적인
있는데도
이르고
방송에
당진
##시키는데
도입된
궁극적으로
승리로
범한
##막한
인삼
관광객이
거느리고
##에게로
농기계
음성이
자율적으로
보도를
정권의
일어나서
직무대행
곰팡
##사업자는
공개할
하사
##도시로
처리에
모두들
##김없이
시체
되거든요
##오카
처리하고
##었을까
##퍼니
아가씨
##ᆻ잖아요
빠뜨
알려야
대응하고
깨고
국립공원
공감대를
##메가
##기다
뜻풀이
제도에
특성과
끄는
개발도
마음속에
par
##하냐
소리쳤다
##세포의
서울중앙지법
미생
제28조
배웠다
체온
국제기구
찾아왔다
국세청
시의원
##조사의
예매
없었다는
9년
북극
무엇이든
극단적인
##스토어
##디스플레이
생산자
part
영조
최고기온은
못했다는
독보
횟수
랭킹
의원들은
훈훈
여타
##경쟁력
당면
##판과
여쭈
##보이
2월에
공허
의도를
필요하면
취소를
구매하는
근거하여
하반기에
공문을
소득을
##크와
책으로
국내에서는
보였고
성북
좋음
인도의
##음료
입안
과정과
아픔
##회의에
위험성이
과거와
운동에
텍사스
메이크업
가족들이
정신질환
아니겠습니까
통화를
떠올라
배에
얘기입니다
유진
##했음을
불태
조사해
오프닝
##인기
용병
기회에
성폭행
##상위
##합동
뒤에도
##츠와
##ere
연세
간절히
지방에
마찬가지입니다
들어야
정치인
##억원이
분석하는
가성
##자라고
토마토
정서적
##사다
##전략을
##길래
무대에서
촘
디저
울음
도립
##석유
소설을
##부상
사항과
기여를
하시면
##ian
주역
올림
번호를
팬들은
##ᆷ한
##맞이
찾는다
이룬다
1도
##뤼
외계
합의에
요소로
낮추는
브랜드로
기초생활
명칭은
제3자에게
자궁경부
은혜를
등극
않는가
전달하고
시카고
##스에게
경전
근로시간
##ᆺ고
고래
지역개발
상대방을
##공사에서
##ain
##영향을
av
##째로
영향은
##틀랜드
bt
분주
##애는
정치권
친구와
급격하게
정년
손목
심상
뿐입니다
방대한
체계적
신용보증
이전을
구름이
본관
누설
##외의
항고
##졌다는
치료할
염증이
##업계의
##조사가
##례로
hs
맞추고
##활성화
이시
사가
제29조
낙후
높아지는
갑작스러운
550
##량도
일자리가
##원장은
춘추
상태와
보낸다
부과하는
수사가
서정
나을
예견
멀리서
##테크노파크
명명
올라갔다
본의
삼가
○자치행정국장
예루살
좁아
##주에서
오존
부산시가
언급하며
봉사활동
유능한
2020년도
맛집
체제로
하여도
벌떡
청계
서초구
동두천
온도가
블룸버그
살았던
힘에
요구된다
떨리는
##구치
lg전자는
무분별
수장
남편과
탄압
협의해
고객들에게
##완벽한
공화당
ks
확인합니다
2건
뺀
양성평등
띠고
연초
채무자
수계
보편적
됐으면
##리거나
밝고
제출했다
복권
동원해
샐러
이불
금액으로
벤치마
##저우
중이라고
##발명
갈색
대꾸
공손
##금액을
서문
있게끔
운영위원회
아낌
레전드
##처리를
##테스트
증상의
계획대로
차례에
##퐁
인연
세인트
평정
천식
영화에
약탈
죽기
주민들에게
측면을
꿈은
##ᆸ터
국민건강보험
○한
##액과
##단체가
밀고
##흙
지점을
경제활동
대구경북
수출을
결혼식
##3000
발광
따를
물적
한라
##절기
네오
kb국민
공동의
자원순환
부적절한
수제
베테
클레
메탈
객실
##ᆸ스
제치고
##노동조합
##소스
간격으로
감정의
치켜
신한금융
중남
##임용
거짓으로
##바닥에
일문일답
205
포함하며
친일
부모를
굳건
달의
용례
ipo
자식이
다니고
##섭을
아비
보십시오
벌을
않겠나
말씀에
꼬리
가정에
있기도
했고요
자체도
브랜드가
바란다에
cnn
4단계
국민안전처
첨부하여
일대에
불려
고려하지
젖은
##동계
그때부터
데이비드
의상
##히며
예가
돼지고
되고요
구조와
제한하고
그분들이
##자라는
발생되는
정보제공
따르고
연예인
##다시피
준우
닐
8강
비누
말없이
설명서
상당하는
팔당
퀄리티
저탄소
발명은
직관
최적화
mp
희망의
최후
알면
카를
지켜보고
##리아가
##론으로
하소서
통지를
##타와
사업체
은은
구성한
증원
체육시설
출입국
의구
##당국이
##님께서는
맺었다
잃었다
그레
의는
일만
주목받고
누군가를
엉뚱한
kn
했었는데
자각
굵은
양천
서비스와
저녁에
배럴
그랬는데
나름의
이튿날
내놓고
동계올림픽
##ᆺ수
##전에는
##남용
사회적인
##손해
##영역
불규칙
산란
증거로
마련이
상관없
자영업자
정권을
##오자
##엄을
우두
도입해
아름답게
질러
1500
##기준은
사이트에서
1승
##납부
##dr
공자
계집
간격
183
난이도
##임의
문제입니다
도로의
냄새를
##gm
유령
코인
지난해에
보내어
##딩을
왁
red
##백은
내주
##당해
##등으로
##8년에
소속된
아이디어가
반하는
브랜
자식을
단숨에
피지
##네의
##죄가
상대는
자리는
여기가
사람이나
선수로
불안정
##야를
물량이
이루지
휴대전
도지사가
##공기
사례도
퀸
감당할
한탄
안전성을
휴업
에이취
증권사
스테이지
보던
피청구
알칼리
지금껏
##견은
##채취
반복되는
유가증권
사다
기간제
지그
204
구도
목숨
지날
##물이다
산은
참여자
찬양
접근성
한가운데
##사지
모친
농사를
라이벌
구매를
주문과
협약에
텃밭
노리는
직거래
생산한
##월일
적기
추종
단가
##품은
의심을
성균관
유수
##했지
전년동기
가금
나비
화제
노리고
##청정
##94
##게는
##외수입
썸
허벅
질문은
묘한
부는
증식
##겠소
끝나지
무공
입어
이야기로
올라왔다
아무렇
현대의
잠깐만
##경험
호칭
독립된
##숍
획기적으로
칠레
조사할
신청하는
##필드
##태평양
불펜
채집
민간투자
시대적
아쿠
노골
해석이
##초의
낯설
##work
마셔
경비를
##인수
문화관광
표현의
땅에서
경합
유키
유휴
개선방안
##olog
교향
##태의
봉인
피터
로비
경기도지사
##ax
하기에
후보에
눈빛으로
##시픽
##아아
말처럼
중요하다는
제36조
두려움을
○기획관리실장
당당하게
정조
조사되었다
##문제에
거란
##출자
서로에게
지혜를
계통
불균
기상청은
기준금리
##재산의
부당이
##송이
백성을
동영상을
몸에서
중이었다
##들이는
은행의
스터
당대표
학기
옷이
##학급
##호르몬
사용자는
국내의
사태에
협조해
사람처럼
촬영한
양해각
창단
겪었다
그러면서도
극복할
##원도
눈에는
지배하는
132
##복지가
##조의5
보이게
##계약이
##보증금
##ood
제33조
계실
##샷
지난해보다
##산업은
취득하는
꿈의
끊임없는
##관측
더이상
요동
시작하면서
##기업은
위해서도
신라의
바늘
천사
##line
타인
번은
티브이
대응해
일상의
인정된다
##국제공항
##요인
생각해보면
무섭게
양은
피해는
##6년에
했지
격파
연속으로
낳고
##글로벌
5위
##ber
##합병
##조제1항제1호
다는
위원장의
##근거
##지라도
##시죠
해왔다
원금
시멘트
##소독
않으나
자세하게
대중의
우량
캐릭터의
제47
##언더
##층으로
제기되고
거리는
인용한
##색과
맡는다
절대적으로
쥐어
##소비자
개인정보보호
##면세
##할수록
##영과
소속으로
부안
되나요
할로
##학교의
증가하여
하기를
해결하고
pop
것뿐
방패
1963년
사라질
##제안
원화
##매립
변화로
##여행을
##2일
한국농
숙종
파기하고
부흥
나눴다
주기로
에버
손잡고
보탬이
##ank
삼성전자의
인슈
추진될
군을
민사소송법
오가는
부산에서
구부
우려되는
확산으로
노래가
서포터
정령
통역
##말라
계약서
##달러에
영어를
##거래일
기여하는
장로
##네는
은평
친환경농업
컴퓨터를
조언했다
##스퍼
비를
산입
공개적으로
흘리며
독립을
많았습니다
모스크바
시끄러
##군인
##노스
##머리를
카리스
판단되는
꽁
모로
발렌
달렸다
모습이었다
영향력
그려졌다
##ult
##키지
관리법
예산과
축조
출시를
실수로
게을
국가안보
건설교통
감정에
155
##지부
##구제
안방
약혼
인생이
이동을
구출
달리고
안정성을
여론이
나뉜다
gre
out
##포털
내용입니다
다양성
모델의
한참을
비롯된
act
v1
관상
여성들의
##시스템의
1960년대
127
그동안의
##ont
1981년
블러
견뎌
##꿔
선관
운영하여
털어놨다
##쫓
##de
시크
출고
농담
딸의
학자
생명이
2108
그을
##심도
않고도
부동산의
동남아시아
##다의
알뜰
적용되지
##빈이
당초예산
sns에
질이
갑작스럽게
설정이
아이러
30명
작성된
선생님의
거기에는
##좀
유세
##바탕
##엔에
촉매
완화하는
##웅이
##혐의
심근
산업단
데이터의
상임위원회
표창을
##케미칼
h12
이토록
##무형
트렌
##비용이
5번
19개
대응이
정보통신망
미팅
프로야구
그중에서도
교감
드린다
편을
##되었다가
건조한
오렌지
확대되고
##겹
어음
고아
공장에서
중환자
빌라
철학을
효과로
벚꽃
##조건을
##청사에서
기간의
이야기에
##산업에
소방안전
읊
##테러
그것으로
##웰
12개월
상황에서는
합의한
행정자치부
##나기
##경련
##7년에
반란
컨벤션
장면은
##위성
법학
대학이
스킬을
나루
문화재청
금년도에
순위를
기초하여
질병의
그은
##질적인
##피의
15일부터
##비트
##검사는
보호할
시정을
##포는
생활환경
러시아가
미소가
열흘
알아보고
지향하는
wiki
바는
개도
번만
주민과
있는지에
##모집
즈음
내진
만난다
##품종
해본
유량
뒤덮
황제가
##덤프는
최고위원
더러운
tech
창의적
kbo리그
3으로
조정이
진공
많으셨습니다
리듬
주장과
##체스터
관계의
150만
할머니가
##해보자
##리티
거침
창을
유배
필요성에
가족은
하류
낱
예상을
지방이
##말에
송신
뾰족
##넨
인생은
거부할
기절
비료
##말의
복지부
단말기
건강관리
##텐데
최소화하기
스피드
추첨
때문일
특수교육
##들지
통틀
123
학교와
증액된
랜덤
에르
인간에게
##분석을
식재료
전남의
재판관
향상시키는
##전남
우즈베
기생충
b2
암시
들었는데
서울시에
릴레이
바라볼
실시하였다
바람직하다
서는
국가유공자
제34조
상대에게
떠오른
##거부
심야
압박을
2를
출마를
##닭
수하
원통
그것의
공공시설
스펙트
개표
##매일
첼
한국전쟁
16강
##4년에
나스닥
##시기를
했다면
청년의
하셨다
최저기온은
그렸다
부설
##묻
한정된
1주일
아인
바이올
달러의
칭찬을
구제역
##bm
관념
##동부
제37조
이것으로
하는데요
##상으로는
내려앉
마찬가지였다
말미암아
##fl
열거
감행
드리기
직업훈련
부문에
rayong의
한한다
##미르
진열
지금까지는
##국장님
운영은
먹어야
인천공항
bi
태도로
드러난다
최상위
재건
##절감
금액에
계십니다
갖추지
브레이크
있더라고요
##데다
분장
퉁
아주머니
직원들을
센터는
##cr
서운
온도를
이전부터
##ics
버거
산하기
괴산
##십니다
##노가
김수
4년간
2021년도
일깨
##하기보다는
##전달
##졌을
제48
여유를
##두면
다니면서
심폐
공동대표
##하겠지만
접경
쓸모
투명성
높인
그렇기에
2020년까지
자전거를
지팡
행감
양파
추천하는
말하였다
구한
활기
##죄로
요금을
와의
표했다
##삼진
달러로
끊이지
##8개
##적에
교직
펼친
안내를
멤버들은
##공사와
재수
살림
레시피
##농장
##어링
엄격하게
최고경영자
##시청
밝혀지지
않겠습니까
##타입
조성할
운전면허
위협하는
중요성이
토지이용
○평생
나니
나만
팔고
논의하고
##상인
판매하고
시즌2
의회가
차차
##중간
돌리고
##67
공급하고
르네상
발목을
개발하여
도시에
아쉬움을
##ᆨ의
스노
지원도
만들면
부사장
오케스트라
아시아나항공
촉진을
외형
수요자
임금의
패밀리
기준과
싱크
일주일에
올리며
사회서비스
활용이
해결이
이제야
어미
다방
오너
대구의
##거리에서
굳은
방사성
나이를
20일까지
어린아이
##궁을
작업은
시진
정면으로
비점
107
촉진하기
보여주며
하나님께
강화한다
##카메라
참고하여
유형별
수위
방재
양양
덧붙여
산단
졸업생
단위의
놀랄
##행의
대상인
자치행정
얼어붙
##펌프
일시적인
##감치
철새
##측이
엄마를
만들겠다
자발적인
이을
피자
데려가
시신을
##진강
우리은행
유지하면서
쿠데
낙관
심리학
촘초
13억
장관에게
거부하는
##업자의
소재의
##게이트
인텔
단양
usb
어필
##증가
##군사
제공하며
준비할
연방준비
##설명회
##근을
11만
10월부터
영역의
치른
줘서
제사를
우리들의
마약류
사신
내국
누르고
희석
선택하여
잠재적
##mi
수화
천지
펼쳐지는
코엑스
기부금
잘할
창문
드러낸
##등급을
##경기를
많았
보일러
지적해
존엄
브라우
회화
불편함을
이색
보궐선거
##내셔널
위치와
인연이
만이다
집단의
잠겨
변호인
주에
코로나19에
##틀을
낫다
시속
장치가
요인은
##적이라는
증정한다
휠체
주면서
마리가
계단을
불에
##했기에
평을
어려서
전문인력
가속화
건수가
세입예산
10시부터
알았는데
혀를
처해
##뽀
질환으로
계시므로
ny
이기는
도의원
##받아야
옮기는
##교육원
2가지
선택하고
통계청
이야기할
보장을
제출하지
이틀간
##구청장
경구
회기
##개발을
##ory
체계가
부당이득
필기
둥글
시작했습니다
애널리스트
들어가기
2014년도
광해
옥천
##1개
유나이
풍성
##치도
##안고
성주
지정하여
##참가
##상황에
전액을
씨아
출혈이
일종
청소년들이
##라비아
해볼
되었지만
청년들의
전향
성벽
적에게
길이는
##수질
연이
해당된다
##손실
##겔
##순이
생산에
조성과
절차는
거나
문화에
없애고
##c는
빅토
따뜻하게
##아파
메일
하룻
##요건을
안건에
산업안전
넘겼다
들어섰다
서열
뒤의
대처할
짱
앞바다
업소
국제적인
판매한
안정화
옛날에
레이스
##상대
따지면
물로
개정이
특별위원회
항소심
중얼거렸다
생각하
변명
##품목
##베스트
민주당의
채권자
증상으로는
가문
마는
##센티미터
확정했다
##중지
법률조항
##업체인
모티
##카드는
애로사항
유상증
신학
보고해
우세
법사
비핵화
ha
섀
##난이
학교급식
실장은
##adi
꾹
열이
게스트
결합한
넘어섰다
1m
같기도
##본이
채권의
추천한다
흔적을
1983년
국공립
##적중율
차용
회동
커리
닿는
초부터
쉬지
동안은
범죄에
서산
국군
21개
꺼냈다
육아휴
친구들
##4000
익스
감이
행정의
넘기
##학과를
유격
개발자
방향과
대신해
6조
정맥
자신감이
판단하여
관객을
##않게
명실
주주총
##극장
멸종위기
1과
동래
초청해
##부도
규율
교육생
##시키면
스태프
대수
선수의
플루
원숭이
시험대비자료
##보겠습니다
관용
총력
현실은
##빗
##정보화
가방을
##조명
##세액
##프린
이대
필살
조사와
남기
마련해야
옮긴
순매수
다양하다
제도개선
플레이를
##보면서
##거늘
이씨는
분석에
전립선
전광
##성이나
##발전에
연구하고
후보와
##서류를
마련되어
나가기로
노력했다
##아니
##제주
##버섯
함평
관련되어
129
##ᆯ레스
혈당
표현하고
잊을
2010년도
나카
마법을
신고하여야
sk텔레콤
##무효
우월
##카운
드러내고
pb
마블
##렉터
##예비
황태
다르기
제41조
격차가
집단감염
항문
인정되지
차별화
##동력
계류
반기
활용하기
소의
갖추어야
해온
재촉
##때는
쓰러뜨
돈도
중금속
##샘
제수
##당시
##이었기
구입한
고액
잘해
북서
생산이
##oud
##국립
##오며
##외과
##뚫
##간히
예는
제31조
제왕
15명
어머니와
공정을
1990
##뿐만이
생방송
##라이더
거슬러
##타당성
정전
세수
순서대로
보고하여야
##뿔
실명
벅
팀장은
참작
진행되었다
자연스레
진단은
사촌
##소녀
##품에
과정으로
펑
인물은
수질오염
그려진
입상
발견됐다
파악한
3px
기대하는
환매
속속
지침에
mvp
##협회가
##기업으로
취소할
##화에서는
##노이
여느
##역량을
알라
심히
##예약
말하자
집안의
포함될
질의하여
상품으로
쳐다보았다
m2
선순환
##술이
##옥은
애로사항을
대문
운영한다고
박혀
동일하다
기자회견에서
##직의
돌진
달라지는
##거주
중입니다
경남도는
획기적인
퍼포먼스
할을
준다고
대상자는
논문을
직원들에게
발발
스페이스
남게
식품위생
지탱
##바가
편익
공약을
##돌았다
단체를
과언이
공휴
##ᆷ이라는
가지며
##름한
수행에
전자정부
근거한
##ower
아름답고
유익한
##6000
비명을
발맞
축제를
벗어
##미세
참관
구성했다
##면접
하나님은
##보와
통해서도
주제는
지나는
근무하고
조장
오류가
카드가
기쁜
전반을
선박의
검은색
##물며
수립하여
거행
점수가
카트
의료급여
서북
위탁을
면책
발전소
덤프샘플
국장님이
##공무원의
그것이다
법으로
대상자를
언론의
##uaw
##af
자외선
호랑이
##티에
시행되는
유럽에서
메이커
바람직하지
a형
##저의
##파워
제출하는
은하
웨스트
##ition
걱정하지
4분
##어촌
6대
작전을
숲을
중원
재사용
파이어
걸어서
탄도
섬세한
선보이고
정리한
즐거워
명칭이
##uawei
목록을
사무관
섬세
1962년
햇살
땅의
사법경찰
wto
##시도
많았던
말씀입니다
##덩이를
보려고
영월
##권리
악몽
scp
114
항일
쓸어
바이러스는
관점
구조의
얼룩
문구
챌린지
##편은
보스턴
운동과
과학기술정보통신부
##예금
누르면
영향력이
##배의
놓지
충분하다
명시된
아시안게임
되나
혹시나
움켜쥐
어휘
현수
제30조
의미와
찾아오는
인용해
수필
불고
야권
삼촌
투명하게
프로듀서
지게
##부사
##날레
박살
노출된
선언한
반찬
증시가
울산광역시
이상에
지난해에는
질의하신
보이기도
싶으면
젓
전출
분도
세대의
행자
##플로
결정된다
역사적인
쥔
제목으로
선정할
짐작할
베스트셀러
강을
입장은
쓰다듬
28일까지
한다든지
존재는
뛰었다
사무소
마리의
정상에
노르웨이
꼴이
번갈아
##진로
김제
튕
쏴
##해지기
정원이
구절
입주민
테니스
##특성
개발제한구역
##성분
##심하게
##ink
결혼이
기념식
질병을
일으키고
##회생
인계
기재부
##정부는
이름도
왼손
핀란드
모임을
제출해야
논의하는
##행성
파열
극도로
거래되고
햇벼
##교로
##민들이
##모음
순이었다
##조작
장으로
적중
아오
##주사
함경
보호법
##회관에서
연꽃
증발
없었는데
현명
진출에
bac
후지
봄철
##해달라
##후견
필라
##리아의
전용면적
##lo
오른손
##학술
회장과
청장은
##증후군
대내외
후반기
현실에서
지자체와
들어오면
##현황을
기쁘게
##담보대출
ws
##이익을
정을
오이
##해주세요
고부가가치
##관제
개선될
타율
부분들에
식생활
구분이
경위를
##네마
께
##4a0
과수
접착
해결책을
파악이
지금까지의
프로젝트에
##까진
캄
18세기
패턴이
댓글을
##실점으로
판촉
근래
시작은
행정기관
##라기
최적화된
유방암
○농정
재산이
정례회
hy
##일까요
뉴스를
배치된
게재했다
회사와
직장을
참된
농작물
##보고서를
진리를
##안마
##재단은
협상이
궁궐
5차
##바겐
교육장
평가와
선생은
가상화폐
잃을
백악관
##해수
보도록
광학
##요청
과장은
##덕을
박테리아
맑고
##56
공탁
##공단은
이양
차원이
홍성
느껴질
skt
산에
제주시
전환하는
##가격이
1세대
##정에서
아니오
##모듀
##됐으나
공연은
2명을
기득
##르를
성장세를
소득세
부여하고
하자가
개구
원까지
방수
물음에
받았다는
내놓았다
카운터
##기야
신분을
찍는
##뜬
내심
##시설에서
조항이
연신
확대로
##더라고
표현은
결단
##합이
있소
##제나
화석
총기
추진한다고
짚어
가락
유병
감소를
##린과
발행하는
조정할
지표를
선점
오키
들으며
라이선
스티브
##범은
급제
모시
무제한
콜라보
##듣
라인을
히틀러
평가된다
삼성은
##ci
##것으로
팔로
##제품의
밀어붙
자긍
추진과
##계획서
개최해
##cma
##가격은
##컴퓨
추첨을
밤의
치를
넘긴
기록할
아우르는
뚜렷
형성되고
방해하는
거두고
명시이월
상수도사업
##복지가족
부록
업종별
구멍을
하급
##증권의
생각하세요
##지원에
또래
##트럭
물으셨습니다
국립중앙
nr
상계
##맨이
ft
검체
이용하면
##링크
까닭에
무신
168
##방과
설비를
문화유산
##수집
반문
브이
3명의
##승의
반영될
##퀘어
안테
이야기하고
##팀장은
무죄를
알루미늄
##다보니
##즈마
투자자들이
터라
##5년에
적절하지
색을
앗
162
기획관리
대담
나보다
위상
판사는
##창고
##자료의
##딴
호테
##보조금
iv
##대도
##커머스
누구의
두어야
북핵
도시에서
낙하
거두었다
블라디
공짜
다르다는
##자이
##결정에
10만원
개최했다고
액세서
##에게만
선발된
하계
조영
사항으로
금융위원회
촉발
행성
밀폐
5명이
##스태
부서에
지정해
해외에
모기
개교
코트
삼십
적자를
시간당
##척이
상품권
막판
씹
압력이
##ᆻ었는데
##개는
손잡
보건복지가족
슬러
##묘하게
평생을
금메달을
의원도
자가면역
솔직한
소방공무원
구하고
##형사
파이널
반부패
산이
채굴
진행하며
##톤을
붙잡고
##뻔
시니어
##여금
만족도를
성분을
##계획은
소비를
대박
##라고는
##다를
##중소기업
멧
헌혈
##물질이
공신
감성을
5개년
##이노베이션
○의장
운영하며
조건부
배로
##번을
측량
치료하기
맡는
한반도의
##구역을
고위공무원
발표하는
해외여행
##하였지만
당나라
##갑을
##걸리
##불가
밝힐
공백
신조
동문
밀레
다르지만
넘어갈
##8000
가던
##공산
##억이
하루가
돌아가고
가끔씩
신천지
이름과
무기력
bb
시력
현물
부과할
##꿀
국회를
건강기능
쿵
마을에서
##저는
##제철
결합된
새벽에
자부심을
증오
##사회적
그림은
헬기
5도
한명
##변동
데미지를
##끽
희생자
닮았다
유형을
강철
##셨던
피력
속삭
lg화학
단연
묶여
초대형
우아한
버는
가족관계
##지사가
킥
##클레
셀트리온
혈중
왔다고
##의료원
보고한
베테랑
2점
##po
대나무
운동의
트윈
##리칸
오징
여성과
판매할
##자리에서
깔끔하게
면세점
저조
지역적
둘을
파악하여
covid
4주
거에
구례
폭넓게
결국에는
갖췄다
소실
본질을
##위원으로
자기들이
##자료는
우리나라에서는
제작해
통합을
사우디아
지금처럼
앞에는
우려도
##분야에
대표이사는
모서
여동생
체코
도시가스
높아져
내밀었다
##해지면서
일삼
여호
배타
산후
했다가
있냐
섭취를
요양병원
김정은
될까요
침대에
나가면
새겨진
구축하여
마법사
깊숙이
##있다는
비주얼
##의사
보기는
일고
##건조
불상
태도는
챙기
주셔야
##하였으므로
해명했다
박수
행진
저온
유공
결과다
나와야
##적이지만
유력한
교재
살펴보자
설정한
싸늘
건설업
5단계
발표한다
도축
진천
형성을
애완
##인이라는
제32조
탄생한
부진한
행사에서
겪어
균등
그리스도의
하필
중첩
처분이
하나요
킬
##워치
##네스
##프란시스
##규정을
##추를
수입은
향상시킬
갯벌
위에는
조현
태종
방문했다
늑대
현관
전년보다
흉부
궐
##해지면
정중
무주
옥수수
##개에
##권자의
충실한
선택해
사우디
모던
제1항부터
되겠다는
영의
##축구연맹
세일즈
시절을
입구에
구획
관련되는
힘의
##정보시스템
책임지고
예방접종을
##63
개화
말이지
놀고
공수처
##9호
##▲오
두들
했죠
모델링
장비가
##법칙
성장률
##비즈
여러분들이
낭독
뛰어넘는
ost
##4호
주재로
남성은
불가피하게
##ake
맞붙
금메달
경악
규정의
나가지
나이는
한식
##상태에
의견수렴
반하여
개정으로
##시험덤프
종류에
자궁내막
시너지를
##것입니다
성장했다
대사가
정이
인슐린
##엔터테인먼트
것부터
것들에
뻔한
일체의
보호와
##범으로
학교로
소개한
쾌적
수돗물
ls
##7000
재확인
못한다면
멍하니
이목을
2년이
그간의
더운
계산을
b씨
재구성
13만
한모
사안이
노인은
사이트에
##뿐인
걱정하는
영산강
6월까지
꿈에
gu
아기를
바쳐
필드
커지는
휘둘
받았지만
실험실
##교와
향유
숙지
##인지도
낀
##산업과
그리워
실현하기
봉사활동을
일방적인
새겨져
킨텍스
7개월
보시고
경희
원하고
##중에도
작물
공간은
찍었다
바지
걸린다
알아채
메시지가
쓰레기를
본인도
##이긴
종묘
결과의
플레이오프
국방부는
##ᆺ빛
미중
##연과
##활동의
썬
한발
의석을
앤드
채용을
시군에
체질
아르헨티나
피트
##병원의
사고에
분위기는
바뀌어
해저
상상을
##금액이
한국에서는
방안으로
넘었다
이것저
7대
가루
나이로
지배구조
사내가
고른
hr
##없었다
올라오는
동물을
포천시
되었으면
색이
##화재
원소
받습니다
보고가
##ee
시킨
기기를
직불
취지는
고통이
김병
진흥원
뿜어
##왔습니다
당국이
라스
포함되는
기대했다
스테로이드
##짐에
##토니
○보건복지국장
○행정국장
인정받고
혐의가
가습기
사실도
용접
천하의
확대하여
##공간으로
맞물려
##강사
꼬리를
노동자의
참석자
아니하여
생산과
##본부에서
대세
##나눔
사람인
머신
177
진출한
신생아
##않은
원칙이
반포
이루어집니다
없죠
참여와
##펄
##부진
불면
좋겠어요
페르시아
##비상
소비가
흡착
취업자
공문
##경력
학회
저수지
임야
건설공사
다니며
##향은
소방시설
엔지니어링
세외수입
처리한
구성은
##커의
확보와
쪽의
진실로
##관리공단
1억원
##티어
##품과
##퍼를
##어가고
입법예고
충원
##기업과
오른다
공채
했습니까
##귀한
자세가
정보통신기술
동성애
일정에
질렀다
영화제
오피스
오인
속도는
편의시설
꼬집었다
인자
사용하거나
승마
##98
대안이
오가
눈빛이
##너는
해외시장
딱딱
고도의
나타낼
[...]
