[PAD]
[UNK]
[CLS]
[SEP]
[MASK]
!
"
#
$
%
&
'
(
)
*
+
,
-
.
/
0
1
2
3
4
5
6
7
8
9
:
;
<
=
>
?
@
[
\
]
^
_
`
a
b
c
d
e
f
g
h
i
j
k
l
m
n
o
p
q
r
s
t
u
v
w
x
y
z
{
|
}
~
¡
£
¤
¥
¦
¨
©
«
®
°
±
²
³
´
µ
·
¹
º
»
¼
½
×
ß
æ
ð
÷
ø
þ
đ
ı
ł
ŋ
œ
ɑ
ɔ
ə
ɛ
ɪ
ʃ
ʔ
ʻ
ʼ
ˈ
ˊ
ː
ˑ
˙
˚
˝
ˮ
΄
α
β
γ
δ
ε
ζ
η
θ
ι
κ
λ
μ
ν
ξ
ο
π
ρ
ς
σ
τ
υ
φ
χ
ψ
ω
а
б
в
г
д
е
ж
з
и
к
л
м
н
о
п
р
с
т
у
ф
х
ц
ч
ш
щ
ы
ь
э
ю
я
і
҉
ү
ө
ա
א
ב
ה
ו
י
ל
מ
ר
ש
ת
ا
ب
ة
ت
ج
ح
خ
د
ر
ز
س
ش
ص
ط
ع
غ
ـ
ف
ق
ك
ل
م
ن
ه
و
ي
ک
ی
۰
क
ग
त
प
र
ल
स
ा
੦
ન
ર
લ
க
த
ல
ா
ி
ก
ค
ง
จ
ต
ท
น
ม
ย
ร
ล
ว
ส
ห
อ
ะ
า
เ
ใ
ა
ი
ᄀ
ᄁ
ᄂ
ᄃ
ᄄ
ᄅ
ᄆ
ᄇ
ᄈ
ᄉ
ᄊ
ᄋ
ᄌ
ᄍ
ᄎ
ᄏ
ᄐ
ᄑ
ᄒ
ᄠ
ᄡ
ᄫ
ᄭ
ᄯ
ᄲ
ᄶ
ᅀ
ᅌ
ᅠ
ᅡ
ᅢ
ᅣ
ᅤ
ᅥ
ᅦ
ᅧ
ᅨ
ᅩ
ᅪ
ᅫ
ᅬ
ᅭ
ᅮ
ᅯ
ᅰ
ᅱ
ᅲ
ᅳ
ᅴ
ᅵ
ᆔ
ᆞ
ᆡ
ᆨ
ᆩ
ᆪ
ᆫ
ᆬ
ᆭ
ᆮ
ᆯ
ᆰ
ᆱ
ᆲ
ᆳ
ᆴ
ᆵ
ᆶ
ᆷ
ᆸ
ᆹ
ᆺ
ᆻ
ᆼ
ᆽ
ᆾ
ᆿ
ᇀ
ᇁ
ᇂ
ᇰ
ᐧ
‐
‑
‒
–
—
―
‘
’
‚
‛
“
”
„
†
‡
•
‣
․
‥
…
‧
‰
‱
′
″
‵
‹
›
※
⁃
⁍
⁕
₂
₃
₤
₩
€
⃞
⃣
℃
℉
ℓ
™
⅓
⅔
ⅰ
ⅱ
ⅲ
ⅳ
ⅴ
ⅵ
ⅶ
ⅷ
ⅸ
ⅹ
←
↑
→
↓
↔
↖
↗
↘
↙
↳
⇒
⇔
⇢
⇧
⇨
∀
∎
−
∕
∗
∘
∙
∣
∥
∨
∴
∼
≒
≪
≫
⊙
⌀
⌈
⌋
⌜
⌟
①
②
③
④
⑤
⑥
⑦
⑧
⑨
⑩
⑪
⑫
⑬
⑭
⑮
⑯
⑰
⑱
⑲
⑳
⑴
⑵
⑶
⑷
⑸
⒜
⒝
ⓐ
ⓑ
ⓒ
ⓓ
ⓔ
ⓗ
ⓛ
ⓡ
ⓧ
⓵
⓶
⓷
─
━
│
┃
└
┗
├
┠
┣
┤
┼
╸
╺
█
▍
▎
▒
■
□
▢
▣
▤
▦
▧
▨
▩
▪
▫
▮
▲
△
▴
▵
▶
▷
▸
▹
►
▻
▼
▽
◀
◁
◆
◇
◈
◉
○
◌
◎
●
◐
◑
◦
◯
◻
◼
◾
♀
♂
♡
♤
♧
♨
♬
⚪
⚫
⚬
✅
✍
✓
✔
✕
✨
❍
❏
❐
❑
❒
❖
❗
❘
❙
❚
❤
❶
❷
❸
❹
❺
❻
➀
➁
➂
➃
➄
➅
➊
➋
➌
➍
➎
➏
➐
➑
➔
➜
➝
➞
➠
➡
⟪
⟫
⟶
⠀
⦁
⧠
⨯
⭐
⸱
、
。
〃
々
〇
〈
〉
《
》
「
」
『
』
【
】
〓
〔
〕
〚
〛
〜
〮
ぁ
あ
ぃ
い
ぅ
う
ぇ
え
ぉ
お
か
き
く
け
こ
さ
し
す
せ
そ
た
ち
っ
つ
て
と
な
に
ぬ
ね
の
は
ひ
ふ
へ
ほ
ま
み
む
め
も
ゃ
や
ゅ
ゆ
ょ
よ
ら
り
る
れ
ろ
わ
を
ん
ァ
ア
ィ
イ
ゥ
ウ
ェ
エ
ォ
オ
カ
キ
ク
ケ
コ
サ
シ
ス
セ
ソ
タ
チ
ッ
ツ
テ
ト
ナ
ニ
ヌ
ネ
ノ
ハ
ヒ
フ
ヘ
ホ
マ
ミ
ム
メ
モ
ャ
ヤ
ュ
ユ
ョ
ヨ
ラ
リ
ル
レ
ロ
ワ
ヲ
ン
ヶ
・
ー
ㄱ
ㄲ
ㄴ
ㄷ
ㄸ
ㄹ
ㅁ
ㅂ
ㅃ
ㅄ
ㅅ
ㅆ
ㅇ
ㅈ
ㅉ
ㅊ
ㅋ
ㅌ
ㅍ
ㅎ
ㅏ
ㅐ
ㅑ
ㅓ
ㅔ
ㅕ
ㅖ
ㅗ
ㅚ
ㅛ
ㅜ
ㅟ
ㅠ
ㅡ
ㅢ
ㅣ
ㅤ
ㅿ
ㆍ
㈀
㈁
㈂
㈃
㈎
㈏
㈐
㈑
㈔
㈜
㉑
㉒
㉓
㉔
㉕
㉖
㉗
㉠
㉡
㉢
㉣
㉤
㉮
㉯
㉰
㉱
㉲
㎉
㎍
㎎
㎏
㎐
㎒
㎓
㎕
㎖
㎗
㎘
㎚
㎛
㎜
㎝
㎞
㎟
㎠
㎡
㎢
㎤
㎥
㎧
㎸
㎾
㎿
㏄
㏈
㏊
一
丁
七
万
丈
三
上
下
不
与
丑
且
世
丘
丙
业
东
丞
両
並
个
中
串
丸
丹
为
主
乃
久
么
之
乎
乐
乗
乘
乙
九
乞
也
乭
乱
乳
乾
亀
亂
了
予
争
事
二
于
云
互
五
井
亜
亞
亡
交
亥
亦
产
亨
享
京
亭
亮
人
什
仁
仇
今
介
仍
仏
仕
他
仗
付
仙
代
令
以
们
仮
仰
仲
件
任
企
伊
伍
伎
伏
伐
休
会
伝
伯
伴
伸
似
伽
但
位
低
住
佐
佑
体
何
余
佛
作
你
佩
佳
使
來
例
侍
供
依
侮
侯
侵
便
係
促
俄
俊
俎
俗
保
俠
信
修
俯
俱
俸
俺
倂
倉
個
倍
倒
候
借
倡
値
倫
倭
倻
假
偈
偉
偏
做
停
健
側
偶
傅
傍
傑
傘
備
催
傲
傳
債
傷
傾
僉
像
僕
僖
僚
僞
僧
價
僻
儀
億
儉
儒
儚
償
優
儲
儺
儿
兀
允
元
兄
充
兆
先
光
克
免
兎
児
兒
党
兜
兢
入
內
全
兩
兪
八
公
六
兮
共
关
兵
其
具
典
兼
冀
内
円
冊
再
冒
冕
写
军
冠
冥
冬
冶
冷
准
凉
凌
凍
凛
凝
凞
几
凡
処
凰
凱
凶
凸
凹
出
函
刀
刃
分
切
刊
刑
列
初
判
別
利
到
制
刷
券
刹
刺
刻
則
削
剌
前
剛
剣
剩
剪
副
割
創
劃
劇
劉
劍
劑
劒
力
功
加
劣
动
助
努
劫
効
劾
勁
勃
勅
勇
勉
勒
動
勖
勘
務
勝
勞
募
勢
勤
勳
勵
勸
勺
勿
包
化
北
匠
匡
匣
匹
区
医
匿
區
十
千
升
午
半
卍
华
卑
卒
卓
協
单
南
単
博
卜
卞
占
卦
卯
印
危
即
却
卵
卷
卽
卿
厄
厚
原
厥
厭
厲
厳
去
县
参
參
又
叉
及
友
双
反
发
叔
取
受
变
叛
叢
口
古
句
叩
只
叫
召
可
台
叱
史
右
叶
号
司
各
合
吉
同
名
后
吏
吐
向
君
吟
否
含
吳
吸
吹
吾
呂
呈
告
呑
员
周
呪
味
呼
命
和
咨
咲
咸
哀
品
哈
哉
員
哥
哭
哲
唄
唐
唯
唱
商
問
啓
善
喆
喉
喚
喜
喝
喩
喪
喬
單
喵
嗣
嘆
嘉
嘗
嘘
器
嚴
囊
囑
囚
四
回
因
团
団
园
困
図
固
国
圃
圈
國
圍
園
圓
圖
團
土
在
圭
地
场
址
坂
均
坊
坎
坐
坑
坡
坤
坦
坪
坫
垂
垈
型
垠
垢
垣
埋
城
域
執
培
基
埼
堀
堂
堅
堆
堡
堤
堪
堯
堰
報
場
塊
塑
塔
塗
塘
塚
塞
塡
塩
塵
塾
境
墓
増
增
墟
墨
墮
墳
墻
壁
壇
壊
壎
壓
壞
壤
士
壬
壯
声
売
壹
壺
壻
壽
変
夏
夕
外
多
夜
夢
大
天
太
夫
央
失
头
夷
夾
奇
奈
奉
奎
奏
契
奔
奚
奠
奥
奧
奪
奬
奭
奮
女
奴
奸
好
如
妃
妄
妓
妖
妙
妣
妹
妻
妾
姉
始
姑
姓
委
姚
姜
姦
姪
姫
姬
姻
姿
威
娘
娥
娶
娼
婁
婆
婚
婢
婦
媒
媛
嫁
嫌
嫡
嬉
嬪
嬰
子
孔
字
存
孚
孝
孟
季
孤
学
孫
學
宁
宅
宇
守
安
宋
完
宏
宗
官
宙
定
宛
宜
宝
実
客
宣
室
宥
宦
宮
宰
害
宴
宵
家
宸
容
宿
寂
寃
寄
寅
密
寇
富
寒
寓
寛
寝
察
寡
寢
實
寧
審
寫
寬
寮
寵
寶
寸
对
寺
导
対
寿
封
専
射
将
將
專
尉
尊
尋
對
導
小
少
尔
尖
尙
尚
尤
就
尸
尹
尺
尼
尽
尾
尿
局
居
屈
届
屋
屍
展
屛
属
屠
層
履
屬
屯
山
岐
岑
岛
岡
岩
岬
岳
岸
峙
峨
峯
峰
峴
島
峻
峽
崇
崎
崑
崔
崖
崗
崙
崩
嵌
嵐
嵩
嶋
嶺
嶽
巖
川
州
巡
巢
工
左
巧
巨
巫
差
己
已
巳
巴
巷
巻
巾
市
布
帆
希
帖
帛
帝
帥
師
席
帯
帰
帳
帶
常
帽
幀
幄
幅
幌
幕
幡
幢
幣
干
平
年
幷
幸
幹
幻
幼
幽
幾
广
広
庄
庇
床
序
底
店
庚
府
度
座
庫
庭
庵
庶
康
庸
庾
廉
廊
廐
廓
廛
廟
廡
廢
廣
廬
廳
延
廷
建
廻
开
弁
弄
弊
式
弓
弔
引
弗
弘
弟
张
弥
弦
弧
弩
弱
張
強
强
弼
弾
彈
彌
当
彙
彝
形
彦
彩
彫
彬
彭
彰
影
役
彼
往
征
待
律
後
徐
徑
徒
従
得
從
御
復
循
微
徳
徵
德
徹
徽
心
必
忌
忍
志
忘
応
忠
快
念
忽
怒
怖
思
怠
怡
急
性
怨
怪
怯
总
恋
恐
恒
恕
恣
恤
恥
恨
恩
恭
息
恵
悅
悉
悌
悔
悖
悟
悠
患
悩
悪
悲
悳
悼
情
惑
惜
惟
惠
惡
惱
想
愁
愈
愍
意
愚
愛
感
愼
慄
慈
態
慕
慢
慣
慧
慮
慰
慶
慾
憂
憎
憐
憑
憤
憲
憶
應
懋
懲
懶
懷
懸
懺
懼
懿
戀
戈
戊
戌
戍
戎
成
我
戒
或
战
戚
戦
戰
戱
戴
戶
戸
戻
房
所
扁
扇
扈
扉
手
才
打
托
扮
扶
批
承
技
抄
把
抑
投
抗
折
抜
报
抱
抵
抹
押
抽
拂
拉
拍
拒
拓
拔
拘
拙
招
拜
括
拳
拾
持
指
按
挑
振
挺
挾
捐
捕
捧
捨
捷
掃
授
掌
排
掘
掛
採
探
接
控
推
掩
措
掴
揆
描
提
揖
揚
換
握
揭
揮
援
揺
損
搖
搜
搬
摘
摠
摩
撃
撒
撤
撫
播
撮
撰
擇
擊
操
擔
據
擧
擬
擴
擾
攝
支
收
攷
攸
改
攻
放
政
故
效
敍
敎
敏
救
敗
教
敢
散
敦
敬
数
整
敵
敷
數
斂
文
斌
斎
斐
斑
斗
料
斛
斜
斡
斤
斥
斧
斬
断
斯
新
斷
方
於
施
旅
旋
旌
族
旗
无
旣
日
旦
旧
旨
早
旬
旭
旱
时
旺
旻
旿
昆
昇
昊
昌
明
昏
易
昔
星
映
春
昧
昨
昭
是
昱
昶
昻
時
晃
晉
晋
晏
晝
晟
晤
晦
晨
晩
普
景
晴
晶
晷
智
暇
暎
暑
暖
暗
暮
暴
曆
曇
曉
曙
曜
曦
曰
曲
更
書
曹
曺
曼
曾
替
最
會
月
有
朋
服
朔
朕
朗
望
朝
期
木
未
末
本
札
朱
朴
机
朽
杆
杉
李
杏
材
村
杓
杖
杜
杞
束
条
来
杭
杯
杰
東
松
板
析
枕
林
枚
果
枝
枯
架
柄
柏
某
染
柔
柱
柳
柴
柵
査
栄
栗
校
栢
株
核
根
格
栽
桂
桃
案
桐
桑
桓
桜
梁
梅
梓
條
梦
梧
梨
械
梵
棄
棋
棒
棗
棘
棚
棟
森
棲
棺
植
椒
検
椿
楊
楓
楚
楞
楡
業
楮
極
楷
楼
楽
榜
榮
槃
構
槍
槐
様
槨
槪
槽
樂
樑
樓
標
樞
模
樣
権
横
樹
橋
橘
機
橫
檀
檜
檢
櫻
欄
權
欠
次
欣
欲
欺
欽
款
歌
歎
歐
歡
止
正
此
步
武
歩
歪
歲
歳
歴
歷
歸
死
殉
殊
残
殖
殘
殯
段
殷
殺
殼
殿
毁
毅
毋
母
毎
每
毒
比
毗
毘
毛
毫
毬
氏
民
気
氣
水
氷
永
汀
汁
求
汉
汎
汐
汗
汚
汝
江
池
汪
汰
汲
汶
決
汽
沂
沃
沈
沒
沖
沙
沛
沢
沮
河
沸
油
治
沼
沿
況
泄
泉
泊
法
泗
泡
波
泣
泥
注
泰
泳
洋
洑
洗
洙
洛
洞
津
洪
洲
洵
活
洽
派
流
浅
浙
浚
浜
浦
浩
浪
浮
浴
海
浸
涅
消
涉
涙
涯
液
涵
涼
淑
淚
淡
淨
淫
淮
深
淳
淵
混
淸
淺
添
清
済
渋
渚
減
渠
渡
渤
温
測
渭
港
渴
游
渾
湖
湘
湛
湜
湧
湯
湲
満
源
準
溜
溝
溟
溢
溪
溫
溶
溺
滄
滅
滉
滋
滑
滝
滯
滴
滿
漁
漂
漆
漏
漑
演
漕
漠
漢
漫
漸
潔
潘
潛
潜
潤
潭
潮
澄
澈
澗
澤
澮
激
濁
濂
濃
濊
濕
濟
濡
濤
濫
濬
濯
濱
瀆
瀉
瀋
瀑
瀛
瀬
灌
灘
灣
火
灯
灰
灸
灼
災
炅
炎
炫
炭
炯
炳
点
為
烈
烏
烟
烽
焉
焚
無
焦
焰
然
焼
煉
煌
煙
煥
照
煩
煮
熊
熙
熟
熱
熹
燁
燃
燈
燒
燕
營
燥
燦
燧
燭
燮
爆
爐
爛
爪
爭
爱
爲
爵
父
爻
爽
爾
片
版
牌
牒
牙
牛
牟
牡
牢
牧
物
牲
特
牽
犀
犧
犬
犯
状
狀
狂
狄
狐
狗
狩
独
狹
狼
猛
猪
猫
猶
猷
猿
獄
獅
獎
獣
獨
獲
獵
獸
獻
玄
率
玉
王
玩
玲
玹
珉
珍
珖
珠
珥
珪
班
現
球
理
琉
琓
琦
琪
琳
琴
琵
琶
瑕
瑛
瑜
瑞
瑟
瑠
瑤
瑩
瑾
璃
璋
璘
璜
璟
璧
環
璽
璿
瓊
瓚
瓜
瓣
瓦
甁
甄
甑
甕
甘
甚
生
産
用
甫
田
由
甲
申
电
男
甸
町
画
界
畏
畓
畔
留
畜
畝
畢
略
番
畫
異
畵
當
畿
疆
疊
疎
疏
疑
疫
疲
疵
疾
病
症
痕
痛
痰
痴
瘡
療
癌
癒
癖
癡
癸
発
登
發
白
百
的
皆
皇
皐
皓
皮
皿
盆
盈
益
盒
盛
盜
盞
盟
盡
監
盤
盥
盧
目
盲
直
相
盾
省
眉
看
県
眞
真
眠
眩
眺
眼
着
睡
督
睦
睿
瞬
瞳
瞻
矛
矢
矣
知
矩
短
矯
石
砂
研
砕
砲
破
硏
硝
硬
硯
碍
碎
碑
碗
碣
碧
碩
確
磁
磐
磨
磬
磯
礁
礎
礪
示
礼
社
祀
祇
祈
祉
祐
祔
祕
祖
祗
祚
祝
神
祠
祥
票
祭
祿
禁
禍
禎
福
禔
禦
禧
禪
禮
禰
禱
禹
禽
禾
禿
秀
私
秉
秋
科
秒
秘
租
秦
秩
移
稀
稅
程
稚
稟
稧
種
稱
稲
稷
稻
稽
稿
穀
穂
穆
積
穡
穩
穴
究
空
穿
突
窓
窟
窩
窮
窯
立
站
竜
竝
竟
章
童
竪
竭
端
競
竹
竺
竿
笏
笑
笛
笞
笠
符
第
筆
等
筋
筑
筒
答
策
筵
箇
箋
箕
算
箚
管
箭
箱
箴
節
範
篆
篇
築
篚
篠
篤
簡
簿
籍
籠
米
粉
粒
粗
粘
粟
粧
粹
精
糖
糞
糧
糸
系
糾
紀
紂
約
紅
紋
納
純
紗
紙
級
紛
素
紡
索
紫
紬
累
細
紳
紹
紺
終
絃
組
絆
経
結
絞
絡
給
統
絲
絵
絶
絹
綏
經
継
続
綜
綠
綬
維
綱
網
綴
綵
綸
綺
綾
綿
緊
緋
総
緑
緒
緖
線
緞
締
緣
編
緩
緯
練
縛
縣
縮
縱
總
績
繁
繋
織
繕
繡
繩
繪
繫
繰
繼
纂
續
纏
红
线
组
经
缺
罍
网
罔
罕
罪
置
罰
署
罷
羅
羊
羌
美
羞
群
義
羲
羽
翁
翊
習
翔
翟
翠
翰
翼
耀
老
考
者
耆
而
耐
耕
耗
耳
耶
耽
耿
聃
聖
聘
聚
聞
聯
聰
聲
聴
職
聽
肄
肅
肇
肉
肌
肖
肝
股
肢
肥
肩
肯
育
肺
胃
胄
背
胎
胞
胡
胤
胥
胴
胸
能
脂
脇
脈
脊
脘
脚
脩
脫
脯
脱
脳
脾
腎
腐
腑
腕
腦
腫
腰
腸
腹
腺
膏
膜
膝
膳
膺
膽
臘
臟
臣
臥
臨
自
臭
至
致
臺
臼
與
興
舊
舌
舍
舎
舒
舜
舞
舟
航
般
舰
舶
船
艦
艮
良
色
艾
芒
芙
芝
芬
花
芳
芸
芽
苑
苗
若
苦
苧
英
茂
范
茅
茶
荀
草
荊
荒
荷
莉
莊
莖
莘
莫
菅
菊
菌
菓
菜
菟
菩
華
菱
菴
萊
萌
萩
萬
萱
落
葉
著
葛
董
葬
葵
蒙
蒲
蒸
蒼
蓄
蓉
蓋
蓬
蓮
蔘
蔚
蔡
蔣
蔭
蔵
蔽
蕃
蕩
蕭
薄
薇
薛
薦
薩
薪
薬
薰
藁
藍
藏
藝
藤
藥
藩
藪
藻
蘆
蘇
蘊
蘭
蘿
虎
虐
處
虚
虛
虜
虞
號
虫
虹
蛇
蜀
蜂
蜜
蝕
蝶
融
螺
蟲
蟹
蠟
蠶
蠻
血
衆
行
衍
術
街
衙
衛
衝
衡
衣
表
衫
衰
衷
衿
袁
袋
袍
袖
袞
被
裁
裂
装
裏
裔
裕
補
裝
裡
裨
裳
裴
裵
裸
製
複
褒
襄
襲
西
要
覆
覇
覈
見
規
視
覚
親
観
覺
覽
觀
角
解
触
觸
言
訂
訃
計
訊
討
訓
託
記
訟
訣
訥
訪
設
許
訴
訶
診
註
証
詐
詔
評
詞
詠
試
詩
詮
詰
話
該
詳
詵
詹
誅
誇
誌
認
誓
誕
誘
語
誠
誣
誤
誥
誦
說
説
読
誰
課
誼
誾
調
談
請
諍
論
諡
諦
諧
諫
諭
諱
諸
諺
諾
謀
謁
謂
謄
謙
講
謝
謠
謨
謹
證
識
譚
譜
警
譯
議
譴
護
譽
讀
變
讐
讓
讖
讚
谷
豆
豈
豊
豐
豚
象
豪
豫
豹
貂
貊
貌
貝
貞
負
財
貢
貧
貨
販
貪
貫
責
貯
貴
貶
買
貸
費
貿
賀
賃
資
賈
賊
賑
賓
賜
賞
賠
賢
賣
賤
賦
質
賴
賻
購
贈
贊
贍
贓
贖
资
赤
赦
赫
走
赴
起
超
越
趙
趣
足
趺
趾
跋
距
跡
路
跳
踊
踏
踐
蹂
蹄
蹟
躍
身
躬
車
軌
軍
軒
軟
転
軸
軽
軾
較
載
輔
輕
輛
輝
輦
輩
輪
輯
輸
輿
轄
轉
轍
车
较
辛
辟
辦
辨
辭
辯
辰
辱
農
辺
込
辿
迅
过
迎
近
返
这
进
迦
迪
迫
述
迷
迹
追
退
送
适
逃
逆
选
逍
透
逐
途
這
通
逝
速
造
逢
連
週
進
逸
遁
遂
遅
遇
遊
運
遍
過
道
達
違
遙
遜
遞
遠
遣
遥
適
遮
遲
遵
遷
選
遺
遼
避
還
邊
邑
邢
那
邦
邪
邱
邵
邸
郁
郊
郎
郞
郡
部
郭
郵
郷
都
鄒
鄕
鄧
鄭
酉
酋
酌
配
酒
酬
酷
酸
醉
醒
醜
醞
醫
醬
醮
醴
采
釉
釋
里
重
野
量
金
釘
釜
針
釣
鈍
鈔
鈴
鉄
鉉
鉛
鉢
銀
銃
銅
銓
銘
銜
銳
鋒
鋪
鋼
錄
錐
錢
錦
錫
錯
録
鍊
鍋
鍵
鍼
鍾
鎌
鎔
鎖
鎬
鎭
鎮
鎰
鏞
鏡
鐘
鐵
鐸
鑄
鑑
鑛
铁
長
长
門
閃
閉
開
閏
閑
閒
間
閔
関
閣
閤
閥
閨
閭
閱
閻
闇
闕
闘
關
闢
门
间
阜
阪
阮
防
阳
阻
阿
陀
附
降
限
陜
陝
陟
院
陣
除
陪
陰
陳
陵
陶
陷
陸
険
陽
隅
隆
隊
隋
隍
階
隔
隙
際
障
隠
隣
隨
險
隱
隷
隸
雀
雁
雄
雅
集
雇
雉
雍
雑
雕
雖
雙
雜
離
難
雨
雪
雲
零
雷
電
需
震
霊
霜
霞
霧
露
霸
靈
靑
青
靖
静
靜
非
面
革
靴
鞋
鞍
鞠
鞫
鞭
韋
韓
韜
韩
音
韶
韻
響
頁
頂
頃
項
順
須
頌
預
頑
頒
頓
領
頤
頭
頸
頼
題
額
顔
願
顚
類
顧
顯
领
题
風
风
飛
飜
食
飡
飢
飮
飯
飲
飼
飽
飾
養
餐
餓
餘
餠
館
饌
饒
饔
首
香
馥
馨
馬
馮
馳
駄
駅
駆
駐
駒
駕
駱
駿
騎
騒
験
騰
騷
驅
驗
驚
驛
驪
马
骨
骸
髓
體
高
髪
髮
髻
鬪
鬱
鬼
魁
魂
魄
魅
魏
魔
魚
魯
鮑
鮮
鰲
鱗
鲁
鳥
鳩
鳳
鳴
鴨
鴻
鵬
鶴
鷄
鷲
鷹
鸞
鹽
鹿
麒
麗
麟
麥
麵
麻
麾
黃
黄
黎
黑
黒
黔
默
黙
黜
點
黨
鼎
鼓
鼠
鼻
齊
齋
齒
齡
龍
龕
龙
龜
！
＂
＃
％
＆
＇
（
）
＊
＋
，
－
．
／
０
１
２
３
４
５
６
７
８
９
：
；
＜
＝
＞
？
＠
［
＼
］
＾
ａ
ｂ
ｃ
ｄ
ｅ
ｇ
ｈ
ｉ
ｍ
ｎ
ｏ
ｒ
ｓ
ｔ
ｗ
ｘ
｜
～
｡
｢
｣
､
･
ｯ
ｰ
ｱ
ｲ
ｶ
ｷ
ｸ
ｺ
ｼ
ｽ
ﾀ
ﾁ
ﾃ
ﾄ
ﾊ
ﾋ
ﾌ
ﾎ
ﾏ
ﾒ
ﾗ
ﾘ
ﾙ
ﾜ
ﾝ
ﾞ
ﾟ
ﾠ
￣
￥
￦
￭
￮
￿
🌏
🏻
👉
💀
💕
😊
🙂
##ᅳ
##ᆷ
##ᄌ
##ᅢ
##ᄅ
##ᅩ
##ᅡ
##ᆨ
##ᄆ
##ᅮ
##ᆫ
##ᄃ
##ᆯ
##ᄋ
##ᄀ
##ᆼ
##ᅭ
##ᄉ
##ᅧ
##ᅵ
##5
##2
##ᅥ
##7
##ᄎ
##ᄁ
##ᄂ
##ᆻ
##ᅦ
##ᄏ
##ᄐ
##ᄇ
##ᅫ
##ᆸ
##ᅣ
##ᄒ
##ᅴ
##4
##①
##ᅨ
##ᅪ
##1
##ᅲ
##ᇀ
##ᅬ
##ᄈ
##s
##a
##ᅯ
##ᅱ
##ᇁ
##8
##9
##0
##m
##ᆞ
##d
##ᆺ
##ᄑ
##ᄄ
##x
##c
##p
##ᆽ
##6
##ᅰ
##か
##ら
##わ
##る
##ᇂ
##i
##l
##e
##u
##n
##t
##ᆭ
##g
##r
##h
##o
##ᆱ
##3
##ト
##レ
##ー
##ヌ
##र
##q
##ᆰ
##ᄊ
##v
##ᄍ
##ː
##ŋ
##b
##㎛
##k
##f
##y
##ᆩ
##㈜
##し
##な
##っ
##た
##こ
##と
##ㆍ
##÷
##ラ
##フ
##ル
##ミ
##ニ
##ッ
##ツ
##㎿
##ᆶ
##を
##つ
##け
##て
##е
##л
##с
##н
##и
##х
##¹
##ᆮ
##く
##ょ
##う
##お
##や
##ⅶ
##イ
##ナ
##マ
##j
##z
##ᆾ
##ろ
##ス
##コ
##は
##w
##∼
##き
##カ
##ね
##≪
##ᆿ
##サ
##ヘ
##ン
##ᆹ
##×
##°
##シ
##ㅇ
##→
##⟶
##▲
##さ
##ん
##も
##ᆲ
##㎡
##＋
##ふ
##の
##あ
##り
##ま
##す
##ᅤ
##④
##○
##い
##せ
##㏊
##㎞
##㎠
##タ
##＝
##ᆴ
##ウ
##⦁
##㎉
##≫
##㎝
##∙
##ᇰ
##～
##よ
##κ
##ρ
##ο
##ν
##±
##€
##т
##о
##р
##ᆬ
##ゆ
##ⅱ
##㎥
##ケ
##れ
##㎎
##テ
##セ
##ァ
##㎓
##そ
##ᆪ
##к
##в
##ひ
##に
##◆
##ャ
##㎾
##㎏
##１
##０
##ⅰ
##ぬ
##´
##□
##ｇ
##ほ
##ゥ
##ク
##リ
##キ
##ュ
##ア
##ロ
##ㅠ
##π
##ι
##σ
##τ
##ς
##ㅋ
##ل
##م
##ه
##د
##ي
##㎒
##オ
##ʼ
##ш
##а
##─
##ㄱ
##ㄴ
##ㅅ
##⑬
##む
##ち
##ゃ
##♤
##ワ
##ℓ
##△
##ɪ
##め
##◇
##²
##∣
##✓
##◦
##ω
##ヒ
##▶
##〇
##㎍
##™
##ʻ
##ˮ
##➂
##│
##ᆵ
##ヤ
##㎜
##ム
##½
##®
##③
##λ
##η
##ﾊ
##ｰ
##ハ
##−
##˝
##♡
##②
##↑
##⑤
##チ
##●
##ォ
##ヲ
##▷
##㎢
##ㅡ
##℃
##㎘
##α
##ا
##ن
##モ
##ノ
##ﾗ
##ｯ
##ｷ
##ｶ
##³
##え
##エ
##ヨ
##ｅ
##ィ
##ㅔ
##ョ
##µ
##ぇ
##˚
##ㅈ
##ı
##з
##д
##у
##м
##へ
##ᆳ
##ㅎ
##ᆡ
##б
##⌟
##み
##▽
##ㅏ
##ᅀ
##ｍ
##י
##ו
##ר
##メ
##＞
##ح
##ق
##ت
##ł
##㎖
##я
##ㅊ
##◎
##ㅣ
##ㄷ
##ы
##ㅓ
##ל
##ש
##ת
##א
##ㅐ
##ر
##ی
##و
##４
##ᄭ
##↓
##ｱ
##ﾄ
##ﾞ
##ｲ
##ｽ
##♂
##ぃ
##｜
##ㅁ
##ß
##г
##μ
##⑴
##ø
##■
##♬
##ﾀ
##ｼ
##⅓
##ь
##₃
##ネ
##❙
##ソ
##þ
##ㅜ
##ェ
##δ
##ε
##γ
##♀
##２
##ぁ
##æ
##↗
##ㄹ
##５
##℉
##ホ
##ﾒ
##ぉ
##㎚
##ი
##⑨
##©
##ж
##˙
##⑦
##３
##ب
##ユ
##ㅖ
##ㅗ
##ㅛ
##θ
##ぅ
##㉠
##ү
##ч
##ｓ
##ｉ
##ใ
##ส
##ﾋ
##ﾟ
##ﾘ
##ﾁ
##ﾙ
##⑮
##ᄯ
##█
##ा
##מ
##҉
##⑪
##ﾠ
##ヶ
##➎
##υ
##ش
##ग
##⅔
##ᄫ
##↔
##स
##➁
##ﾝ
##ｔ
##＜
##ˈ
##ะ
##ล
##ᅌ
##ع
##➋
##⑩
##❤
##ð
##⇒
##㎕
##ʃ
##п
##ц
##←
##ⓡ
##ᐧ
##➃
##χ
##س
##㎧
##━
##อ
##ａ
##ﾏ
##ｸ
##㏄
##❶
##¤
##◉
##➊
##↘
##➍
##９
##８
##◀
##і
##º
##😊
##ゅ
##э
##🏻
##ㅌ
##ك
##ｺ
##ф
##₂
##ᄡ
##ב
##ط
##㏈
##ᅠ
##ﾌ
##β
##₩
##∕
##ㅂ
##ⅹ
##ⅵ
##ｃ
##ю
##щ
##㈎
##φ
##✨
##▪
##क
##ə
##ⅳ
##▴
##∨
##ⅲ
##❘
##◯
##ψ
##ᆔ
##ⅴ
##▒
##ㅃ
##લ
##⑥
##㎸
##７
##ⓑ
##ⓐ
##ز
##ﾃ
##⓷
##ξ
##£
##¼
##ﾎ
##✅
##ⅷ
##々
##⑭
##ج
##ص
##ா
##க
##ة
##⑧
##ｘ
##ㅑ
##◁
##➝
##ｎ
##┃
##غ
##❷
##า
##ม
##ก
##ง
##เ
##ท
##ㅕ
##〓
##ต
##ย
##น
##ร
##ว
##➀
##￿
##↖
##↙
##ㅍ
##㉰
##➌
##۰
##≒
##⃣
##➜
##￣
##⠀
##ա
##㎟
##ف
##▣
##⇨
##œ
##㈏
##❗
##ㅆ
##ζ
##ᄲ
##ｒ
##ｂ
##６
##ɑ
##ﾜ
##❍
##▨
##▼
##ɛ
##خ
##▸
##ค
##⇔
##ᄠ
##₤
##✔
##จ
##đ
##➡
##த
##ி
##ல
##ᄶ
##❚
##〮
##ـ
##❸
##⑫
##ｄ
##ｏ
##ა
##▤
##㈀
##⊙
##▵
##΄
##ˊ
##प
##ɔ
##∥
##ㅢ
##⚫
##➄
##▢
##¨
##ה
##◑
##❺
##◌
##¥
##ө
##ल
##⑶
##त
##⨯
##∀
##◈
##ㅤ
##➏
##￥
##⭐
##㎤
##＾
##▧
##ห
##💕
##◐
##㎐
##⒝
##ⅸ
##✕
##⃞
##੦
##ર
##㉯
##㉱
##㉲
##ⓧ
##∘
##ન
##￦
##ʔ
##ｈ
##ㄲ
##ㅉ
##➅
##ㄸ
##❹
##ˑ
##ⓒ
##├
##⧠
##⒜
##❑
##⑷
##￭
##㈐
##ک
##ｗ
##ㅟ
##▫
##⑵
##💀
##♧
##▦
##⇧
##㉢
##➞
##⇢
##▻
##┤
##ⓔ
##㎗
##❻
##♨
##⑲
##▩
##㈔
##➔
##┼
##ㅿ
##⓶
##⓵
##▹
##∗
##∴
##㉡
##⑯
##㉣
##└
##⑸
##⑰
##►
##🙂
##▮
##➐
##㉖
##∎
##◻
##⌜
##㉮
##👉
##┗
##⌀
##ㅚ
##ㅄ
##ⓛ
##⚪
##❏
##➑
##⑱
##⑳
##으
##ᅡᆫ
##이
##다
##ᅳᆫ
이
##는
##하
##에
##ᅡᆼ
##ᅳᆯ
##을
##서
##의
##로
##고
##지
##ᅥᆫ
##ᅧᆫ
##가
##어
##ᅧᆼ
##시
##ᅩᆼ
##ᅮᆫ
##해
##저
##한
##ᆻ다
##은
##ᅡᆯ
##를
##리
##도
##기
##ᅮᆯ
##ᅯᆫ
##니
그
##과
지
시
##ᅳᆼ
가
##라
##자
거
##스
##여
아
##인
하
사
##으로
저
##요
##게
##ᅮᆨ
##ᅩᆨ
##사
수
있
##원
##정
대
##나
주
어
##장
기
##들
##ᅳᆷ
##아
##에서
##ᅩᆫ
##ᅢᆼ
##화
##부
제
##되
##면
것
##ᆸ니
자
##적
##려
##러
##야
##ᆸ니다
##대
##만
##ᅧᆯ
##제
##상
서
과
나
보
전
다
위
##주
##ᅢᆨ
한
마
미
##회
##성
바
##와
##치
##업
##하는
##용
##일
##수
정
##유
##보
조
화
모
등
##조
해
##구
##년
경
##거
고
부
##전
##버
##하고
##미
##우
##ᅳᆨ
여
##할
의
공
되
일
중
##계
##국
##관
##하여
이ᄅ
인
관
##문
상
##산
##소
##동
##비
오
##데
##터
##했다
##며
있다
##처
##ᅣᆼ
##까
##행
##신
유
##무
##이다
##간
내
##습니다
도
##ᆷ을
소
##드
##위
##진
##워
##명
##래
##트
비
##체
차
##금
있는
20
##공
개
없
##분
우
##마
말
##히
##ᆨ을
##세
##었다
때
않
구
##된
##개
##단
버
처
노
국
##그
생
##ᆷ이
##안
신
##차
##법
##당
##재
##생
연
피
예
##내
발
##선
##한다
##경
이름
##실
##역
안
원
방
및
##교
##물
##음
따
##월
또
선
세
추
통
무
##르
##방
##료
##학
##력
그러
##항
##호
만
##록
##오
##지만
##ᅧᆨ
##운
##식
동
##ᅥᆷ
##었
##타
##에게
아니
##하게
##바
##ᅦ이
##에는
실
##민
##영
##통
##른
##들이
##건
문
같
##00
더
##던
##연
##류
교
장
계
##각
현
##속
##적으로
분
성
에
진
요
##설
영
것이
##ᅮᆷ
결
##청
##출
##적인
확
##양
##까지
최
대한
감
##해서
경우
재
##모
사라
##발
스
##난
치
한다
##급
특
적
##반
불
강
##부터
##표
와
당
##중
##능
##련
##ᅳ로
##권
많
받
##키
건
들
##작
##후
알
매
##했
##든
설
후
##하기
위원
##육
##혀
단
반
우리
##술
##져
##울
##령
##준
행
##심
법
##라고
##직
##티
##본
##면서
##ᇂ게
201
##질
배
##는데
##ᆻ습니다
##종
할
운
##합
라
##별
회
##런
##입
##형
포
물
##번
##결
##증
##천
##피
##테
##격
##품
##린
##포
드
##억
##두
##디
필
때문
사업
입
있습니다
증
하는
남
야
따라
##께
19
두
본
##태
사람
작
##프
##점
직
##매
위해
##토
참
##약
평
##리고
학
##험
##도록
10
##석
못
##더
출
각
##레
##하지
##획
규
##립
활
##으며
##들은
산
그런
역
외
##군
##복
명
##량
호
##환
##ᅥᆯ
##책
##하다
함
##함
##크
##것
집
##임
금
제1
##라는
사용
파
심
올
##님
지원
##루
생각
타
##았다
##들의
##감
##론
검
변
달
##ᆫ다
청
종
어ᄄ
필요
##노
같은
##외
##녀
것으로
목
##규
지금
판
##족
환
하고
통해
##향
로
##등
간
##황
혀
양
##파
초
또는
코
새
##강
##기를
##판
##되는
앞
##란
지역
지난
##편
##에서는
좋
##달
관련
##축
것이다
이러
##입니다
체
다른
##남
것은
##례
임
잘
##날
##이나
##절
살
업
열
문제
때문에
이상
##들을
##근
들어
자신
##망
##목
##활
가지
##에도
한국
것을
##추
위한
은
투
약
높
을
##위원
며
서울
너
##돼
그래
##택
하나
##겨
##송
질
있어
12
##네
머
##씨
##기도
민
점
총
표
##액
취
##배
200
##보다
협
채
농
##병
##거나
함께
##랑
##습
##사를
##현
근
##대로
맞
그리고
운영
##되어
는
##였다
를
손
밝
제2
##변
데
##집
##카
형
##리를
부분
이런
##예
##된다
##율
가능
교육
##하면
다음
##기에
편
속
##코
##희
##지는
##담
##률
돌
##자가
##찰
##견
##하며
히
##럼
리
정도
했다
##초
없다
군
뒤
##쳐
11
##았
사실
번
##리는
##림
걸
##사업
##광
##승
##자는
##머
##느
김
발생
복
##온
##합니다
또한
광
아이
토
게
된다
##너
충
##득
등을
가장
##셔
누
순
애
만들
식
준
항
##성을
##정을
진행
시작
##즈
밝혀
완
##말
##자의
없는
##해야
눈
이후
##지를
관계
##투
이번
현재
연구
날
##장은
카
##푸
크
##접
##겠습니다
여러
관한
많은
창
했
느
사회
이용
효
##ᆸ니까
추진
보고
허
끄
관리
있었다
##애
##력을
##하였다
음
메
시간
줄
용
절
##는다
결과
내용
##극
##ᆸ게
##름
다시
##언
대상
##허
##이고
계획
##기관
모두
##독
얼
담
##존
언
프로
시행
##평
합
대해
독
하지만
##염
따른
해당
##받
모든
##장을
##색
##냐
될
##처럼
##될
권
면
##시키
기업
국가
예산
##으면
승
15
상황
##ᆯ리
##쟁
태
##씀
찾
향
패
##ᆺ이
네
말씀
바라
##협
##악
##조제
##메
##째
어려
말했다
##응
책
##기가
##비스
##락
그래서
대표
##니까
대해서
디
##ᆫ터
박
큰
접
그것
많이
##션
##성이
온
##북
정부
##브
##ᆻ고
##라도
그러나
밝혔다
기술
이어
전문
30
삼
##쪽
등의
개발
정보
다양
어떠
##ᆯ이
나타
##인이
제공
있었
제3
어떤
##관리
방법
##위원회
포함
확인
백
중요
미국
뉴
쓰
돼
##졌다
병
##끼
천
있을
##박
아니라
##되고
##상을
친
##불
저희
라고
##겠
##장이
있고
세계
좀
특히
기준
규정
##ᅦᆫ
##들에게
##검
18
##객
##학교
싶
사이
##스트
이렇게
갖
##켜
##통령
새로
##익
##레이
환경
##기는
그렇
평가
##화를
안전
죽
존
대통령
##사가
##늘
국민
##으나
북
##시설
##서는
##ᅯᆯ
일반
이를
##순
그는
##므로
##의를
별
##죠
같이
##층
경제
##하면서
있도록
##사는
개정
##자를
##백
겨
업무
지방
수도
##됐다
##기업
##인의
##어나
볼
넘
##랴
범
행정
##되었다
일부
##교육
다양한
##원이
##er
설명
##가는
끝
##겠다
##범
##때
가지고
##막
##츠
되어
이것
그런데
##리가
논
하여
##없
##ᆯ을
##ᆻ던
##이는
중국
이유
참여
모습
잡
캐
실시
어떻게
일본
##ᆺ을
13
##ᆷ에
14
되는
##원을
설치
철
##써
##0년
사항
##확
##이었다
##칙
16
증가
##스테
문화
##ᆫ드
##굴
##사의
##융
커
보면
국내
##창
##음을
글
티
##플
활용
사건
쉬
##on
그렇게
홍
##에서도
##채
활동
##다는
100
이야
##렸다
##회의
##최
조사
##앙
구성
학교
##ᆷ의
##원의
나오
서비스
##그래
##케
프
예정
##ᆯ라
계속
늘
빠
17
산업
추가
된
시장
측
않고
나는
도시
##패
##취
플
##략
특별
적용
먹
떠
##탁
상기
축
##되었
##센터
받아
결정
있으며
제가
폐
개선
필요한
자신의
합니다
##로나
##치를
당시
경기도
정책
기록
주시
##균
내가
왜
##지고
어느
##침
##도를
##길
뜨
귀
좋은
이러한
상태
치료
##다고
202
##원은
시설
##페
이미
##in
푸
기자
##시간
##력이
트
##큼
직접
##열
##착
법률
벌
##주의
해서
##살
위해서
21
##년도
전체
첫
동안
경우에는
주요
##들과
테
##벌
자료
투자
이에
급
##이며
베
##ᆺ한
##이라
난
있는데
이라고
이날
없이
바로
##아가
갈
사람이
강화
##커
아무
올해
확대
폭
코로나
엄
##19
피해
##조의
키
막
답
##어요
않은
효과
아닌
25
의미
등이
##징
몇
마련
##측
따르
##탄
브
처음
##짜
##지가
레
등에
새로운
곳
잠
##00만
흐
만들어
왕
지속
이하
##릴
##인데
##시는
이제
##식을
##기로
최근
##ᆻ는데
##위를
##하거나
##인을
##철
##퍼
##ᆩ에
위원님
생활
즉
힘
너무
이루
##다가
기본
꼬
육
보여
나가
경기
먼
느끼
앞으로
인정
생산
##부장
물론
제4
사랑
영향
신청
##ᅥᆯ어
##효
##베
기간
학생
분야
##계획
##항에
싸
##팅
##친
##이라고
씨
##욱
희
##ᆻ을
얻
##충
있다는
##제로
그의
##회를
##기술
으로
##왕
한편
##스러
않는
혼
휴
판단
시민
개인
극
다만
여성
##산업
그녀
응
##리에
발전
기대
##지역
##했던
이는
##어서
이해
자체
##도가
여기
유지
요구
과정
199
프로그래
낮
나와
국제
##환경
##하여야
##찬
##곡
게이
##로서
##정보
기능
나타나
않았다
고려
##이라는
##엔
높은
월
##습니까
##봉
있다고
황
기관
분석
##ᆻ는
에서
##총
##되지
##혼
##부분
뿐
상당
##도로
##ᆯ로
공동
##물을
##특
##인지
##가지
##at
준비
금융
건강
알고
선정
오늘
##흥
악
돈
능
##시에
존재
바ᄁ
자기
##답
##수를
적극
22
상대
터
주민
##드리
놓
의견
수준
하지
50
인간
클
되었다
것도
##농
조금
전국
##하도록
##주는
따르면
대하여
있어서
##명을
##ᆷ은
중심
##지원
##밀
##시아
보호
침
##글
지난해
##명이
##시장
##죄
24
판매
##제를
모르
마음
##조제1
##인은
둘
##an
알려
공공
이라
부산
##or
무어
23
##연구
발표
최고
##긴
##하려
##안을
지정
##운데
개최
역시
방송
매우
##상이
하면
##개발
##8년
현장
##ᆻ으며
보내
##널
대비
얼마
선택
대구
찾아
##슨
따라서
##치는
울
##부를
않는다
먼저
##단체
##계를
기존
까
##곳
도우
우리가
역할
해야
##나라
아직
더욱
##수가
제출
##5년
##지에
##스를
##금을
위하여
일이
##문화
의한
봐
최대
##손
##지도
가족
##보고
올라
확보
##서를
탄
##무원
##점을
노력
각각
##7년
감사
구축
검토
얘
변경
코로나19
##누
##세요
결국
##복지
##놓
공개
만나
##이가
성공
##가를
헤
##9년
##념
중앙
인해
자연
품
것입니다
##인다
##ᆨ스
가운데
떨어
라는
의원
길
##으로써
말을
받은
##같
시스테
##ᆸ을
돌아
수행
##냥
##en
괴
대부분
##시스
##6년
##했고
예방
지적
풍
지급
##없이
##동을
소비
때문이다
##진다
##전에
들어가
밀
##블
그러면
000
지나
자동
방문
골
규모
lt
##이트
##ar
##000
##부는
경찰
미래
의료
##로부터
건설
뭐
혈
긴
##탈
##혁
##마다
대학
##품을
되고
피고
29
gt
##장님
##ᅥᆷ프
블
중요한
삶
##수는
##정이
##럽
##시켜
##하겠다
조례
##페이
영화
되었
##도의
##께서
##사에
##선을
감염
##랜드
비로
송
어린
##촌
##관은
##이었
이루어
##소를
데이
##잡
않았
##스로
##일부터
##드는
##전히
##새
자유
##들도
혹
##리아
제5
오래
##2년
##ᆻ지만
##상의
변화
##지요
##혈
##아요
꾸
##자료
깨
얼굴
해외
없었다
제작
##개월
##1년
크게
처리
##al
##십
##원에
정말
당신
##자치
팔
##대를
##정한
##정책
28
장애
##씩
##장의
고객
##람
##심을
오후
해결
##도는
목표
질의
##4년
##명의
감소
##폭
##머니
##문을
##사회
##동안
석
제외
제품
##더라도
그리
어디
서로
##지의
않을
있으
##칭
31
대응
##한다고
##했다고
##안전
##조제1항
사고
##으로서
##든지
인터
공급
규정에
26
콘
조직
관광
우선
27
말이
주장
조성
외국
붙
수가
##권을
신고
위치
경쟁
풀
후보
##덕
정치
##과의
문제가
착
성장
집행
방식
정신
##자인
바이
오는
##3년
##링
바랍니다
##숙
웃
내려
거의
즐
듯
공격
##es
같다
암
징
의해
##로는
대상으로
혁
##기간
봉
조선
교통
##걸
핵
##러스
전에
##귀
40
##각을
격
##찌
맡
##수의
##마트
찌
충분
구조
##메일
##훈
부족
##억원
##기의
대해서는
뉴시스
한번
##전을
시험
##아서
검사
뛰
예상
##부의
##감을
##가가
##돌
기반
거래
마지
몰
이메일
##즌
듣
##뿐
##뢰
배우
##일까지
##흐
##벽
##ᆷ직
비교
헌
답변
등장
##줄
활성
누구
##자에게
믿
표현
##조사
##느냐
##다면
집중
##대의
##부에
일을
사무
##릭
제주
##자로
가격
##음이
##자와
##트를
제한
반영
탈
##올
##밖에
갑
##촉
강조
정확
압
종합
##려고
##적이
##풍
##왔다
협력
만큼
홈
형태
##비를
##볼
예정이다
제1항
홍보
경영
##어가
감독
##인가
##하다고
##폰
마지막
공간
##국장
##슬
하겠습니다
보건
##턴
##소년
##한다는
우리는
받고
주로
있게
니
##도시
##ic
요청
때는
등록
담당
##약을
##틀
##룹
짜
계약
사례
발견
12월
우수
##하시
위반
##폐
친구
됩니다
##스는
##라이
주변
아래
나온
성과
전남
좋아
보이
현대
인천
아니다
##스터
써
##너지
깊
##업을
##텐
비용
잔
사람들이
영향을
##으로는
##스의
##라인
번째
윤
이야기
##암
스타
##린다
상승
보다
여러분
3월
노동
있던
##it
##성과
등으로
사진
##하자
있지만
##탕
앞서
의사
납
가까
소속
이전
##하는데
6월
##봐
##척
##사항
##격을
##압
제6
모습을
##대에
##먼
녹
나서
수출
민간
하며
##부가
##시험
건축
##뜨
연결
##임을
사람은
##위에
##어야
##관이
제시
##헌
데이터
##위원장
회의
##물이
페
도로
컨
방향
하루
##역을
##심이
마치
읽
정하는
흔
광주
웨
##험을
##공사
자리
수립
##조에
9월
선거
##세를
##거리
그대로
아주
##완
퇴
때에는
##웨
설립
이동
1년
궁
##점이
##클
견
##물의
평균
염
##쉬
도입
언제
##관계
사업을
##국의
북한
나라
7월
중소
##경제
##필
##칠
다음과
맞ᄎ
##무를
10월
쪽
단계
##르는
현실
좌
##끄
##상에
과거
4월
##갈
##은행
자신이
절차
계획이다
보인다
통한
##이를
통합
아버
않아
##벤
##님이
##장에서
##스가
드리
1월
있기
주택
다르
주시기
##하셔
##개를
##원에서
5월
##었던
그냥
##정에
뇌
참석
업체
게임
뜻
##참
달리
행복
행사
촉
루
대신
##자에
퍼
숙
공무원
이게
역할을
청년
구체
끌
##한테
빨
##거든
목적
##의회
위험
판결
기타
기획
알아
##량을
삼성
바다
##슈
##어난
소유
작은
가능한
과학
##으니
고용
##자리
제대로
이와
관계자는
넣
##별로
확진
순간
저는
##ᆯ러
전망
##구를
##움
##쿠
##교통
사망
##넷
드러
##스크
##ᆸ고
전문가
갖고
##잖
그다
역사
슬
##생활
정도로
작성
스마트
하는데
198
죄
제조
그때
인사
##ᆻ음
##궁
가진
혁신
최초
##기준
스스로
잘모
파악
##하지만
##했습니다
##장에
러
##le
살아
##원으로
##증을
##됩니다
가져
사회적
하였다
운동
##st
무엇
실제
##치가
작품
8월
그가
##ou
##자들이
##핑
안정
라며
망
되면
11월
단체
##건을
##구하고
글로
이르
오전
##하던
민주
##센
훈
의하여
있음
##에서의
##고를
불가
뉴스
##이기
몸
동시에
##획을
중에
소방
움직
근로
무슨
농업
만든
저희가
##성에
자동차
밖
60
해도
마을
워
프로그램
신규
주는
전기
##오는
##개의
생각을
##와의
곧
##령으로
##혜
##주택
일어나
직원
##있는
##디어
인한
##업체
##ᆯ레
행위
##음에
그것은
##옥
##뉴
##동산
비스
##들에
제도
전자
내용을
제7
##만큼
공유
##통신
영업
##골
동일
구매
##ᆨ트
어려운
##꼬
부모
팀
##지로
##털
##휘
여행
없어
##리의
##단을
선수
거쳐
##ion
##회가
##욕
효율
수입
못한
##대한
우려
됐다
땅
이라며
##되며
서울시
시즌
##좌
청구
아마
펼
##빠
각종
우리나라
사실을
회사
##ᆸ다
꼭
##라면
특징
##드를
제안
활성화
##평가
##움을
##대가
차지
최종
앉
모데
가스
비해
책임
분명
##등학교
대한민
##하고자
시간이
##행정
해당하는
빈
청소년
행동
수요
부담
휘
경험
위해서는
출연
##제가
##펴
##상은
##관을
얘기
두고
##혹
참가
받을
##만원
빼
##리지
중심으로
형성
조정
전혀
상당히
매출
##중에
말한다
##보다는
소개
글로벌
##스타
##투자
자세
논의
##팀
쉽게
2월
불구하고
이내
반응
덕
받았다
##하신
##거래
참고
최소
##지지
##텐츠
지도
이것은
경우가
보는
국회
##듯
낙
##내는
기초
있지
##냈다
th
##했을
국토
##ct
##꺼
나ᄂ
##ᆻ으나
재산
소재
하기
##함으로써
확산
현황
억
##히려
실제로
##으로부터
##맹
년
그러니까
##거든요
엔
##식이
벗
생각이
##ᆼ이
##드시
슈
##어도
금액
##시키는
달라
말씀을
전환
한다는
되지
기억
것에
살펴
묻
협의
술
브랜드
대체
예를
전달
##퇴
오히려
##했지만
##껴
##휴
그것을
심사
##괴
팬
##함을
##일에
관련된
수는
##서비스
##예요
전략
##회사
얼마나
도움이
사유
목소
근거
##분을
꺼
재정
전통
과정에서
##20
##었고
특정
##붙
##조제2
일단
##안에
정보를
겪
지하
없고
차량
상품
##하다는
인증
못하고
가는
그럼
원을
마찬
##시오
##하기로
체결
예술
플래
##대상
##비가
질문
##육을
영상
색
곡
##규모
##보는
##활동
재판
3년
##춘
##보호
혹은
작업
##줘
범위
연계
당연
##즘
반드시
모양
주식
부동산
밖에
##바이
숨
그동안
해양
향후
라이
부분에
적절
##더니
보유
칼
##회는
쏘
하다
원고
단순
이상의
##특별
핵심
아파
빛
##캐
##딩
##정의
검찰
##과학
받는
공연
점검
고민
시스템
대책
제8
##료를
마찬가지
##꾸
##사무
익
아니고
음악
중소기업
##하기도
지방자치
잘못
##50
##행위
##도에
문제를
##쳤다
잃
##납
찬
결혼
내년
##주시
##10
장관
흥
대전
##튼
현지
이사
지원을
어린이
##릭터
이야기를
유럽
##대표
보통
##나는
제기
기다
확정
##어를
좋게
##흡
##만이
##ed
부정
아까
어머니
복지
구분
더불
회복
00
그림
시간을
전시
##단계
필요가
만약
흘
##ing
##체를
##ᆻ어요
##om
##되면
##법을
##ᆼ장
희망
장기
쿠
배출
설정
##el
정상
결과를
##괄
##과는
2년
이라는
선고
바뀌
캐릭터
이행
##et
전쟁
##쇄
##자들은
##자원
신경
##는지
노래
##싸
사람을
느껴
##힌
##주고
##렴
전부
##보면
##르게
엄마
반면
사전
섬
설계
대법
더불어
##먹
##짝
가능성이
열린
옆
경우에
옥
없습니다
독립
##일을
쇼
##품이
욕
없을
##리로
##량이
##삼
플레이
##성은
대한민국
##ᅦ이션
##었습니다
의무
표시
정당
프랑
##에요
인식
##했으며
출시
##자들의
○위원장
제2항
체험
힘들
보험
##닝
##낸
##가의
사람의
싶은
스트
##페이지
쓸
기여
##소가
##성의
70
근무
##이드
취득
##로운
자주
에너지
##사와
것처럼
창업
##받은
##회에
삭
##권의
음식
##얼
##소에
액
선생
언급
##만을
##ac
자치
충분히
딸
##라마
공식
여기에
##킬
조치
안에
분위
##적을
흡
하면서
##하겠습니다
##르고
그다음에
걱
##겼다
##쩌
굉장
주고
끼
일으
유명
의견을
않다
관하여
##이자
아름
##장과
부분이
in
##학생
특수
설명했다
사람들은
뉴스1
##구의
##수록
적이
불러
넓
##문제
공정
이뤄
##대학교
진단
꽃
##빛
##같이
2차
197
##물질
##is
##인과
습
##우는
##식품
멀
보조
##30
체계
것이라고
##구가
##소득
##보험
내부
영국
냉
저희들이
##기와
소득
##몬
묘
독일
##실을
공부
조합
출신
##알
마음을
접근
혜
유통
##서에
중인
##분이
주인
거기
힘을
인터넷
수익
지켜
대로
##개정
가정
공사
컴
##진흥
##과장
##호의
훈련
분류
덤프
비율
건물
##기관의
##화가
##운동
##려는
하게
##대는
##정부
##예산
##씨는
##ol
##쇼
##적이고
##회에서
##픽
##프트
##웠다
탐
발굴
국립
디지
35
머리
##처리
전반
##웃
##단의
##구역
나머
나누
##스티
##끌
##따
이때
##시고
범죄
##디오
2020년
##했다는
자격
첨
##나무
##톤
##분의
##정은
능력
가입
남아
오른
재미
많다
명의
여전히
거기에
##튜
금지
시청
##제는
##자체
끊
여자
온라인
##익을
통과
##하였고
##대비
항상
겁니다
##대학
##씬
##했는데
굉장히
것과
##re
꿈
하나의
##트로
유치
##감이
편성
##치고
옮
##험이
뽀
제9
불법
활동을
자신을
토지
레이
##벨
##ᅪᆯ
높아
비롯
통해서
##ay
80
전투
##대책
속에서
##사로
한다고
##간의
부분은
손을
균
##금이
위에
##ᆰ은
있으면
바탕
그게
##인으로
자는
##겠지만
##리즈
자가
##am
다니
시작했다
##네요
나를
강력
##만의
##ᆺ포
캠
밤
수밖에
원래
##as
식품
방안
##장으로
내지
서비스를
떠나
나무
나타났다
측정
헌법
##분에
선발
2015년
##담을
1일
##맥
##벼
완료
##시스테
센터
##12
있었던
아니면
##행을
추천
##ᆻ기
언론
##잖아요
##덤프
##관의
시절
##상으로
측면
생략
##제의
##렌
졸
틀
인도
종류
택
##조제2항
36
제거
원칙
보니까
선보
##방법
디지털
하늘
##자기
임대
##일이
그것이
반대
사이에
##ᅪᆯ영
##엄
##본부
콘텐츠
##짓
완전히
##계약
있어요
에이
빌
젊
일자리
신뢰
##전의
2017년
재난
소리
조건
아동
##이어
##석을
신설
##끔
##에선
##명으로
던
우리의
특허
사용하는
지속적으로
##으므로
##지와
똑
점을
##쓰
2016년
호의
부여
장애인
##신을
2018년
동의
##산물
쌓
달러
보였다
일정
놀라
지식
기재
만족
진출
국민의
엄청
##에게는
##픈
##콘
보이는
수상
취업
페이
##bs
##킹
##ᆷ버
공모
5년
##스러운
##나가
전했다
실질
부과
혼자
돈을
비판
마이
기념
##없는
나오는
##인트
대형
##ᆸ지
매년
이거
##시가
지방자치단체
이끌
했습니다
##수도
본격
##계의
##ᆭ은
맥
##사고
공포
외부
지금까지
##멸
보니
생기
안내
광고
상담
상호
관심을
##빈
##재산
돌아가
후에
sk
st
##겠다는
심각
##되면서
##그룹
하셔
소통
문제는
못하는
만드는
덧
이것이
케이
##주를
기준으로
##님의
자료를
프로제
##해도
1차
##전자
넘어
그래도
196
주의
왔다
항공
대통령령으로
강조했다
지키
##프로
전년
##ot
##맨
##있
끝나
1만
완화
유사
규제
##조합
##수로
##아야
##조를
##목을
##호를
밑
했는데
하락
진짜
##같은
쳐
확실
아파트
솔
몸을
중에서
##명은
찍
수사
##시킬
불편
지자체
나의
불안
초기
인생
만에
##섯
앞에
##용을
##텔
32
정의
##하였으며
프리
##어들
없다고
부탁
향상
융
##선거
달성
경우는
아름다
증거
취소
사용할
훨
방법을
정비
##금의
배치
##준다
##인에
##되기
##권이
지지
##서의
합의
계획을
##진을
2019년
있는지
##해를
있다면
##고요
##화된
##하였습니다
변호
##쯤
##풀
인력
없다는
디자인
##구나
시도
그를
약물
##퓨
직업
낮은
전화
##기획
##른다
##id
늦
정리
둔
##종의
투입
##반기
훨씬
##었는데
##시를
##스럽게
lg
흑
##군의
이유는
##곤
소송
육성
##체의
인물
대답
가치
수술
##하려는
보도
표준
##단이
은행
가능하다
##포츠
무료
##란다
##으면서
##뷰
눈을
이벤
##어로
##이지만
##어진
##마는
가서
주거
법령
굳
##금융
##건설
비롯한
##랙
##이지
##소의
속에
예비
수용
등은
500
특별한
길이
34
의결
플랫포
##등록
신속
##세가
##조정
쓴
허용
부분을
카드
탑
거예요
대중
방역
##부와
##체가
못했다
산림
##리스
혐의
괘
##까지는
마케
질병
관심
지구
직무
##질을
##두고
예산을
짧
##차를
##ᆻ다고
래
맞는
약속
##협력
입장
사는
정부는
듣고
##킨
##면을
거주
보장
통신
##세대
허가
##한다면
심의
이다
##류를
33
##ᆺ데
유형
생태
촬영
##ro
있어야
단위
제10
##나요
##단은
연속
여기서
철저
실패
##뮤
##부장관
##간에
2014년
러시아
##드리겠습니다
##워크
일반적으로
이곳
##실장
채용
토론
나머지
발생할
빠져
면서
짓
뒷
the
자본
미리
추정
##관광
남자
샤
당사
도움을
##회계
학습
창출
##ad
섭
tv
000만
그룹
교수
구입
받았
##인에게
절대
##묘
타이
##비는
##쁘
##세기
##내고
질환
##춰
##민주
2000
마음이
##듯이
바탕으로
##전문
빨리
않으면
방지
사항을
벤
뚜
말씀드
##조차
상황을
좋다
##병원
10년
불과
잠시
필요하다
들어서
본다
##잔
경남
임시
##지사
아울
##점에서
1억
##함이
지니
##든가
##만으로
놀
그들은
지역의
강원
으
대출
같습니다
제일
덧붙
체육
외국인
##계가
옛
##컬
벽
해석
기능을
##주가
##경을
계산
그녀의
##달러
굴
성격
권한
스토
간단
##역시
객
들고
##닥
##경기
되는데
##신청
##ᆫ차
##리카
곤
사항은
고개를
##데이
적극적으로
##ec
노력을
모델
##시키고
##위는
##번째
##il
일부를
내에
이름을
여름
##법에
그녀는
##겠다고
##ᆻ다는
수정
불가능
참조
환자
세부
아울러
생각해
90
##깨
반복
자원
젊은
주인공
##되어야
##단에
롯데
남편
it
동물
장소
제1항에
말고
##하실
상황에서
기회를
##ig
완성
##률이
목적으로
시리즈
드라마
다음은
거리
##분기
실천
갑자기
노인
##ent
프랑스
##과정
발생한
45
##까요
##운드
3일
고통
##인증
3개
가르
타고
##ap
계시
##싱
자산
까지
원하는
뿌
##심히
##쁜
##결과
긍
내용은
##섭
수고
유일
##뿐만
차이가
##선이
도와
딱
##액을
명령
위탁
확인할
운용
시대
##경찰
마무
채권
경과
이것을
그러한
당부
않도록
##구는
뭔
그에
##리와
##홀
2008
작년
군사
평화
부문
##놓고
포함한
##려면
##홍
향해
개별
발생하는
##형을
나이
획
##로를
이들은
발행
누가
개의
걱정
곳이
전해
긴급
예측
자녀
장비
것이었다
일상
올려
##프라
##몰
##어져
대법원
##듬
##갑
중이다
걸쳐
##ᆨ시
공무
업무를
##학을
달려
##도와
##em
##nd
영역
##분야
##였던
놓고
의원은
##둔
##스와
##체계
##제1
이번에
비슷한
갖추
##컨
##검사
##됨
친환경
##렬
정기
접수
다가
##가족
케
정부의
##체육
대기
일은
맞춰
##들로
##룡
싫
바꾸
그들의
##수산
통계
잊
나아가
##학적
연장
##리기
전라
적절한
##웅
##ᆻ으면
##구에
바에
이외
방식으로
프로젝트
##장애
내용이
##리한
컴퓨
##당한
##우고
아시아
차례
##전이
##함에
울산
지금은
보수
외교
유니
##심의
##조의2
##ᆨ이
사실상
##간다
효과를
떠오
수집
##화에
둘러
##호에
##보건
즐거
##금은
##oc
조치를
초과
뒤에
늘어나
##크로
비중
##점으로
##원과
##군은
신체
자체가
##문이
단지
##리그
##기고
힘이
멤버
##트는
전용
심리
최선을
##1조
##서가
했던
##스에
##방송
이로
중단
##조건
싱
##니터
쪼
맺
##값
기울
이유로
37
38
미국의
이들
보상
2013년
국방
품질
소관
동료
양성
##항의
법인
자율
눈에
겸
강한
국회의
##샤
##윤
발언
지난달
##위가
실현
회원
##지방
시행령
2013
##0년대
나왔다
##마을
바란다
도서
##이익
정부가
논란
##움이
보급
##면에
당해
경우도
##정으로
제공하는
##ᆸ은
노출
##op
아프
인공
교육을
##bc
것이고
아내
든
승인
상황이
##니아
접촉
최신
##소는
쓰는
효과가
하더라도
##지게
차별
겨울
않습니다
자리를
맞춤
##둥
##ation
앞으로도
##지어
주관
##재를
##이란
방안을
##구조
아무리
300
화장
종사
지배
취약
##액은
집단
최고의
맛
##이면
##학과
##록을
##액이
과정을
졸업
몰라
도민
나갈
열심히
##트워크
##낼
##선의
신용
매일
두려
방법으로
##점에
##인들이
했지만
잇
##번호
##켓
뿐만
##리어
##릉
##발전
대부분의
##당이
##임이
의심
위원회
##청은
등과
외의
적합
##제품
##가에
말에
통일
모집
결합
줘
긍정
앞에서
거부
##있다
##실에서
##군이
농촌
종교
웹
조절
마케팅
해소
스페
검사를
##빙
바이러스
받지
민족
없었
##엘
대표는
##조치
폐기
##본부장
빅
물질
##제한
##운영
피부
##율이
메이
관할
##바일
남북
##표를
있으나
이란
때까지
십
##맞
##지면
잡아
컴퓨터
##0만
오랜
나온다
ai
##11
이래
실행
주목
##트가
특성
5일
널
그렇지
인근
##니스
##소송
##감사
##us
있으므로
30일
백신
깊은
보완
비상
##3조
생명
병원
아니한
##다니
##개소
##죽
거야
어찌
##지기
편의
##2조
##od
당연히
##치지
##사업을
##해져
##광역시
명확
길을
##하나
##어버
##비용
성능
감정
가득
##롭게
연기
##았던
##제에
말하는
사실은
모니터
도착
##안이
##연합
만한
코스
사업에
##해진
##테이
##담당
척
##노동
기술을
##뇨
책을
##라우
2012년
많아
##제도
##녕
##륙
10일
멈
##해주
누군
따로
에게
##시의
처음으로
##하라
##스토
분리
이른
##법이
펼쳐
이의
기업의
##공원
##쪽에
꾸준
##공무원
세워
알게
##위의
접종
쥐
보기
명이
고양
점점
소비자
내에서
##령이
평생
생각합니다
##안은
대화
##하려고
점이
정확한
항목
##문에
빠른
##베이
##드립니다
##점은
덧붙였다
##돈
하이
최초로
생겨
모바일
194
홈페이지
##이의
원이
##절차
맨
여부
사태
그럴
확장
채무
주차
오염
##계에
다소
혜택
삭제
정도의
삶의
아는
그린
39
##ᆷ으로
유발
##셔서
마무리
종료
빠르게
##량은
벗어나
개인정보
프로그램을
여부를
맞아
##남도
제정
요즘
기록했다
흘러
이익
점에서
##씨가
##업무
##리며
7일
즉시
적은
날부터
##만한
호흡
촉진
##ᆸ이
도내
발달
##력은
규칙
세종
##증이
수원
##대회
알려져
##많은
##받는
지역에
##카드
혈액
15일
##둘
상대로
1인
##ᆯ링
화학
5개
##히는
##보자
간의
하자
손해
예산이
48
인구
구청
걷
##os
출발
##조제3
##유의
모습이
스트레
물리
##으니까
부칙
##직을
##트의
##4조
아쉬
베이
##당은
중간
어째
##식으로
통하여
대리
##가스
태양
삶을
입니다
뽑
화재
##증권
극복
주문
소외
관심이
사업이
교육청
##십시오
스포츠
##수에
195
고정
위로
부르
##랄
도전
시기
시범
권리
##의료
##율을
2일
꽤
당초
무려
대단
갈등
값
우승
2010년
끌어
어렵
포기
아침
형사
보건복지
것인지
##리오
2016
운전
##5조
2014
피해를
구체적인
대회
##진이
숲
기후
20일
들었다
과연
마찬가지로
##되었고
##락을
뮤
합리
##럼프
통보
칭
##이라도
##림픽
##iv
##ch
##말로
소설
##하셨습니다
##훈련
전북
인간의
평가를
작용
아닙니다
2개
##티브
강남
법무
구속
와서
2015
보여주
##6조
필수
##팔
##국이
떨
들여
##가능
##국은
때마다
상대방
##하니
수많은
되겠습니다
자금
42
무기
증상이
##고는
##꽃
전날
사람들
괜차
##7조
궁금
##ᆻ는지
실험
##상황
보관
##께서는
인상
##im
##받고
##ia
쏟
##력과
집에
세상
안에서
##보았다
##쪽으로
그걸
of
4일
완벽
배경
##우스
제2조
##갔다
아닌가
미세
쌍
##핵
있습니까
##주민
##시스템
##플레이
혹시
수도권
자랑
시각
##적으로는
월드
저장
##ᆼ한
스마트폰
이탈
나중에
조기
무역
세포
##위원회의
하시
##론을
시정
해주
##ᅢᆼ크
##ᅥᆫ드
##개선
##km
이하의
섭취
침해
##듀
강력한
이유가
명칭
##주로
의혹
밥
컬
동일한
##칼
기계
##님을
##물로
트럼프
연출
그러면서
그렇다면
하천
증명
영어
##등급
분양
가까운
##드러
##협회
##하시는
##큐
부서
##향을
연간
응답
4개
물어
##15
모르는
대통령은
##관에
##지면서
##위로
##김
입을
유전
14일
##지에서
##문의
흔들
##컵
##물에
##ns
##만에
##신고
##부에서
상황에
곳에
##녁
먹고
파괴
말이다
전개
##토록
##세계
2011
거짓
의하면
관찰
##담이
##중한
##ᆼ크
경상
언어
후반
실적
수수
##헤
유기
건립
##부터는
2018
##했으나
않게
##션을
네트워크
인수
된다고
##규칙
가로
44
##법인
대규모
##연구원
##하였음
앉아
##키는
있었습니다
돌려
##8조
##했음
위치한
쓰고
방침
55
지출
직장
##량의
아닐
##었을
##심판
장면
소요
##난다
제3항
##었지만
##력의
시행한다
국무
##학년
주도
##보니
##13
2011년
보존
채널
##상공
##버스
기사
##식의
서울특별
65
이건
##화의
낭
한정
상처
있었고
##공단
버스
텐
덜
세입
최저
생각한다
##산을
##ce
흐름
43
처분
##전에서
##비로
된다는
옷
##틴
위협
서류
게다가
납부
사업은
국정
재배
##이사
하나에
보안
가벼
그건
나도
아름다운
수질
##와는
맹
글을
중요합니다
외에
##되었으며
28일
##드로
사장
심지어
회계
훌
면역
원인
있음을
벼
사람들의
6개월
답변을
저도
작가
때도
약간
##케이
##실에
##랜
형태로
누구나
투표
추가로
성과를
출입
##비의
##명에
앨
모여
요소
교류
##ul
인터뷰
##질환
방어
환자의
광역
메시
청와
##법은
않습니까
남성
##당을
높이
증상
교체
맞추
생각하는
이용한
##언론
공직
부처
kt
만들고
75
비롯해
##률을
##웨어
아버지
##경영
때에
아들
챙
취급
##약품
##신이
얼굴을
리더
맞춤형
다이
경북
##건이
장관은
선언
띄
##생을
완전
##콩
##공간
##작을
그려
능력을
감안
휴대
2017
상관
초반
한국의
##드가
자세한
구간
보아
소리를
조사를
##깐
우주
개방
##친다
##기구
##스코
##허가
8일
정한다
것이라는
##덤
25일
숫
증상을
흉
##칸
공감
23일
류
ch
27일
##단지
##당의
##cm
46
##이라면
안타
유도
실무
##심사
미술
비슷
52
##9조
식으로
22일
고마
##물은
2009
1회
##ut
사상
생각하고
그만
했고
마스크
엄청난
그저
##데이트
이용하여
관계를
##메라
##부모
차단
용역
##ᆷ과
바이오
받아들
제고
##받아
##시대
제품을
##ow
보이고
시군
보이지
21일
남은
26일
49
민원
##세의
##예술
##찍
뜻을
47
무시
##ong
##드의
인지
아니었다
네이
못할
그거
선박
관련해
복잡
##겠습니까
인하여
이내에
엘
어떠한
##자동
등에서
일시
가치를
검색
인기
수업
지원하는
상징
##중앙
##읍
##40
할인
저녁
##터를
24일
##식에
##건강
임명
왼
##요일
##공감
지휘
##건의
제1항의
16일
##이에
위원장
2007
##시다
6일
##뷔
##년도에
센
부터
##이기도
##보를
운행
영양
##길을
세월
말은
깔
18일
17일
유튜
방법은
짐
변화를
99
건의
##받을
운영하는
##칙을
##재단
듯한
##차가
무엇이
드리겠습니다
##밍
기존의
묵
디자
명예
벌어
그들이
진술
떨어져
9일
12일
전파
##았고
1명
비록
11일
장치
제외한
카페
책임을
규정을
감염병
무엇보다
탁
칠
##봇
이용해
의해서
커피
복합
따뜨
플랫폼
##청구
준수
별로
공공기관
몽
##율은
진입
생존
규모의
대변
193
##솔
밝히
사용하여
##낙
힘든
심각한
인권
어려움을
아닙니까
아이테
회장
사실이
##부로
원내
얻을
자리에
##라든지
공소
13일
재활
모니터링
29일
##바이러스
##하세요
아예
문을
협약
저작
##적이다
사업의
대해서도
쌀
에는
##식은
입주
소프트
##보증
최대한
기금
차원에서
##일까
마법
입법
##자산
필요하다고
옳
##까지의
##실이
2010
말해
##논
대표적인
새롭게
##상품
19일
있었는데
##기기
원활
##서울
싶다
생물
둘째
이벤트
관련해서
##위원회는
착용
갔다
나올
2019
개편
적어도
##공개
아무런
심판
슈퍼
다운
추경
살고
업데이트
폐지
사과
##껏
생성
##내용
방법이
이제는
창조
끝에
##률은
다루
자극
##if
대통령이
존경
##진은
국토교통
마침
분명히
평소
애니
##방을
##책을
나름
##ᆻ어
##하다가
농림
적극적인
인프라
##는가
알레
비행
##묵
외에도
춘
이상으로
##해양
##안의
충북
하나는
유리
억제
##공을
아이디어
서울특별시
밖의
##ur
##리라
단속
바닥
##지구
##짐
받아야
덕분에
어깨
##제2
##셜
##un
개녀
##연을
##오염
##활동을
얘기를
##면서도
##ag
보증
고위
##다른
##16
##혁신
##시면
##들어
상당한
모두가
##um
앞두고
##계획을
당신이
##나마
##향이
수급
##하기를
네가
모아
고등학교
반도
##핀
##화로
물을
구현
혐
2만
##아의
##호가
##종합
##하므로
비밀
멸
2020
잡고
방향으로
##권에
##치게
수고하셨습니다
떼
포인트
##치료
이론
상상
의미를
데뷔
##설팅
블랙
##능력
##침을
##꾼
##미를
##공감언론
기ᄈ
확충
강제
성립
만들기
되기
192
##ᆺ은
전문개정
맛이
호텔
경제적
운영에
통상
##항공
##처분
##화는
##대에서
치료를
##시킨
##가로
의회
어렵다
##인들의
◎공감언론
위원장님
부족한
##해가
상고
징역
열고
##롱
파견
멋
입장을
꾸준히
##제와
갖춘
##기능
근본
획득
유입
##일정
있으니
pc
지표
현행
##몽
정한
##효과
알려졌다
시작한
자리에서
발급
머리를
어쩌
방사
베트
##류의
경험을
기부
합병
##아이
일본의
시스템을
##18
금년
##려서
##군을
개정한다
##자금
문제에
가공
마지막으로
##14
공시
그리스
폭발
56
다행
결코
좋지
마음에
대사
2012
##어날
하나로
기회
가까이
하니
##ᆻ든
사법
##첨
진흥
임금
##석이
##지며
재무
축구
비즈
올리
차이
##세포
2021년
2008년
##ip
##이한
충분한
가을
득
##상태
##령을
주장했다
관리를
##쾌
##님은
오픈
같은데
##비에
가고
리그
눈이
같아요
##등의
##마저
점차
##ᆷ플
##뮤니
연합
검증
협조
##최신
양도
우려가
첫째
설명을
##모데
분노
마주
##명한
##종을
균형
운영을
걸로
뉴욕
들어오
좋아하는
목표로
위원이
좋습니다
다녀
##화와
##야말로
제목
오르
사람에게
찾는
변동
##공부
선임
명시
매매
정규
문화재
먹는
손에
나눠
지상
##관에서
##아버
##국에
포함한다
##항을
##했기
정책을
기상
##전은
지속적인
##듭
제12
의식
##시로
##체는
##망을
위기
산정
58
채택
싶어
받는다
공익
활용한
패턴
##하겠다는
나선
##성으로
튀
봄
##면으로
2009년
들어와
동반
##건에
##미터
승리
검은
##력으로
4년
교사
쏟아
낳
징수
##성장
##엽
상대적으로
상태에서
높다
운영하고
##자들을
95
군수
##거운
왜냐
72
애플
##이용
53
##사에서
결과가
주셔
철도
그곳
##악을
##이었던
##직원
준다
의거
덮
법은
##력에
##시켰다
주제로
꼽
그렇죠
어려워
##것도
##이니
것이며
몬
어ᄍ
뛰어
##질의
##보기
같았다
옮겨
##실로
추진하고
##건축
##에만
세출
대처
구체적으로
쫓
##농업
풍부
##떠
개설
사람들을
상위
본인
방침이다
##ᆺ에
베트남
법적
그렇지만
59
공통
##해졌다
re
##라고요
##주년
태어나
보고서
통제
도는
##가요
실태
2억
##ᆷ프
실내
##조사를
계열
이중
##렀다
##계층
##만은
54
등급
것인가
가면
선도
##국을
##작용
원의
중요하다
신문
##ir
갤러
사람들에게
거죠
법정
제어
##쥐
증권
브라
유저
##기반
헬
들려
처벌
##수와
바꿔
##자들에게
하여금
##ᆷ새
편집
주신
괜찮
##어는
만들었다
##번에
이처럼
##바로
느낄
연락
##분석
연습
##유를
전면
고시
##탑
의미가
가구
##천만
아빠
준용
상임
##성도
##방향
##선은
일반적인
계속해서
스위
##뇌
선포
간담
인재
##퀴
앱
##릿
입고
어울
내게
지적했다
##놓은
매입
드러나
에서는
계약을
##끄러
합동
하도록
57
대상이
창의
돕
희생
중국의
캠페
그렇습니다
사랑을
다음에
그러므로
매각
훌류
20년
파트
##싼
시행일
구성된
란
개념
총괄
##가고
거듭
##판을
##검을
##봉사
뛰어난
##더라
멀리
##증의
4차
말할
##ps
업계
64
소리가
제1조
아직도
쓰레
진료
넘는
다섯
주기
사이의
셈
##적의
##자들
비정
문서
무서
노후
##대와
1개
소년
단순히
무르
시는
##권은
##게임
##테크
가야
세상을
고려하여
별도로
혐의로
한반
##ab
카메라
과태
##지능
잠깐
##철도
##소에서
##질이
##선에
응급
고속
선물
과학기술
##해요
##ᆻ으니
가리
절차를
정보통신
깊이
초등학교
쪽으로
지연
ap
##낸다
오늘날
뒤로
##ᅰ손
##가락
발전을
발휘
유명한
소화
몸이
이후에
##여서
관련하여
지역사회
무엇을
짧은
활발
열어
##17
##민의
깨끄
##치의
플라
건강한
미치는
##집행
역량
유튜브
이용할
##로의
안전한
횡
적정
##하고는
##누리
신종
도망
##로서의
선진
##조직
##0조
모른다
##데이터
ar
이전에
죽은
##어의
질문을
말씀하신
기준을
대통령의
##땅
근육
위원님께서
당신의
측은
다르게
기반으로
시켜
##리게
##억원을
우수한
##하의
500만
발매
##기지
회의를
##세에
기업이
미세먼
커뮤니
##뚜
게시
관련한
아르
##트에
##학의
##감독
객관
뭔가
시작으로
##결을
관람
콜
2005
엉
62
##톡
현지시간
소녀
얻어
녀
생긴
녹색
##하려면
물었다
150
되었습니다
교환
쩜
타당
엘리
가끔
왜냐하면
##액의
국장님
물러
##유가
미디어
##억을
##금에
연령
줄어들
문의
위원님들
입은
임상
분포
##씨의
걸어
합격
가게
그것도
사전에
충족
관광객
너무나
없지만
번역
묶
##ᆺ째
##급여
폴
쓰러
매수
현재까지
##책임
##부장관은
스태
##th
##여성
사회복지
입력
소상공
당장
혼란
행위를
집을
##숨을
확진자
단독
컨설팅
##되었습니다
##양의
##법의
법에
하거나
퇴직
수록
수소
##사용
결산
누적
for
경우에도
##진의
있겠
##넘
과제
역대
추구
400
경계
66
##님께서
##일은
6개
##재정
한다면
지역에서
##카오
정착
##사업의
너희
##르기
칸
분들이
않을까
돈이
크로
받게
##ov
대하여는
##우가
##펜
제13
상태를
과도
그와
못한다
##하면서도
sns
쇼핑
가능성을
아이가
##사례
##호는
포함하는
##전거
방해
개혁
당선
재생
전망이다
##트리
120
##술을
##물관
전력
담배
없어서
직후
##로가
##추어
3차
원으로
활약
##닉
했을
##동의
쾌
뿐이다
비난
##재판
정치적
##쩍
##자동차
상세
소멸
##되도록
1조
일에
##신의
때가
##재생
##시설의
##앤
사진을
10시
보충
떨어진
##앉
트레
하나가
언제나
그녀가
놀이
개인의
100만
수준의
이탈리아
기회가
행사를
것이라
##상과
비교적
##었다고
알겠습니다
섞
##기록
분쟁
곁
공장
수치
붉은
행정사무
홀
도모
##일의
관객
해제
쉽지
##ra
하겠다
사후
3개월
자꾸
##되거나
이루어져
##명과
그만큼
실시간
봉사
없도록
넘어가
하여야
결정을
##시설을
정확하게
85
어두
전남도
##연금
##체에
서서
일이다
1000
유사한
##집니다
신라
비대
이상을
정확히
그중
규정하고
sp
현장에서
##시행
현재는
##전략
##럭
##얀
조용
##픔
sh
쇠
참고로
##가격
##복을
절반
머물
부지
입찰
조각
##산화
이익을
##등을
예수
편안
##현황
자문
파이
대기업
의뢰
##류가
그렇다고
옆에
as
회사의
##기까지
보고를
##공동
동생
##략을
##시와
트위
소환
유효
나타날
##석은
점은
##사이트
주어
유해
상반기
상태로
이유를
##실한
뻐
한마
##버전
가동
즐길
##기본
재료
준공
최소한
의사일정
주지
##협의회
이걸
63
품목
테이
강의
본부장
##방안
##마를
종목
에너
대장
##도서
비속
##컴
앨범
##발을
##tv
과세
있을까
받아들이
##금으로
##형의
##해보
올라가
벌써
초청
작업을
##케이션
출판
##침에
더불어민주
경우를
어쨌든
##앗
행동을
가수
고령
반도체
##에너지
말았다
인공지능
분야의
##추진
국내외
##그램
오프
##사이
위임
##우를
산출
kb
2007년
사건을
부품
##셨
##속에
##ᆷ피
촉구
담보
al
##산의
##폭력
건조
텐데
연구개발
질의하실
좋을
여론
굳이
##80
##리면
##딜
시내
정도가
주말
스킬
67
조례안
하반기
적응
출전
##증은
마감
아니냐
점유
지시
##섬
내고
##ri
##관련
지내
널리
##사항을
건너
사기
미만
##관과
저지
##국제
41
이들이
##군요
동기
멘
##파크
원내대표
일부개정
보육
##소방
원인이
##룩
되었고
아시
공고
이자
공기
##된다고
선배
사내
것들이
당신은
##인들은
위원장은
##평균
흰
출석
연말
물류
##하겠다고
##25
그에게
깜
키워
조심
민주당
조달
전담
업종
##마자
어제
활성화를
##상담
테스트
kbs
권고
업무보고
##업자
##덜
느낌이
##장치
내는
##시키기
잘못된
근처
빚
그날
감사합니다
빙
##하에
kr
경험이
원자
##보다도
일제
필요합니다
맞이
열리는
잠재
##보조
선생님
비속어
##교육청
상속
데이터를
곳에서
만난
전주
190
초래
2000년
##공항
##mm
안타까
화려
많았다
##시민
않아도
이들의
반응을
##로드
만성
새벽
##심으로
충격
에스
결과에
이달
수리
국가의
##보며
중심의
##첩
##실의
나섰다
##경이
사용되는
go
징계
##보장
##나게
31일
학부모
올랐다
##소한
##비아
폐쇄
보지
현재의
##시피
##조제3항
감시
선호
문학
결론
국회의원
##식과
연관
##ᆨ터
고등
뼈
##집을
여겨
그럼에도
고급
없애
##하였
##해서는
연구를
연주
최소화
패션
성적
and
라인
##이야
물품
이루어진
##ta
보며
식물
있었지만
##셀
읍
작동
담은
간에
밖으로
제11
부인
틈
교과
런
인용
##양을
꿈을
관리에
준비를
증가한
##수수
페이스
듯이
능력이
##ter
낼
철저히
##공업
본래
성남
동아
de
##점검
증액
크다
##르크
##더라고요
##60
##원장
##하였으나
아프리카
##면의
주소
##콤
예상된다
사용한
##시티
탄소
##범죄
##견을
옛날
##메이션
##인력
비용을
공원
클래
##수한
위의
이상이
##체험
##적용
복귀
최초의
알려진
당부했다
##형이
홍콩
할머니
젖
거절
##혔다
등이다
재단
분이
올바
분야에서
공중
1일부터
사람도
관측
##모를
##멘
##까지도
목표를
흔히
지원할
제공하고
일치
진정한
##조가
##았는데
##교육을
갖는
죽음
주십
##000만
맞게
자전거
일자
구역
변호사
실질적으로
들은
가상
가슴
골프
때부터
##호로
많고
유일한
융합
##사업에
인건
먹을
층
##방에
못해
나쁜
이슈
제공한다
ip
##미가
##ine
##자도
제14
활용할
의원이
##붕
유의
##잖아
시가
의견이
000원
지역을
일정한
발표한
##가지고
신청을
##하되
##언을
없기
아이들이
붕
않겠
찾아가
##관으로
##문은
예외
메뉴
보자
##란드
유용
68
풀어
생활을
모색
##끈
##눈
철학
쉬운
무한
3만
음식을
##동에
com
소장
소독
스타트
##이라든지
##단으로
##의원
##협약
옵
##연구소
##다란
지하철
1위
##낭
##봄
말로
넓은
등도
서식
##지자
##ᇁ은
자살
스피
솔직
##대행
##국민
설득
없게
##전쟁
##으시
종종
로마
사이트
가맹
낸
학생들이
이스
상업
질의를
보일
프리미
##정과
개선을
사업으로
##앞
이름이
띠
투명
98
집에서
곳은
혜택을
하던
##화학
까다
시설을
자기가
있고요
농어
##젠
통화
바람직
##놔
##재난
괴로
불교
어른
도시계획
차가
보았다
##륜
기본적으로
to
위생
you
진행된다
##cc
무너
후원
지닌
운송
씨는
##함과
충남
##힐
##염이
아무것도
발표했다
##ayong
##부처
밟
패배
승인을
드로
2회
말도
##주에
얻은
##도에서
##닫
원심
절감
저하
##근로
##선으로
취임
제도를
##24
위에서
수준으로
누리
포장
심장
부담을
교수는
변화가
##관계를
블록
진정
탄생
깨달
##세로
관계가
##세는
검토를
is
의존
상장
되도록
##냐고
##종은
바람
말한
##팩
대폭
보전
해양수산
##산이
전체적으로
부적
##됨에
##넣
반대로
참여하는
입장에서
##축산
시상
97
##거리는
발의
##동이
블루
##나다
##덴
##kg
카카오
고구
동네
바와
드립니다
##생물
51
끊임
##연히
05
##판매
대책을
환경을
##았을
비즈니스
않지만
2021
북부
##시즌
아무도
파트너
제2항에
##라운드
##국에서
##영상
##워서
축소
입학
어쩔
살펴보면
급여
스티
##로그
##조는
긴장
##문학
강화를
나가는
않기
##받았다
다ᄅ
##렁
##였
선출
정원
기분
뒤를
##에게도
이야기가
올림픽
끝까지
영혼
##오고
가치가
세상에
운동을
권리를
##하기에
##가와
후속
네이버
거대한
무조건
96
아이를
3억
##침이
출범
첨단
##였고
##점의
##pl
물건
##개가
오랫
임신
03
로봇
##밥
이끌어
##조제1항에
대화를
유행
측면에서
들어가는
끈
##종이
un
##정비
시장은
다수
충전
곤란
뭘
국비
단일
##청에
닫
##잉
지원하고
셀
69
정당한
일어난
좌우
펴
협의를
주었다
##온다
높게
600
만일
기원
77
##에이
수십
다르다
그나마
지원에
못하게
끝난
##기만
특징으로
##승을
줄어
남녀
찾을
격려
##한국
질문에
##하지는
뚫
자라
##레이드
유엔
##셉
협업
생각했다
지금도
걸려
익숙
소프트웨어
84
보여주는
때문입니다
##시킨다
바람에
제4항
##21
정체
##씨를
74
겨우
소규모
영웅
나오고
한강
신분
우울
옷을
활용해
주최
심한
10개
등기
확실히
형태의
계상
시기에
##경쟁
방향을
감정을
영원
문제로
벨
피고인
오랫동안
반환
많습니다
충청
피해자
오직
자아
##정도
##래도
같아
##생산
올해는
해상
봅니다
조작
##타를
특성을
불리는
분할
새누리
2006년
훼손
결의
축산
상생
무효
저렴
제약
시장의
##파이
들면
##니어
하수
않으
냄새
##콜
제15
콩
##졸
계기로
##설을
내린
월드컵
##ity
교회
30분
생각할
별도의
존경하는
사랑하는
본인이
##범위
##북도
투자를
재해
##구로
유출
시간에
넣어
가이드
##쇠
##장에게
행복한
가격이
##해지는
날아
##말을
싸우
자신에게
##지원센터
곳으로
아끼
꺼내
##둬
##og
ex
초대
고도
결과는
##으로서의
시키
분위기를
##재로
세대
코로나바이러스
##럴
장난
##청이
것인데
낮아
##결정
인기를
##색을
에어
근데
##학습
빗
배달
했다고
2006
핀
##통상
나타내
얼굴이
##밀한
##격한
죄송
수산
만들어진
경쟁력
##대리
닿
##전으로
##금지
나타난
##저히
교부
시공
내용의
##이므로
없었던
집계
##깔
댓
출혈
폐기물
공격을
##기관에
##업계
거라고
이른바
##라든가
벤처
mbc
분야에
내리
최우
eu
##조제4
기운
도달
안녕
존중
행정안전
94
##ate
경기를
스테
있어서는
##차는
임용
##적은
주력
on
거두
정도는
이웃
##행사
순으로
##쿄
아카
주주
스크
##예방
청와대
성인
요양
참석한
고유
다수의
##수입
##영화
되어야
컬러
나에게
제16
##절을
##봤다
대학생
강원도
그녀를
연방
협력을
애니메이션
부드러
따뜻한
과태료
고향
상환
추진할
커다란
##경은
파워
드려
73
중점
둥
위험을
##보가
환경부
것들을
조금씩
대표이사
##라우드
작품을
2명
##위원회를
##서로
음성
##밭
##놀이
도출
수석
임차
크리스
##협의
##되는데
##븐
정지
들이
210
아니지만
10만
쟁
제공할
그러자
##국가
주제
구글
하나를
스키
##행위를
종이
어디서
##소로
일으키
##수준
##둑
단순한
en
##서와
더불어민주당
할지
아우
연도
경찰은
##데미
##참여
햇
##소리
믿고
확립
별표
창작
##치로
버려
##재해
첨부
경고
손으로
##ᆺ하게
오빠
주십시오
천천
##탁을
확인하고
##먼트
도지사
비가
몸에
##건으로
##연이
기소
처음에는
홈페이
전공
담아
단기
미래를
지금의
내놓
##개로
겪고
열었다
참여를
계획이
예능
수학
##규정
특별히
안심
중복
##순환
##해지고
족
09
##표준
##름이
기간을
멈추
##법률
제17
자연스럽게
시에
##ᆷ피언
되며
펜
사이에서
천연
면접
시선을
미사
미안
제3조
76
93
학술
응시
디스
##igh
감축
내외
체포
##홈
사항에
똑같은
가지는
##히고
앤
스타일
실시하고
연수
가축
배포
지체
예산안
##몇
사용하고
토대로
##해질
천천히
시장이
의원님
논란이
중학교
위법
대구시
현상
기준에
요리
몬스터
감독은
자세히
면제
훌륭한
셈이다
업무에
허가를
저항
##당에
간접
##군에
적합한
##ess
##비와
78
전세
목소리를
앙
후에는
봐야
위험이
지어
2005년
입증
##사랑
##차례
191
신축
마리
모습으로
사유가
옹
것만
싫어
방식을
역량을
페이스북
일으켜
체크
##방지
순환
시나
악화
9시
##실은
무릎
무게
##ea
##경에
감사를
공항
전후
##천시
뻔
돌파
부상
레벨
금속
##명령
##전한
##레스
cl
수수료
개봉
##무역
펀드
위반하여
내용에
##르몬
발사
감각
##체로
있죠
장은
생각은
접속
##메이
평범
##연한
바른
호소
##기한
결제
##회장
속하는
부디
시대에
2022년
진행하고
기능이
##룸
예전
현금
르
흡수
노선
미니
이어서
올렸다
그러다
##펙트
영상을
미세먼지
영업이익
요구하는
워크
con
대선
없으며
본격적으로
88
이기
개입
나타나는
회장은
식사
배제
##개혁
##ers
경력
언니
##려가
사람과
설문
##봐야
##22
크고
배터
##여야
일도
중의
##변화
##리스트
모르고
삽
입원
것인
뜻이
찰
나누어
무리
사용자
01
잉
안으로
참여한
대체로
손해배
하나님의
##고가
전원
때의
스타트업
부채
주시고
그러니
##팡
공간을
남겨
필요할
경비
장착
##빌
몰아
수영
기술이
출산
청소
##된다는
##대출
수여
su
통지
민법
##통합
04
수의
독특
게임을
재활용
##위원회가
마치겠습니다
##est
물건을
##목적
##쓸
없어요
드래
맞지
회전
##버린
농가
##운용
교육감
명을
배당
계신
자의
관여
가질
제주도
가만
귀여
요인
예약
##px
제조업
감염증
공동으로
##패스
한마디
없으면
##초에
봐도
##미나
##백만
##담당관
사항이
그렇다
진행한다
내일
부장
손상
늘어
##설명
관세
지방자치단체의
##하이
어린이집
##재가
보건복지부
사례가
##여행
마침내
##뜩
개발을
전라남도
쳐다
시장에
##자격
마치고
살아가
늘어난
듀
근로자
개시
##에게서
지분
모자
출생
편이다
##위원회에
##부문
인정하는
or
##기금
자궁
##들한테
부당
허위
편리
##제3
느끼는
##진과
내렸다
##었으며
대학교
고생
##and
정신을
도지
87
들을
댓글
##보전
선별
인사를
##ᆯ리티
오늘은
300만
간호
법률의
하려고
##ᆺ의
위와
관련이
##나이
알지
돋
##리트
털
질의해
무언
과장
낯
석유
##닐
목소리가
기대된다
끝내
어르
들어간
존재하는
##하자면
삼성전
쓰레기
##수요
##곳을
아무래도
정식
드리고
추진해
단축
79
##역에
고대
말씀드리
칭찬
##병을
02
시장에서
부착
일환
속으로
이용하는
제18
국장
##유치
재능
상품을
화가
엠
달아
##사건
7개
데는
회수
말씀이
##통을
##달라고
##스틱
만날
구성되어
동부
2002
에피
##져서
거지
##자료를
성장을
제4조
불이
유인
화면
여성의
묘사
##미는
제2차
보유하고
##억원으로
처음부터
분위기
##계획의
##체인
중장
단백
##지수
법을
##빨
기본적인
부대
##단과
검출
담긴
사로
좋겠다
챔피언
##지역의
pl
○기획
##프를
##또
ne
##녹
유관
##독을
원장
##연의
팽
웃음을
작곡
##부담
북한의
한화
##멍
아마도
드는
용인
유지하는
격리
곳을
##과장은
##마의
집으로
남부
##동물
술을
##청의
금액을
내세
##주기
보면서
추진하는
낫
##버렸다
sc
2시
##주와
제5조
##체계를
이틀
##용으로
씻
주세요
##확인
도쿄
선정된
##호선
○도시
무사
며칠
나름대로
##하라고
적발
아니하고
학교에
##하십니까
기도
저소득
빼앗
86
##긋
가시
병행
올바른
기대한다
##구와
제20
눈빛
사건이
등장하는
유아
것보다
셋째
##끼리
상정
##선수
시민의
##게요
고발
이르는
상황이다
기독
이름으로
기간이
축제
깨닫
##층의
긍정적인
말하고
응원
다를
부활
관리하는
겹
도덕
##하를
##접종
##관한
관계자
내의
추적
2004
##즈를
##대화
스토리
내내
죽을
##길이
별지
수요가
말라
어차
일방
것이므로
출현
##대체
일종의
전송
제19
##루션
92
##서도
수준을
사업자
5억
없으므로
교육과
##사인
명백
부진
실질적인
##웨이
##하더라도
보스
전의
계기가
##텍
어차피
위촉
##않
##았지만
본문
##기관이
매달
넘겨
유전자
수련
##마가
89
마친
금리
나면
지원이
##라리
##계약을
제출한
아니한다
a씨는
규모가
않는다는
그들을
독자
##법상
정도를
##소와
야생
##면적
물이
반사회
몇몇
지불
우리에게
전화를
함유
도서관
ad
목적을
##대전
시장을
im
##산에
안정적인
5만
장학
##경의
나뉘
##온은
us
효율적인
포함된
특별회계
##주일
안보
파일
포괄
##색이
8개
감면
겁니까
놈
기각
꼼
##뚝
200만
피의
06
역사를
시의
압도
시대의
돌아와
뮤지
##영향
특례
아니라고
##람회
##장비
##라의
살인
83
tr
가려
이상입니다
복수
매장
부분도
닮
유지하고
구제
동원
##해진다
##라서
##과학기술
##아는
회사가
없음
확진자가
이해를
갖춰
##한데
않았던
본격적인
##느라
마스터
야구
이미지
메인
대단히
##들이다
없는데
불가피
##년간
받으
특화
##스에서
##겠지
그간
이해할
강하게
##역의
차를
나오지
점에
동작
속도
무렵
##하기는
an
##구청
해요
개요
일하는
있는가
우리를
마음으로
날이
밝힌
자를
보유한
예고
분석을
합류
중에는
신앙
##포인트
연료
평택
이스라
##에서부터
배려
느낌을
##ik
진화
이르러
살짝
##해주는
테러
##수사
비례
시민들이
##갖
뜨거운
범위를
##양이
신호
진행할
체납
##그러
데미
ph
##달라
##매를
호주
청주
##위에서
본인의
진행된
##바닥
##산은
퀴
##해와
##형으로
압박
정밀
지리
한글
##ts
##왕의
어쩌면
##eo
선제
유동
아라
##었다는
##교사
수비
##투표
각각의
##과제
ww
보낸
비율이
영광
##교를
07
곳곳
이해가
사립
의도
계획임
들어갔다
사이버
##고자
참여할
인원
신선
흥미
##시기
곧바로
이같이
##자나
##ist
원작
커뮤니티
캐나다
박사
당시의
당황
이렇
61
임의
시점
##박을
직전
끊임없이
기분이
전단
제1호
##심한
우리나라의
통증
지역은
##화에서
##생태
비추어
복원
체중
인간이
##총리
농산물
08
혼합
풍부한
wh
초등
피해가
1천
상태가
오브
전까지
##펀드
연극
##oo
실시한
워낙
구별
##버려
대행
##신은
승진
##악한
의장
##흘
이리
갤럭시
pd
붙잡
붙여
파티
살해
rayong
##부지
2004년
거는
겉
##셨다
부합
증가했다
시작된
신의
뻗
저희들
효과적인
되면서
##기업의
##정치
##품질
기관의
##ᆷ이나
##줬다
고려해
건데
서버
##로로
간부
##영은
엑스
데리고
본질
거기서
인정되는
종전의
##소비
##했어요
한계
##트와
##림을
##치며
##이도
수렴
이름은
부르는
##na
방문해
##가구
##31
중기
##키로
##감과
국고
##대응
사료
제재
##란히
연애
##이상
인적
놓은
가졌다
대개
##브리
##본다
가난
##자유
##크를
농민
도심
향한
어려움이
클럽
sm
여수
한반도
덩
포함되어
##났다
세무
##연수
마땅
##준비
##교의
정작
검사는
왼쪽
보게
119
관내
##하기가
피로
자원봉사
데에
자기의
밀어
##성한
밀려
##연은
렌
갖추고
추측
##라가
이번에는
닭
모으
##되었던
닦
붙어
전설
##돌이
##이닝
선사
매력
탑재
pr
##름을
ii
2001
높이는
##절한
태풍
스카
아니에요
심사를
라이브
지원해
확보를
관절
##전과
코로나19로
공인
구비
개정규
전부터
목록
##명이다
추진을
할아버
##되자
향상을
씨가
##무는
5g
그분
그들
##짜리
신한
##쿨
현안
##다시
생각하면
넥
보여준다
##영이
전형
의지
임원
기쁨
웃음
##업에
라디오
백성
흙
큐
주민등록
##우의
의미한다
쓰지
모임
않았고
수면
##줘야
자네
발간
아니라는
법률에
기자회
대통령령이
푸른
##물과
##조선
협상
프로세
의료기관
맡은
이혼
장르
##금액
pro
2층
중증
사회의
##포를
##공급
무선
의지를
채취
일찍
##밖
##패를
본부
##감한
##환자
##식품부
##탐
문자
##군과
이사장
##이즈
##산업의
높이고
단서
##행이
상향
듣는
규정이
치열
내년도
소모
##생활을
보인
##적용어
반사회적용어
지혜
원인을
높여
공화
제6조
##조례
성실
항만
법이
타이틀
뛰어나
##디아
복용
○교육
않았지만
##통상자원
소형
##힌다
##테인
패키
하나님
떨어지는
사례를
효율적으로
가만히
끌고
제외한다
##스케
치매
##레이션
am
##거렸다
##재의
##고기
증가하고
동남
떡
종류의
##탄을
필요로
확대를
##평을
##기에는
점이다
요금
##정지
정말로
비중이
세운
활용하여
1위를
대안
무척
두려워
##됐다고
셰
신중
189
##위원회에서
##이던
포함해
##나의
서민
##호와
올린
변화에
축하
저희는
궤
상표
자유롭게
##겐
##촉진
덤
매도
원천
자발
탈출
sbs
##염을
##ive
말씀해
증진
##이로
대외
위원입니다
어려울
말씀드린
최적
2002년
건네
6시
아이의
갱
##센트
##쇼핑
##화폐
넘어서
##재는
전략을
추출
버리고
##렉
노사
무엇인지
한쪽
개막
되어서
수신
동해
##악의
장식
##점과
근대
가속
미흡
몰려
##ᇀ은
##리다
사용됩니다
##오를
##자고
##춤
노르
지역주민
##ob
하다가
산업통상자원
승리를
레드
온갖
보강
강화하고
##등에
##tt
부사
##임대
전체를
뚜려
목숨을
별도
##옹
82
이었다
활동에
프레이
무료로
##하였는데
생기는
식당
싶었다
##채권
달라고
##기계
한때
계절
눌
사업비
톤
##쌍
##폴리
##위생
님
소상공인
##곱
##신문
##일보
주변에
##ᆫ스
털어
##차로
늘었다
생길
현장에
건지
사냥
환영
눈으로
클라우드
무대
모른
##들에게는
지능
##살을
추석
화물
비용이
3대
ict
##치에
##드려
##ff
당뇨
##ell
팀이
파리
온실
경향이
밸
##둠
철거
자체를
않으며
단어
소중한
##삭
대립
집어
##혁명
##목이
북미
##궐
##사들이
앞장
읽어
##임금
테마
bl
##ᅮᆫ다
돌아오
##ha
소식을
모습은
부담이
##법으로
자립
##조의3
##선에서
이사회
숭
스테이
위대한
성명
요구를
지나치게
들어갈
##었어요
##들과의
버튼
홀로
위치를
##방의
무상
수행하는
동의를
##브로
부하
시작한다
cj
##후의
##ᆯ은
한층
##셨습니다
빠진
##국과
##린이
드론
800
공을
그야말로
미친
사로잡
##의가
꺾
챙겨
적을
다름
##동조합
말입니다
계좌
판정을
지역별
안전을
설치된
##형은
##본을
표기
##공정
갖게
##피해
산불
##0억
연예
일관
스페인
바가
과정에
##찾
상실
손가락
했으나
아니하는
시민들의
전라남
수령
보라
##만으로도
##네이
이들을
방법에
##타민
보편
빅데이터
##35
판단을
##방이
예방을
콘서
눈길을
그렇기
기록을
##art
독특한
##에서만
해보
너는
고구려
하나도
##화하는
뒤집
##자로서
사정
##다운
집합
지원한다
1층
예산은
농어촌
아닐까
여야
##발생
찾기
놔
기록한
##해왔다
선포합니다
되겠
인쇄
##차량
경쟁력을
대우
##제공
비로소
2배
출자
어르신
건축물
국토교통부
뿌리
화성
있거나
토양
##복합
게재
##순위
##되기도
편입
##시험대비
##닌
독서
세계를
휴대폰
##로도
노래를
말까지
차지하는
됐
다문화
어업
##플러스
텔레
매립
20대
공사를
나라의
회사는
국세
다리
##접한
##수지
택시
##코리아
제품이
##고에
##석의
하신
있거든요
의사를
10억
군데
공포한
부작용
사랑의
반발
공산
##이유
단단
메모
눈물을
2주
적법
나은
서면
돼서
##밀히
##띠
텍
11시
작품이
기존에
##직한
부부
부딪
오른쪽
바람이
은퇴
공제
전일
##권과
여의
15년
방송된
맞은
##스탄
조항
숙박
과도한
##안타
##ᆯ린
바라는
여유
##치기
##하시고
조세
##27
법원
기준이
모르게
기본계획
미칠
##av
생태계
완벽한
##었으나
채워
창원
##망이
착수
이송
##ᆫ지
브리
설비
소련
셔
일괄
하는지
##수익
이상한
효과적으로
결승
메르
싱글
오로
화합
제1차
##하시면
비트
가중
##센터를
지은
원안
싶습니다
co
죄를
자식
사업장
낚
##되게
문화를
모를
번도
사건의
특유의
하드
3명
붕괴
비디오
인민
차이를
시간은
제7조
##감에
##건은
의정
이어지는
##미한
연휴
귀족
공개된
경주
기반을
##늬
거친
한데
트로
피아
##되었는데
##위기
교육부
##용품
반려
만약에
이스라엘
##르지
했다는
트렌드
상시
##미널
호르몬
##스키
회피
##이와
말하면
서부
소위
##었기
만든다
##ak
민사
명령을
출원
제품의
##감염
지점
##딘
대한민국의
3d
불확
행사는
대표가
스트레스
##류는
##지표
고통을
있느냐
##받지
##역이
##니까요
##산시
재발
지침
##미술
폭력
관점에서
하시는
2003년
1에
헤어
지진
실용
##파의
##고속
육아
배정
제24
신고를
##내기
##회의를
재개
협의회
적지
있다가
권장
##금리
애로
의약품
권한을
4대
최근에는
##분간
##렬한
깜짝
고지
사용하지
오프라인
##바다
기독교
콘텐츠를
##백을
이주
목소리
##나와
다하겠다
막기
상의
크리
처음에
##입니까
주간
복잡한
바까
심의를
감지
##되었다고
간단한
##ᆫ터테인
메시지를
##회사의
##즈의
밑에
발을
이것도
확인하는
##살이
국민이
오해
조건을
##터가
담겨
진행되는
사고가
아들이
전체의
간다
##이었고
노력이
지정된
넣고
내용으로
##화하고
세우
돌봄
나쁘
흠
사정이
실효
##장애인
혐의를
##pg
##근무
기다려
않았을
le
않아서
당일
시나리오
진심으로
중대
이슬
경매
발동
정수
표정을
들어온
진보
에피소
계획에
원활한
담고
시급
프리미엄
##99
중반
지니고
##정보를
##놈
합쳐
##ᆺ으로
연금
부정적인
##문화재
진지
##루를
충돌
목적이
비대면
##모가
##감은
24시간
상태에
치료는
##23
##트라
있는데요
www
장을
용도
##중인
쉽
뷰
##구에서
생각에
주장하는
##끝
관심과
문화체육
바깥
화장품
다니는
##틱
sw
해안
일환으로
웬
##ie
아스
또다시
면적
중에서도
##역에서
냈다
필리
깎
발병
살려
이해관계
진로
차지하고
##이라든가
손실
직원이
##ang
나눔
##고의
하도
땅을
해수
존재한다
부실
치유
##ect
##요한
수를
##사업은
그르
시원
살피
1인당
삼국
방금
##는다는
##해지
양국
홈런
추세
나아
목포
지향
빌려
##들었다
알았
es
인정할
##컨대
지사
세금
##막을
유일하게
부산시
뭐가
##하라는
##화점
멋진
궁극
##실적
오고
##ᆯ의
경기도는
##됐고
표면
없지
다해
버렸다
고민을
##검사를
주체
막아
##긴다
진행하는
섬유
##등이
복구
청렴
와이
실정
##지역에
분산
스케
코미
##위와
한미
평범한
화려한
개통
불을
높이기
좁
##윈
아이돌
도대체
##주지
눈앞
##하였다고
##드와
선행
##격이
느끼고
##ᆸ어
충실
세계적인
감사의
드래곤
##온이
좋고
##사업으로
아버지가
##국장은
기한
전수
높고
말씀드리겠습니다
신속한
시사
##등기
환자는
실시하는
##올림픽
말씀하셔
손해배상
전기차
수익을
no
2003
되돌
요청을
##희는
##판에
맡고
다가가
##박한
##ᆻ지
##90
패널
두산
행정사무감사
##벌을
노하
헛
##ight
대략
것으로서
##스트로
대다
발주
감액
마약
기여할
경과조치
치료가
타입
박물관
개발한
지사는
모래
주장을
##작업
환자가
일대
학생들의
무인
##왕이
멀티
버티
받아서
황금
##드에
허락
상용
형제
##스팅
끄덕
##졌고
팩
##적한
일어나는
크기
4만
사용한다
가격은
##벤처
##뒤
나타내는
빵
매주
대표하는
전사
##주행
인해서
##상에서
이외에도
##자본
누군가
조성을
##따라
제2항의
##디자인
제이
##국으로
링크
거리를
##렇게
아버지는
##고등학교
짐작
○서울
조회
봤을
막을
그로
##규제
다행히
##조로
급증
새누리당
프레
##ᆫ가
여기는
##크라
준용한다
여행을
신장
##였지만
돼요
##랭
의외
##iz
즉각
가라
횟
급성
윤리
##바라
함께하는
블로그
##회담
무관
현상이
양식
민주주의
대량
주된
간주
gs
하위
제23
##플루
암호
재직
번째로
증상은
영향으로
확인을
읽고
##유산
합리적인
##였습니다
잡은
##겠어요
깃
##무가
건강을
판례
학교에서
##방위
야간
세계의
##션이
공소외
마시
##000원
드디어
위원님이
대여
세균
##배를
가볍게
정하여
눈치
트리
발전에
표창
책은
##일로
2단계
##ard
##주었다
논리
4억
대구시는
금강
원료
위주로
체계를
당시에
똑같이
##변경
슬로
농림축산
##석에
기다리고
된다면
농협
듯하다
런던
머릿
자신들의
##70
##못
##영의
##연도
불용
취약계층
이성
멍
##풀이
나라를
##aw
구상
##툰
지명
아나
순수
간편
많지
2022
강요
사용을
종합적으로
있었다고
중대한
숨을
인하
비타민
##관리를
의무를
있었을
뭉
##화한
공동체
파악하고
ms
미소를
때로는
##방안을
전에는
조리
##중의
빛을
공작
개척
폴리
##생이
##네시아
##고한
항소
원격
주시면
져
마음의
성별
의거하여
시달
달하는
유대
제25
시대를
움
밴드
발생했다
아이템
되게
호남
불어
구조를
시행규칙
이겨
드라이
불리
고용노동
전염
정보가
대만
##생의
업그
역사적
패러
##목으로
공약
공부를
##너스
##이었습니다
찬성
대상을
##기념
부패
700
##했는지
입장에서는
치명
말씀드려
헌법재판
관해
##판이
보여주고
스튜
##장관
때문이었다
포항
세월호
법의
180
자료가
##세법
가해
북한이
중독
묻는
험
위원은
평창
2001년
자금을
##스러워
곰
##포르
##공이
##지인
방영
##수급
위원회는
이용자
##시장의
아웃
국토해양
해당한다
수주
세계에서
차라리
철저한
급격
풀이
##인터
##젤
남의
사건에
##인데요
나이가
위안
감독이
길게
테이블
차지했다
##연맹
##ᆺ가
1시간
##즈는
이로써
개발에
비미
답했다
그림을
서명
공개했다
71
검찰은
자료에
여성가족
##행위에
경기에서
데려
역임
##법과
투쟁
것임
캠페인
협회
nc
발효
##팀은
디스플레이
매니
있어도
제외하고
fa
서양
배가
##원들이
높일
요약
들여다
영입
se
배워
노력하겠다
공무원의
##과에
##민이
##타운
##센터에서
로드
##교회
어디에
##병의
국가가
위반한
보냈다
삼성전자
be
현장을
대륙
##26
##사유
동참
뽑아
##되었을
기업을
방치
음주
##센터는
후보는
탓에
##프로그램
##로서는
##소유
##힘
항생
출근
밝혔음
대상은
##잠
##기간이
있었기
##28
인건비
제로
신경을
s4
##전용
3회
##5억
원인은
손님
유연
당한
예산에
##후보
현황을
회사에
##폐기
운영할
##학자
엔진
다음으로
해운
##딱
마이크로
평양
보내는
수행할
##나라는
##함은
나오셔서
끓
포함하고
시험을
어둠
조종
계급
포함하여
##00만원
##쪽의
치고
책임이
##병이
진행을
##대문
후보자
소음
제9조
##어와
##덩
##피아
##제1항
동시
##사업자
인가
경기도가
과거의
##혈압
논의를
위험한
##욕을
연대
솔로
내다
분기
조언
적립
썼다
던져
지나지
대부분이
##골을
인센
과정이
성분
국외
전산
##공자
영화를
##가가치
적용한다
문화체육관광
싶지
드러내
어리
핸드
정하고
사용해
김포
청취
벌금
비서
고객의
##팬
규모는
공동주택
탑승
##차의
##단위
집안
소셜
그런데도
##회관
그다음
꿀
##나갈
지속가능
##년에
진행했다
보호를
남자가
##받침
고속도로
시스템이
##프가
이나
아이들은
제26
경로
##되었으나
##고용
##코올
짚
생겼다
찾고
자제
##텔레
않는다고
잎
##청에서
총리
체력
##se
##보지
##특별자치
##ᆺ불
국유
관하여는
하니까
새겨
##타임
받기
교원
실시한다
이수
트레이
협조를
켜
서류를
강릉
##반을
##야만
##내에
중견
인스타
직접적인
음악을
기업은
실업
nh
경찰에
랜
저작권
##ᆻ죠
##강의
91
보조금
##돼서
같아서
##인들
연구원은
##시설에
여건
알리
##수행
이후에는
##주차
얼굴에
##떡
마라
죽음을
태백
##르트
진행될
오피
##편의
##벌이
속도를
태어난
##미의
인기가
무장
면에서
상태다
3년간
##하게도
주변의
투여
수거
세이
잊지
아직까지
##ᆲ은
##으로도
##전환
##란을
서구
만나는
##스카
발생하지
##결이
중앙행정
##pp
한참
취재
해방
엄마가
##바이오
주가
훈련을
종전
##소송법
##프는
낮추
오지
기뻐
##하십시오
##주인
야외
없다면
새끼
갈수록
고전
생애
서술
##는다고
여성이
규모로
##보상
##해온
##으려
무단
그렇고
패스
정부와
제21
않다는
간단하게
##하가
마디
##소통
영국의
장관이
얻는
여ᄍ
하나인
화이트
아이는
위원회의
기업에
한두
##관리법
흡연
갚
움직임
##ᆸ에
두는
되자
동북
신속하게
오래된
처분을
##진흥원
답답
수송
##ᆯ랐다
##잘
적어
벌이
##역은
##색의
##아시아
이어질
매월
움직이는
맡아
어지
마르
경정
종사자
##뻐
흩
배터리
만화
다스
##토를
1의
##일러
당사자
기대를
제는
학원
##창조
##천의
보고드리겠습니다
코스피
계승
갓
윈
##리라고
돌아온
##륨
고기
위기를
삼아
아가
##습을
he
선택할
##계는
교통사고
확진자는
고수
포르
##돼야
##중심
산하
열린다
방사선
한계가
여기에서
안전하게
마쳤다
가르쳐
##사람
인도네시아
나간
아버지의
다들
동맹
주행
클릭
할까
공정거래
생각하지
탄핵
출처
오토
환경에
자체는
당연한
넘게
여객
질병관리
정상적인
##매매
실시할
##례를
거다
태평
배송
권력
학교를
##ᆻ고요
임직원
선두
전체적인
제외하고는
테크
인센티브
250
##ᆻ더니
거리가
관리가
제8조
장려
타인의
느낌
태양광
찾아가는
##서비스를
##정신
입국
최근에
살아가는
특별법
유래
얻고
##ib
국내에서
출력
무엇인가
들어오는
펀
도저히
율
##족의
거래를
주민들이
등장한다
금방
이해하고
노력하고
##스트를
무의
했어요
##상적인
표정으로
사안
##전화
입술
##거리며
됐습니다
두드러
노트
프로그램이
##기사
초점을
점도
이후로
추후
##팀이
잡았다
##ill
혐오
도중
##조원
저를
##부장관이
110
살아남
성공적으로
mg
드린
혁명
##면이
변신
고백
##파를
30년
9개
속의
신입
##ᆨ시코
##의약품
##주의를
##들고
##미디어
물가
##달을
다음날
##청장
각호의
##ᆷ으로써
광주시
1999
엑
있었으나
수백
팀의
네덜
##스레
휩
과다
이미지를
##조제1항의
코리아
비전
고객이
숨겨
##업의
국회에서
##파가
##신설
##코스
##쪽입니다
정책에
전해졌다
상처를
불가능한
담당하는
##니라
여자가
우편
##흔
넌
드릴
한국은
줄여
갈라
브로
침이
##맛
##문으로
##실과
응용
유로
유치원
브라질
안고
##엠
중개
나노
##찰을
10여
##시장에서
거론
일이었다
##29
##조정실장
##ᅪᆨ
##이게
경과한
땅에
##속을
소수
뜬
바르
여섯
진행되고
있으니까
확신
아티
##사회의
##냐는
어머니는
불행
##목표
쿨
보행
마시고
##드라마
주무
미래에
부른다
잡혀
포럼
확실한
##하러
용이
mc
괴롭
a씨
##지수는
순천
전반에
##즈가
자유를
물에
이같은
##리즘
저감
##비전
전반적인
믿을
속도가
##청소년
급식
##진단
부러
겪는
인간은
사용될
샘플
뮤지컬
이쪽
못했던
비교해
시작하는
위치에
미국에서
사각
말하며
간담회
밭
싱가
효과적
규정한
##자마자
밝은
##all
내용과
##열을
예산편
온도
않느냐
##량에
얼굴로
다운로드
아메
평등
사라져
극대화
뮤직
바라보는
스코
7년
##처장
화를
##재료
대중교통
##았으며
쭉
##8억
##수당
##5만
캡
세우고
유가
맞고
제국
##은행은
유망
걸린
다중
##생명
합성
해가
발송
##목에
보세요
독점
훔
보도했다
넘치는
모델을
커버
참여해
중지
줄일
1번
hp
일로
##시간을
##차별
여부에
자존
감독의
##레인
스프
중장기
##심은
재산을
me
과일
동양
전신
열려
##조항
제공해
극단
그러하지
##급을
고소
있나요
차세대
##임에도
##거리를
서울대
아니하다
컨트로
수확
갑작
위기에
##랩
사유로
각자
증후
좋겠습니다
면허
##옵
참으로
함으로써
기관이
사람으로
리스크
필요는
해체
##3억
누구도
참석했다
증언
보다는
인상을
아미
천안
안양
##2억
답변해
##스포츠
부분에서
##7억
주식회사
전반적으로
##이었지만
파산
삭감
정신적
인테
승객
프린
성취
형식
##마크
##유통
해결할
맞서
사장은
치러
##fc
병사
gr
어릴
마련해
받아들여
걸음
##증명
공연을
케이블
##터의
일일
##하는지
성격을
원인으로
상수도
##으신
모듀
보이며
세미나
##6억
기간은
작년에
##과도
둘러싸
차원의
##pc
않았습니다
##빵
잃어버
구축을
##림이
##운동을
가능하며
슬픔
조명
소매
안전관리
멘토
##마스
특정한
팀을
회사를
##ᆻ습니까
하얀
가슴이
버전
땐
양육
##숙한
자신은
아기
방송을
내려가
##기술을
별다른
##사무소
알았다
보좌
아이디어를
린
지역이
바닥에
fta
범위에서
함은
중간에
##탄소
일행
침묵
신탁
읽는
##권으로
웅
솟
납품
고의
말이야
일자리를
##면에서
가격을
##파트
것이기
조용히
유발할
##르며
ss
##강을
권역
방위
멕시코
발열
배부
많은데
##암의
등장한
삽입
##목의
##사태
8시
약한
버린
주민들의
진단을
편이
후에도
가결
흐르는
유관기관
##긍
대항
##30분
##1억
시설의
##간을
수단
직원들이
##인도
##4억
부회
##파로
증가하는
친구가
0시
기간에
본조
기대하고
애초에
원고의
어떻
쌓아
공업
##ft
색깔
육군
고맙
130
투수
끝나고
적도
가량
##ert
이가
##형에
세계적으로
과거에
즐겨
##효율
엿
날카
원심판
배를
##위탁
역학
##스럽
실증
즐기는
늦게
온실가스
가산
##산림
소집
교육과정
사우
분위기가
보태
제27
##였는데
##스런
갈아
규정된
농업기술
##곽
자유한국
같고
날짜
##둘러
특성상
지식을
상관없이
##ure
고성
이야기는
대부
##기준을
착공
mou
##리케이션
공략
미국과
##45
증대
윗
##까지만
##인권
출마
특이
##없다
##치와
호응
나와서
가능성
##영업
흐름을
##체와
다투
계십니까
##이너
사회에
곳이다
이월
##음에도
났다
배상
답을
제22
탈락
일러
손해를
생긴다
산업의
이고
다이어
알레르기
규정은
##범이
놀라운
평생교육
모범
##선과
##당에서
##셋
반응이
##di
줄이고
제1회
##되지만
ceo
예방접종
이끄
##져야
신이
성공한
##소서
부가
넷
주식을
홍보를
발생합니다
##들로부터
인류
##설계
장이
자치단체
수능
##차에
##광고
운반
나타난다
##도서관
##하였을
하라
##ex
##분류
보내고
청약
강구
la
찢
##둥이
##대사
제28
늘려
##와서
증여
관계없이
만들어서
자동으로
##기자
것일
곽
상대가
있을지
설립된
##큰
법무부
확률
불필
##vel
조속
과징
분들
문제의
결국은
특징이다
위헌
##단장
##방으로
폭행
이루어지는
이어졌다
##관계가
3시
이민
2천
날려
##넌
기아
##콘텐츠
##조리
동향
5년간
대통령령
에너지를
더해
앞으로는
필요성이
의정부
##위원은
##숍
##계획에
##대장
양해
##범을
사고를
이외의
부끄러
금년도
##교류
허리
유닛
##으려고
상담을
체감
법원은
##100
##됐던
##우기
##터는
둘이
필요하다는
알아야
재건축
기기
금액이
아이들의
하여튼
농지
태도를
##문과
요건을
##공부자료
##종으로
##했다가
한국에
수시로
##버리
##ue
강사
##함으로
번호
기구
웃었다
뒷받침
##이스
타임
인명
시책
##영을
든다
정보의
기후변화
##평등
신임
##병은
음료
이루고
##밤
##공무
뜻이다
진행됐다
이끌고
지적을
관리하고
##벅
공시했다
##시한
##토리
아세
반가
cd
출장
사업시행
필리핀
산지
확정된
명절
채로
빨간
단위로
어렵게
mar
정례
축적
##방에서
연봉
다짐
세웠다
자신과
신청할
연구에
대가
가능성도
##캔
##루가
아래로
관계에
주차장
거둬
떠올
그러고
한국에서
절대로
##로써
소지
솔루션
점령
##다리
않나
미국은
본회의
줄어든
앓
유료
판정
대북
드물
추정된다
스웨
이럴
서서히
188
놓여
##형태
##사법
하루에
1분기
시에서
요건
적용할
기업들이
##음악
믿음
장수
사람들과
이곳에
##유지
자신도
##렛
탓
퀘
결정하는
근거가
공부자료
업체가
희망을
결과적으로
1단계
##시간이
##당과
고려할
이르기까지
##공장
근거로
##염의
부근
절차에
상황은
부산광역시
맡았다
일부러
##스트라
심화
##호텔
잃은
##채를
유족
##오가
문제점을
순식
##해의
부어
어떨
##미래
영향이
##곡을
일원
적당
입지
정서
전액
##뱅크
도의
##동강
##드린다
파라
록
불합
##기관은
잦
20여
단말
카운
매출액
##월한
캔
검사가
호흐
픽
##흑
무거
기술의
되찾
수강
실망
공간이
##사라
없었고
증인
스승
##이거나
제2호
사실이다
도시재생
얘기가
##구성
나갔다
##시마
추가적인
명확히
노예
복무
##ver
귀국
코스닥
히로
##머리
##ub
지붕
떠난
까닭
생명을
아이들
승강
바라보았다
##르의
메이저
파기
앞장서
##련의
이벤트를
구체적
중부
##200
계층
상한
포스트
이듬
점검을
형태를
냉장
일상생활
이후에도
확대해
81
101
전월
정해
법령에
본조신설
둘러싼
수준이
구성원
##세이
표본
##염은
##량과
조직을
##과정에서
실적을
위원님들께서
##퍼런
원고가
만남
추억
##그라
안전성
노조
7시
##공화
존재하지
##ment
##조제5
제시한
##ice
일반회계
##신용
법제
원자력
##면허
건물을
식민
ma
5시
아이폰
팔을
##열이
개그
왔
단백질
즐거운
내어
##ctv
거주하는
##주면
##캠
##별로는
수탁
조지
유지할
근접
거리두
##금과
심도
가능할
모드
군의
##기간을
통행
쿼
주저
##출을
보입니다
임무
주사
성공을
돌입
이끄는
혈관
400만
다음달
가계
힐
남한
식별
이며
완전한
베스트
거점
나지
활용하는
많을
여러분의
페르
##색으로
##하고도
나가고
지역으로
시간과
저렴한
cp
잃고
위원장이
학교의
였다
##지대
가능하게
열람
소중
##공제
##랑이
오리
##ack
가족이
##제1호
확산을
전제
##꼼
4명
목을
군은
기억이
##헨
##안정
공무원이
##니는
##동은
수직
호흡기
##창업
말하자면
행정안전부
##셔야
##속으로
저런
대상자
당신을
we
제5항
확인한
기쁘
손이
##제4
##청을
쪽에
부각
드리는
자격증
있지요
고교
안의
구멍
않는다면
주민의
대변인은
다리를
##ᆨ트를
제10조
관장
##역으로
몰래
각별
수사를
##부대
몫
거짓말
중고
##됐으며
##나를
반영한
소각
db
떨어졌다
##현은
##33
##청과
만드
소극
아이들을
##설비
게임이
녀석
지었다
종로
##ant
##조제2항에
이듬해
식사를
시야
전년도
성폭력
따른다
##편을
##클럽
fr
교정
작중
##반응
짓고
##사한
지원하기
턱
##통제
돼지
31일까지
솔직히
##인한
매뉴
싱가포르
옵션
##크는
대면
일어날
외에는
사마
남을
강남구
소방서
무더
변형
5명
카드를
##프의
끝으로
살펴보
지옥
구직
목소리로
##린은
가짜
잇는
츠
부를
황제
##쪽에서
at
확인해
공적
항에
##아를
##과를
세계에
생생
포지
##000억원
말이에요
중구
제11조
5천
완벽하게
플로
뜨거
계획은
지방의
##걸이
##인인
정보화
돋보
사령
행위는
내야
비공개
##셰
##타로
순식간에
보여준
킹
아뢰
탕
##타는
장점이
시작할
아키
형법
##사업이
왕이
인생을
써서
멈춰
차관
##ᆯ릭
없으니
위축
감상
코너
해결하기
경기가
##합의
##자문
논쟁
있겠지만
2루
기둥
개체
무력
약간의
썩
##림의
보시면
맵
##축제
해설
제29
꽂
있었다는
##움과
다양하게
따르는
사물
청산
2인
안산
제안을
진행한
지키는
##소장
행위에
방지하기
한동안
##는데요
##트에서
불렀다
정책의
가벼운
적게
후배
외환
양자
잠을
호기
공주
비판했다
##되므로
발생하고
##방식
아픈
개성
##편에
##인들을
##르면
##지침
근거를
##속에서
추락
cctv
##인사
피고인이
한일
##처를
오버
내보
터키
매력을
점수를
전체가
것일까
##된다면
아저
##채널
재현
그것에
서초
미국이
배운
##자리에
회장이
민생
구독
되었을
감소한
제품은
난이
저의
취지
특징을
##높은
##드리고
처한다
형성된
##ms
##최고
이루는
활동이
맑
변환
비정규
준비하고
##오니
여지가
확인하기
##마켓
장례
영구
바퀴
감싸
중동
사육
2조
사람에
##변을
##년이
진실
##회와
주실
머리가
##능력을
알코올
성격이
원에
인문
정도에
조직의
##했다면
##공학
##치면
비율은
음반
자유로
작가의
자율주행
나선다
##ᆮ고
이상인
지방세
부천
덴
양산
즐기
##조제4항
문제점
걸친
추구하는
엄청나게
op
명품
##청사
가능합니다
딴
##주년을
감동
웃으며
올리는
춘천
지나가
10대
지위를
어렵고
비싸
##결에
제출하여야
##ust
몹
##님께
100여
헤드
##주의의
가리키
말인가
이후의
성우
##나고
##이든
만료
창립
청사
왜곡
협약을
##48
꿈꾸
##시험을
##담보
##아리
등록을
제출해
공판
##늦
##보드
##하였던
##청장은
##쾌한
나고
플레이어
미루
##버그
##포럼
예방하기
남양
시설이
아침에
##밀하게
##유예
##전시
##되었음을
##dp
전작
시료
등등
터뜨
뭐냐
보아야
##투를
용서
2위
인터뷰에서
##기에서
제30
현실을
##박스
5분
비치
##니와
평가가
스튜디오
싸움
고혈압
##9억
마음은
일찌
임기
왔습니다
학생이
맛을
실종
나가겠다
관람객
잡을
장기간
무지
##크가
염증
시작해
비해서
아닌데
순위
빨라
누워
원은
안성
개념을
불량
확대하고
가까워
cr
번에
한계를
고쳐
감당
휴식
갇
일정을
약속을
간행
부드러운
느꼈다
##시설이
어머니가
##두에
##심에
##신청을
개인적인
보고서를
써야
중요성을
제안설
사람들도
판매하는
노동자
경유
장비를
체계적인
것이니
##하자는
조사한
용역을
자료로
##퍼펙트
6억
내리는
일주일
예산의
##하느냐
##니가
##에스
신뢰를
##리면서
전세계
복수의
##용이
나타나고
급속
다음의
##도우
남해
범행
은혜
600만
사실에
4시
쏠
미치지
끔
##권자
점포
##테이션
##념을
얽
눈물
하늘을
절약
그다지
##인들에게
서면으로
해결을
○문화
어려우
##팽
드러났다
날씨
행위가
발명
정해진
##바지
사무총
1999년
프로듀
불확실
출동
##ound
생각도
성공했다
맞다
선보였다
해주는
됩니까
부분들이
##파는
돕는
##ore
##거리가
수준이다
##두는
플라스틱
론
매체
한가
##용역
포트
것이지
최선의
대응을
업그레이드
교육의
행사에
##융합
2번
##46
공표
한국어
정신이
번씩
기획재
무서운
##박물관
거울
튜
계획입니다
##헬
##da
도구
##민은
못하면
##안전처
원산
##하듯
수혜
dm
대해선
설명해
총리는
##톱
임진
##모델링
vs
세트
서해
다루는
인천시
감히
샌
들어왔다
##컷
소식
통과율
##되어서
##되었다는
해군
1998년
##금속
대부분은
##통계
결정했다
승용
##동기
광범위
있잖아요
10분
간단히
꼼꼼
높였다
##ᆨ스는
감정이
의사가
얻었다
##뱅
구경
br
임금이
ac
##할지
##적이며
드러냈다
치료에
##구요
##내며
##2만
저축
포상
극장
오면
느낀
방식이
##시장에
더블
##드릴
알리는
##소리가
완공
줄을
##기보다는
##령의
##슘
줍니다
무죄
레이저
하고는
##정책을
1년에
감수
없던
##ᆸ게도
##나가는
예정임
모르겠다
##론의
##되었음
##먹을
검을
롤
인력을
오로지
않다고
부재
##결의
##싱턴
기어
주어진
##스티벌
문득
##마리
구름
1호
곱
##본부는
##one
보낼
엄격
책정
이모
##주식
분야별
팝
양의
140
납세
찾은
연구가
사용하면
상반
중도
봤다
결정할
##터에
##지라
좁은
내밀
10명
메타
끝이
##6만
유력
그렇지요
달콤
개최한다
그들에게
1로
제주특별자치
대피
##양성
##했었다
감추
가지가
##막이
##집이
하기도
서울중앙
발언을
순서
서로의
##천군
골라
시점에서
비싼
장면이
##어졌다
전제로
kg
가무
##행위의
##디션
아리
그리하여
터널
줘야
돌아다니
얼음
양측
거라
깔끔
원내대표는
##85
강도
900
##ass
타격
일부는
의원의
##라스
서로를
미래의
상가
차이는
##기관으로
##관리에
이분
##행정국장
##단에서
귀를
체제
관통
인생의
죽어
뒤에서
이어져
가족의
과제를
부득
빛이
대충
아픔
##처분을
##ᆷ보
편지를
이집
선택한
꾀
멀어
당시에는
자매
숨어
##8만
폰
차질
fc
외모
이전의
사용이
##란이
하나씩
장의
굽
##찮
##부령
미소
주면
인식을
##ep
있습니다만
라이프
명확하게
효력이
##소프트
의미로
산학
적의
문제도
##4만
##설이
##인가요
알파
이슬람
포스코
말씀드리면
엎
##년의
어우
요청할
매칭
##축구
##ᆻ을까
나설
요인이
##감으로
진주
부모가
vr
번째는
두루
기관은
존재를
##조치를
현실적으로
##크의
힘들다
##회복
아트
부의
줄이는
전쟁을
물고
원칙에
이외에
출간
추진한다
하느
##이었는데
##7만
올리고
절망
##숲
듭니다
해주시
트랙
##하우스
##스피
수업을
##배출
##하시기
인물이
성향
사회를
##mg
##검토
조기에
어느새
##님과
##론이
동영상
160
모르겠
대조
##퍼스
자격을
규모를
크루
액션
공정한
어디까지
유산
몽골
받으며
성공적인
기억을
##보안
기반의
상하
원안대로
##왕은
##자연
기름
선을
잭
주의를
싶어서
##브를
피할
생각보다
##어지고
억울
쥬
수호
분석한
눌러
가사
붉
녹음
##답게
있었으며
시위
문제점이
##만큼은
12개
하실
조류
취득한
11개
도약
신기술
지하수
세상이
넉
속도로
개인적으로
상고이유
삶에
사모
방문한
3분기
당첨
001
계시는
일어났다
골목
뿐이었다
중순
오스트
용산
확인됐다
미ᄅ
떠올리
시의회
제12조
비롯하여
종양
안을
정규직
더러
정권
노동조합
세상의
자회사
막대한
발음
광복
보물
거고
온모
결정에
난다
800만
민감
마련하고
청구할
kbo
사정을
작품은
천재
##yp
##구매
##36
하였습니다
혼자서
##급식
발령
피아노
이적
앵
기술적
##3만
##채무
논문
지원과
조사에
터져
미사일
서울의
준비가
닥
##전지
포켓
데서
행사가
30대
있나
##주세요
마련했다
##m2
##발의
##000만원
##겠죠
차기
요소를
만다
##놀
결정이
##하지도
잔뜩
##있게
실력
작성한
부당한
##경비
무덤
피를
해산
밤에
##머스
##편이
문제와
젠
유방
후보가
주재
처럼
확률이
내수
밥을
말하기를
나타냈다
바라보고
고려한
제도가
대대
근본적인
1997
이젠
모의
시티
죄송합니다
##쌀
하야
##국인
하고자
##원인
승계
영원히
예상되는
느끼게
상대의
바꿀
##락이
법칙
##사항이
##팅을
##정보통신
맞습니다
##친화
htt
구하는
하나하나
연상
##아동
논의가
가지를
##견이
##ath
모순
속한
미션
테니
개념이
##ᆻ게
장군
틀림
##및
이의가
씨의
##착을
잡지
##장한
스크린
그레이
##시장은
구급
##절차를
상대를
법안
수술을
무거운
저소득층
##담으로
연안
환경에서
##페라
모은
문화예술
김해
각자의
##동으로
어깨를
##사실
서울중앙지
잡는
아카데미
항공기
##리자
##교부
학생들은
핫
##운송
3층
중시
디자이너
##소재
##가며
평가했다
예금
##위험
사망한
자로
두통
수준에
최악의
지적이
역할이
이득
##세서
잠정
어두운
퓨
ic
자체적으로
주먹
목적은
번의
핑
처리를
광양
행정자치
강연
의외로
이승
설치를
화상
영농
프로젝트를
##하니까
조금만
##ws
특성에
현상을
개정규정은
저렇게
건국
재개발
##ᆻ나
예쁘
비율을
왕의
충격을
6년
인정하고
깨끗한
점심
책이
직무를
이루어지고
##버리는
ct
고무
존속
50만
자부
춤
인증을
연구원
원칙을
커플
##투자증권
거대
인정한
사서
뵈
회의에서
기업과
1997년
##차적으로
##플루엔
튼
배우는
##사항에
##차게
외로
##프레
줄이기
하려는
##부령으로
원수
돼야
##비율
정화
##측정
##96
쓴다
기획재정부
3천
양호
달린
##옵니다
##교가
열렸다
중화
똑같
조치가
링
찍어
노란
마사
기관에
##히지
##격으로
돌아왔다
##공사가
내실
우연히
##질러
무용
알기
##for
사건은
지정을
머무
사퇴
##로에
##ng
##경기도
국산
유예
반박
17년
쉽고
기술개발
원전
포도
당당
바쁘
사무실
제외하면
##월드
##멘터
표현을
도래
회생
악취
들지
직접적으로
##시험패스
하에
강화해
삐
효과는
em
결과로
화학물질
많아서
##ᆻ는데요
골드
○기획조정실장
##가입
후회
한국인
한도
##데요
건가요
이거는
부탁드립니다
##보수
구할
면세
원칙적으로
비중을
초음
주장이
추모
##서류
이루어질
관계로
업무의
학교가
##밀리
유죄
교장
소유권이
##선생
상당의
염려
목격
배분
다채
운항
##신탁
동행
타당성
##화되어
남긴
너의
##업무를
##놨다
##경과
스트레스를
mm
노려
##이요
##ae
문헌
##고도
정보는
실적이
비유
대미
##브라
장악
영유
노력해
입장이
##혁을
검정
항의
수분
##현이
##왜
자에게
헌신
각기
##제도를
단계를
##쪽을
여가
100분의
브레이
##현의
네덜란드
개인이
새만
헐
##타가
카이
tf
##지니어
방지를
강화하는
의미하는
fl
##시대의
##공연
##잡고
2개월
제도의
결심
가지만
눈물이
생각한
##희의
지극
##방역
어려움
내릴
체계적으로
경기도의회
##관계에
모습에
##01
공사가
바라보
협박
전라남도는
참석해
사업과
도시의
수습
융자
##sc
위성
##야구
선수가
위배
불꽃
받으면
싶다는
행복을
상을
##활성
높았다
비극
굿
금전
##ᆻ었다
ec
하였고
lh
멸망
편하게
두어
원정
##보에
전통적인
##뉴스
조례안에
코드
##자에게는
약물은
흔한
제법
남자는
##위원이
수천
그러는
결론을
입에
시설물
##노인
자료는
부속
s4c
야기
국민들의
설치하고
선택을
시기를
거치
필요성을
##나라의
##44
중심이
태국
마인
국가대표
20만
한시
##언이
##발이
결혼을
비정규직
##꿈
선전
##인물
18년
잠이
보상을
중점을
2분기
원에서
기동
바라보며
워싱턴
공유재산
상무
교섭
리모델링
지금부터
둔다
##멀
기가
분석했다
##식에서
것이나
김정
정부에
같으면
짝
일곱
베어
판결을
가지로
어서
꾸며
보험료
v2
때려
분해
여자는
걸고
##der
##내지
성질
확실하게
##협약을
서브
프라이
##세트
제공을
문화의
안동
대답을
##급의
##75
16년
물론이고
안건
제36
적용되는
무대를
삶이
##립을
여러분이
##작물
##결과를
값을
##화할
2의
##모델
##중개
가능하도록
속에서도
##평가를
즈
##마이
안전사고
##지주
##어지는
##풍이
처방
##으앙
시골
없습니까
정도였다
이상은
프래
밥으앙
##교육지원
동법
콘셉
반면에
성능을
##면은
파고
앉아서
비만
후손
##구간
없으시
구원
##등한
혼인
대학의
##인재
미치
피가
지키고
##즐
신인
것이란
##속의
##기간은
직면
최소한의
가슴을
##회사가
습득
##ial
해지
##조한
사라진
꽉
했기
세탁
의학
체류
led
신기
정기적으로
my
기준은
암살
세상에서
##왔던
정무
부모의
##법원
벌어진
일으키는
##빨리
백제
신청한
압축
##슬러
친절
세력
밀집
괜
중재
배틀
et
##과에서
sy
현장의
불편을
입사
##기본법
부가가치
판시
개를
쉴
인격
교육은
주시기를
의미에서
착각
의혹을
6만
동안에
보건소
철회
##늦게
##소설
나라가
앞둔
더구나
##집에
설치하는
국무총리
관계는
용도로
매출이
wor
##리에서
##yle
유리한
안정적으로
청문
의논
유독
##토지
책의
밀리
제3호
##심과
##벽을
1개월
되겠다
장사
사라졌다
콜라
어긋
투어
##제작
없었습니다
##희가
국방부
교육이
##중을
최상
바꾸는
간략
##부서
건전한
히어로
##운전
쓰이는
클로
상영
재미있는
동일하게
##쿼
##판의
##체제
농식품
한숨을
##균형
##탱
병원에
전직
몰라도
콘서트
힘으로
운영한다
됨
대통령과
대거
임대료
##했으면
투기
##보고서
곁에
급격히
한국과
학문
청원
일본은
주입
의문
잘라
##하였다는
지지를
죽는
엮
토지를
중얼
한꺼
소송을
침입
아티스트
데다
건강보험
의무가
하겠
전형적인
연결하는
독일의
비용은
너를
##소리를
##시장을
대결
##진료
이천
##태를
##싶
생계
태도
차량을
모양의
놀란
id
법원의
나오면
##환경을
우승을
덤프문제
연기를
인턴
##회로
과장님
##중공업
개정안
지고
파란
밖에서
전남도는
괜찮은
경찰이
##자들과
##화되고
크레
후기
##세한
1995
보살
퇴근
##기관을
##이에요
파는
공립
##증진
##처벌
##회의에서
##전도
제3항에
발생한다
교수가
소나무
성적을
건물의
착한
재판부는
연구는
한꺼번에
발견된
가슴에
공공기관의
출신의
제휴
생리
농도
총선
주류
매니저
##공의
소감을
##마케
ib
총장
어우러
숫자
견해
1시
ag
시에는
예로
귀속
뭐라고
나타납니다
요소가
186
통치
사용자가
중국은
꿈이
피곤
낙동강
실제로는
모르지만
이곳에서
##팀을
제34
##수원
##해야만
##명령을
비트코
설명이다
##펀
30여
마크
이어지고
걱정이
실력을
##과정을
##스턴
##즉
분담
ps
##압을
먹어
우유
##9만
경향
꽃이
##피를
조례를
##높
방식의
##마한
700만
상해
오류
서비스가
나머지는
시립
##론은
알리고
전략적
언급한
유혹
차원
##시효
##모로
○보건
거지요
신생
않음
##플래
1995년
##늄
지는
203
##상선
어머니의
##덩이
청춘
쫓아
구두
이익이
##지정
보정
##르가
##쥬
이용에
쇼핑몰
늘고
제공하기
않아요
##박람회
##만으로는
##널드
유학
배울
4분기
구미
손쉬
접목
자유로운
프로그램은
태백산
연구소
않았다는
지형
수산물
법규
아래와
반짝
가격에
##페이스
##관한법률
##행위가
놈이
화장실
##철이
피고가
##000여
지식경제
돌아가는
찾았다
지나면
지주
소홀
문화적
턴
되었다고
사적
##1만
##예정
대표이
##전기
물려
처리하는
힘입어
3단계
기록하고
적용된다
전국적으로
몰랐다
낭비
제고를
부유
##의의
자에
분은
##승인
3번
##세와
수평
희망하는
최우수
가진다
지급하는
주위
철저하게
것이냐
나눌
##센터의
##니즘
등판
마련됐다
하려면
찾아볼
지목
안정을
배수
제압
구동
했으며
##ᆫ터테인먼트
##묘한
앞선
##카와
##먹는
집회
제14조
선수들이
남쪽
조그
##아지
##ort
파주
어떻게든
상승했다
자세를
아름답
되지만
대단한
사장님
아무튼
뷰티
고객에게
결성
##협정
인체
##토의
아니야
##이면서
국민들이
전술
얼른
올라와
시험덤프
##민족
시설에
가기
되기를
##허가를
유적
퍼포
정성
붓
##기준에
##창조과학
1부
이재
정통
##중학교
##되던
##좋
신흥
요청했다
택배
예정이며
매번
##가정
마스크를
##니를
휴가
##었는지
맑은
광명
균형을
사람이다
일으킬
##하긴
요새
의식을
얻기
상승한
##쎄
토지의
했으면
현대차
역을
공지
17개
개최했다
임시회
1990년
##공사는
사찰
법원에
##시장이
##아웃
가능성은
##짱
일명
임무를
낙찰
짓을
검토하고
여름철
강수
되었는데
##ᆯ레이
##남이
양수
2시간
파악할
위원님들의
리더십
도정
정황
머리카
뜯
교차
재고
키우
병역
dis
일부가
전년대비
저기
##이었으나
싸워
##루의
내년에
가득한
##법령
스웨덴
클리어
우수사례
청장
##북부
##ata
과목
짓는
클리
하시고
##품의
우리나라는
##있던
질을
감독을
애플리케이션
눈동
5대
환급
조선의
점검하고
기록하며
무작
검토보고
정책이
트래
뜻으로
000억
날아가
인접
가져다
칼을
##엑스
입소
##토론
##레벨
##ᆷ임
##37
##층을
과정은
사회주의
신비
좋아요
대지
하도급
##88
이산화
아들을
예컨대
##인민
##량으로
다할
나누는
##오프
조사됐다
느낀다
죽고
자리가
##더러
경상남도
합니까
##기온은
신속히
동서
##틸
가급
##시스템을
준비하는
공헌
##기인
인원이
갖는다
김영
다각
작전
대원
효력을
내부에
개소
##투어
사이로
아래에
##현장
집중적으로
홈페이지를
있기에
상대방의
브리핑
수색
윌리
업무협약
씩
##았습니다
극히
##것이
영역을
실습
벌칙
금융감독
장면을
##오의
##취를
동계
바뀌었다
알아서
새정치
##서야
내역
걸까
해명
드림
기록이
##인터넷
커뮤니케이션
##버리고
평가하는
집계됐다
조약
웰
대비해
것의
기생
교황
##제2항
화폐
곤충
4회
중등
악성
sk텔레
나란히
##액에
분들은
단계에서
남편이
용의
전문가들은
##gb
동화
약물을
신용카드
요구할
고분
활성화에
스스로를
시계
폭너
오늘의
ml
말아야
예쁜
##폴
장점
들어가서
##십니까
##약한
##ᆺ날
공천
사고로
재외
##문서
적당한
##하길
산소
감소했다
요구에
증정
더욱이
서울시가
##시켜야
방송통신
##일랜드
남동
항암
##층이
떨어뜨
명확한
발생하며
기숙
진상
##감시
##ᆫ차이즈
신발
초월
시행하는
어색
1대
척추
팀은
##식물
확인된
식의
##조달
##똑
들었습니다
시민이
불편한
산책
권익
##니의
반사
날을
미래창조과학
제품에
기사를
새해
서비스의
검토해
쓰기
트랜
조건으로
##수용
확보하고
의료기기
19년
내무
베이징
##ᆨ한
동굴
제작한
주장은
돕기
대동
제시하고
##39
187
##age
증가할
##뚱
결핵
##제조
다크
선보인다
진출을
##만족
연평균
먹은
피부에
금액은
수료
3분의
dr
과감
분배
##중이
얻게
##시간에
##우리
획기
전문위원
이루어지지
치열한
30만
치는
남겼다
##의무
##코드
##적이지
퍼포먼
1998
인구가
남자의
공기업
힐링
늘어나고
양이
편의를
목수
##활동에
메가
웨이
우선적으로
##달아
당기
신도시
가족과
제발
역전
##ase
주의해야
후의
##사령
환경이
부탁을
감옥
##결제
도와주
신도
두꺼
철강
로맨
##절로
다시는
##신경
##int
마찬가지다
그래야
##2명
몸의
시행하고
의사의
배경으로
##반의
시스템의
판단할
예방에
시민단체
공영
방에
취할
제13조
##인구
##데모
원리
##업이
##역량
그런지
과기
모르겠습니다
노무
초기에
##드라
##물류
히트
산업단지
##글로
아니냐는
불필요한
여의도
웹툰
##우와
##린의
미군
첨가
소유자
좋았다
브레
투자자
욕망
##pa
그래요
클래식
참여했다
파생
품고
전망했다
예정인
○경기도
판단이
함부로
배우고
하겠다는
##현실
2023년
펄
좋다고
수험
애매
가죽
기술과
캠프
##불을
시를
##오스
##있고
수목
기피
믿는
##시에서
아쉬운
##선거관리
과잉
용어
##사카
진동
##스테로
엔딩
기증
대답했다
새만금
오랜만에
아니하거나
가요
모두를
man
마음대로
iot
초코
스킨
분야를
##상환
##버린다
○경제
이정
둬
##워드
##운이
되길
##모의
##떼
영은
##권익
종업
쉽다
공급하는
##가치
엄마는
##ind
중국에서
전무
##전문가
국어
선정됐다
촉구했다
고양이
주목을
제시했다
연설
바위
##이행
투자가
마련을
##하기에는
종결
##m의
시인
때를
일본에서
##00여
##00원
그녀에게
##놓았다
##ᆼ을
장래
설명하고
견디
몹시
배신
서포
so
##방울
##톨릭
습관
고객을
##주도
커지고
##하하
것임을
전국의
예산안에
##일으
오늘도
것들은
##풍을
사귀
알아보
일각
얹
에피소드
의지가
##씨와
##안보
힘들어
원주
웹사이트
고스
퍼져
켄
성장할
골든
##매수
표정
##쪼
제33
안다
##화문
스포
감리
포착
높아지고
여러분은
점수
밖에도
아이들에게
##상한
영향력을
해마다
연동
끔찍
소요되는
맘
##군으로
자사
공수
신세계
심하게
외면
죽여
확보할
애써
데가
##기획관
##당국은
여기저
조정을
##연대
##라이언
말이죠
탈퇴
##유공자
##센터가
##학기
7억
시중
갈등을
##대책을
인종
국가와
##일과
경쟁을
그러다가
##ecd
촌
##평화
삼고
사용된
##계에서
판단된다
제35
여신
식약
##이라서
아마존
사태가
비영
##권도
예전에
마감했다
미스터
낚시
도움
광고를
가맹점
통증을
모습이다
정할
건강에
po
중립
##특례
동성
사회에서
따져
한국시간
##간이
총무
그래픽
군산
##제도의
낯선
경기도의
폭염
방탄
효율적
자신만의
##감도
언젠가
베르
중앙행정기관의
소아
미성
왠지
적혀
##ance
말하지
100억
기침
##는다면
포천
걸어가
저희들은
##뼈
정교
일과
##였다고
올릴
여자의
실수
구해
##에다
제32
존재가
##ith
##터로
##권역
만나게
##혈관
금호
##셔널
도시개발
##할까
피고인의
##수리
학생들에게
영위
짧게
옳은
프로그램에
하되
참여하고
##하셔서
흥분
플러스
하향
설레
피고의
##섰다
##fa
끝나는
##암은
16개
생산하는
제안설명을
부분의
국내에
안겨
하락한
바보
교육에
서울에서
읽을
gl
갖다
분비
때문이
보겠습니다
##쓰고
주인이
장소를
문화가
안전하고
희귀
##ix
안드로
부수
ts
##이고요
하나만
곳곳에
개가
해당되는
사업계획
민관
아직은
유지하기
혁신을
말과
신호를
관행
##하천
내부의
중계
토끼
처리할
##1000
여쭤
시대가
불과하다
##들만
깊게
캘리
전문적인
개발하고
최저임금
소비자의
서둘러
싶을
늦은
##쳐서
세금을
15개
체결한
##4명
기자회견을
이해하는
20개
머리에
##합니까
성과가
찍은
##쟁이
##닷
주가가
달래
##기로는
이루어졌다
oecd
데이터베이
여부는
임대차
사회가
자료의
##연료
설치되어
처음이
맡겨
##캠프
롱
편찬
##마에
구축하고
##위원장은
방출
##조차도
##스럽다
불러일으
##산과
부총
편성하였습니다
구리
돌렸다
기술은
초기에는
외래
요구했다
목표는
맺고
튀어나
모인
스파
고사
상주
style
늑
늘어날
##47
##방은
전통시장
진학
치킨
##통이
##은행이
바닷
개량
필요성
##증과
cs
길에
##초등학교
약을
딱히
데도
지식재산
해를
대의
인식이
부정한
맥락
목사
어렵다는
##55
복제
##선언
모았다
시점에
시흥
하였으나
포켓몬
정부에서
##들께
모르겠지만
뛰어넘
보훈
##옷
##감사를
휴게
초등학생
모험
겨울철
##출장
##하우
뒤에는
토요일
손실을
선보인
맞추어
##여건
배양
영화의
이내의
어디로
구청장
##마토
##화하여
##권에서
구성하는
위장
운수
교육훈련
##결은
받았고
블록체인
방식은
한국을
임대주택
규격
개정을
기다리는
골수
크기가
국가에서
굶
때보다
돌연
제15조
양질의
중추
눈앞에
##폐기물
얼마든지
휴식을
##란의
알렉
성을
부자
강화할
뉴딜
##달라는
득점
수반
흥행
##하수
규제를
벼슬
캠핑
학생들을
만나고
취하고
조화
##스럽고
이은
잘하는
금융투자
라이트
##ᆸ시다
사격
##공사의
##라미
무엇보다도
부상을
포털
탄력
줄기
국가는
낮게
##대구
청정
방법이다
##취득
##한을
##으셨습니다
##킬로
개선에
보호하기
때에도
1분
기업들의
고추
##센터에
##테이너
적절히
않았다고
품종
##to
용기
스캔
집권
움직임을
프랜차이즈
내면
사랑이
우대
가족을
펼쳤다
육성을
적시
과반
도널드
군인
경감
로그
빈곤
일련의
##ds
1996년
##io
가라앉
뽐
일본에
##루에
거칠
##계산
줄었다
실시간으로
디자인을
제2회
조합원
절차가
##ph
한창
되기도
일반적
사용하기
##ml
조립
테니까
구석
설사
살기
##거를
3가지
고가
옆에서
##3명
##az
도매
구단
산재
우리도
##였으며
##요금
마구
##피스
이하로
##은행의
##라를
리듬
##검찰
묻고
단행
지역경제
##일리
##계로
##지원을
김치
죽이
1이
들어올
제작된
게임의
그리스도
아니며
앱을
원장은
톱
태극
최대의
자기를
늙은
느껴지는
상이
세련
##핍
사망자
##mw
순수한
중요하다고
##자면
건물이
김종
국민의당
자치구
앞세
일일이
##프리
조선시대
일단은
##맞은
꽤나
유용한
자유한국당
창고
특이한
기록에
교도
남지
대접
##총회
지난번
푹
즐겁게
##주간
제16조
끝나면
목욕
##리에이
정보공개
몰입
이력
분야는
소속사
##유럽
셈이
탱
판매를
##지점
방문하여
멸종
두께
결정한
##일지
양쪽
톡
##기엔
##87
새마을
작가가
##ace
지수
##뜻
과학적
적용을
컨텐츠
40대
##그네
pm
자체의
만전을
##타의
돌이
충당
350
신재생
애국
억지로
##교는
심리적
##퍼센트
##초를
중국이
전지
듣지
있음에도
피드
##딸
동구
프로모
##ach
시전
강서
##공동체
인증덤프
유물
##5명
부임
인간을
개선이
지방자치단체는
그곳에서
문장
계획의
내리고
감염된
7만
어촌
누릴
석탄
1년간
끌었다
##드린
싶다면
만기
정복
하부
##타이
확대할
회장의
14년
반영해
해임
야당
##배우
갯
진실을
##보훈
나타내고
집행을
활발한
##민을
최다
운영이
아이디
##인원
기지
설치한
##았으나
표지
##부동산
##중독
반성
##연합회
col
바쁜
긍정적
사업이다
변제
유형의
기울여
장소에
에도
되는지
거기에서
나누고
2개의
수행하고
지급할
##인지를
실로
염증을
엇
포인
줄고
##키가
양반
##교수
##뜰
##영향평가
씨를
##디언
##사에게
##값을
되었으며
안파
업무가
근로자의
고조
공직자
정도다
##페이지에
나빠
제31
활용을
남는
아내가
##틈
1은
##실험
##ᆯ렌
##점검을
##넷을
삼각
덤프자료
낸다
데이트
차별화된
잉글
##토가
이용을
##지않
화살
##능력이
집이
들어간다
카르
이해하기
대표의
자칫
당분간
바람을
벌금에
위원님들이
##폰을
##문화를
너무도
시비
하느냐
말합니다
##관리실장
마련할
행동이
예정입니다
자원을
주파
기저
재판을
하나님이
개발과
##덟
##지역에서
차입
태평양
바뀐
##음은
날개
##지는데
분과
##카가
근처에
##지역으로
cn
튼튼
##qu
##발표
하락했다
간담회를
운영비
form
##각이
##처는
평가하고
본능
계곡
소통을
##사도
넣은
종자
모델이
연결되어
내장
당뇨병
##사기
##급이
##홈런
##고속도로
##지다
지급을
명칭을
껍
##한의
만들어야
식량
kia
cm
##타워
적고
금융기관
##교육의
경관
중소기업의
쉐
겁
소폭
##ge
뿜
미드
모두에게
영세
방류
장에게
##파에
근무하는
기원전
첫날
망설
기다리
##것을
##값이
##빌리티
동쪽
뜻하는
##플루엔자
역사가
하므로
대상에
시행을
예배
##기업이
아니기
##심에서
왕실
##최신버전
##세다
##팀의
협동조합
받았습니다
엄격한
위원회에서
주머니
원입니다
로스
마포
○교통
##6명
메디
하수도
연락을
##우며
가난한
##들께서
가자
##할수
##학회
정정
고위험
하였으며
등재
##더군요
끝날
맞춘
##겠는가
빛나는
탐색
##요건
이들에게
선생님이
국경
##학대
빼고
이식
20억
페스티벌
전동
직원들의
악마
누군가가
최적의
그곳에
비영리
똑똑
방안에
경제의
몸은
##음식
포스터
진도
개발이
물리적
군에
않거나
실시했다
3학년
글쎄
소유권이전
강좌
지키기
##책이
만났다
편안한
말미
역사의
##our
마땅히
패키지
##지기도
##번호를
하나입니다
갈음
법인의
단정
일어서
키우는
박물
소식이
##곳이
제공합니다
농산
##년도에는
길은
가져가
##보의
경기에
##77
탄소중
플랜
##수단
종족
등록된
상하이
##오지
장치를
막상
자격이
##문제를
##지역은
형의
이지
##동과
개헌
##음의
신제품
쉼
조금이라도
머물러
집착
소비자가
크지
피해자의
##력도
있겠다
##단다
##베르
##역사
##어리
부정적
법원이
도시철도
토론을
도가
적용해
첩
모양으로
엽
분명한
##철을
##위반
지도를
##들인
미국에
##상승
형평
##카의
압류
자고
의사는
##홉
역사상
그제
춤을
##샘플
##유효
받아들일
은근
내려다
##ld
##농가
##스토랑
##녀가
동영
시민들에게
대고
##교환
소재로
아끼지
앞을
비중은
##ock
꿰
환율
모델로
매개
##친구
나가서
한해
본예산
##8명
판타
박스
반대하는
산업혁명
러브
단편
##장인
언덕
농촌진흥
콜로
언급했다
플랫폼을
##1명
경찰청
정상적으로
오르는
높을
##ech
농림수산
##프로그래
세로
맛있는
제출을
견인
저해
##었어
서울시는
노력할
##uc
미쳐
주요업무
저지른
##됐다는
전문가의
이룬
##제2호
집행부
ed
양을
신부
##진한
정기적인
전적으로
##독한
##디스
##남을
비하면
5회
떠올랐다
##시키지
초과하는
##재인
경험과
##진에
선택하는
향했다
발견한
##위한
덕에
무산
리가
##평생
1980년
##지급
확보하기
방문을
메르스
상급
뚝
##표현
수요를
시기가
##구리
##종사
방법입니다
돌아갈
##지역을
8억
##감의
공급을
공존
##계좌
캐릭터를
떠났다
수치를
강의를
반영하여
thr
다룬
열매
설치할
자리매
고문
있겠습니다
원장님
3배
아랫
##주주
어울리는
찾지
경제가
간절
뒤늦게
##클로
##보호법
##작이
jt
늘어나는
유무
젊은이
##정상
프라
작품이다
밀접한
에코
기조
실시하여
##마저도
통증이
유명하다
재차
방안이
촛불
갱신
재판에
##생은
##디가
##광역
##형과
박정
##후가
발전과
##궤
##저당
신약
발생을
쓰면
3인
##료는
##are
오를
발라
지위
시간의
인식하고
##주의적
묻자
취향
박람회
나이에
##변이
사단
없이는
민속
13개
전체에
50대
외상
##작은
꼴
##ᆺ하고
콘크
전화번호
상인
좋겠다는
훌륭
타기
합계
물어보
자이
간신
##눈에
##hd
강렬한
걸릴
##길에
##6호
##원칙
##부품
위원회에
그대
여담으로
서쪽
운동은
전임
무기를
달에
앉은
##조의4
잘못이
##창을
안되는
밴
##있었다
대두
괜히
초록
무대에
혈압
단계에
드라
사용자의
잔여
콜레
공식적으로
##지도록
급히
##1호
합리적
센서
ass
검찰에
않겠느냐
생각하십니까
편지
판단하는
가령
##델
도민의
컸다
작품의
##플라
해결하는
손쉽게
납입
##팀장
특수한
형상
마련한
틀어
대성
놓인
국채
##왕을
##야의
##정책과
원고는
초래할
##ᆻ는가
합의를
표현하는
연구의
생활에
작업이
길로
1994년
불가능하다
전환을
언제든지
이른다
미달
##플리
어때
어렵습니다
##판은
##사업비
##운을
폭탄
식품의약품
원가
꿇
변화는
##고리
##직이
차고
왔던
샘
스페셜
모터
##효과를
신선한
고려해야
한하여
입점
샌드
외교부
정관
북쪽
##되었지만
위법이
제도적
본인은
2부
하기로
글쓰
적용하여
뛰어들
제기한
##학이
차가운
조국
##에의
불만을
작고
판로
##천원
최신버전
##수석
백화점
##우지
건전
비핵
기운이
없으나
##작용을
농도가
##맵
##카페
파악을
때와
주시고요
모양이
페이지
가다
법령의
##9명
해양수산부
채소
##테크노
적자
제38
열정
도착한
감염이
열쇠
작성하여
나가겠습니다
##ba
긍정적으로
인천광역시
신화
##키의
##스트는
170
세출예산
누리집
활약을
대응하는
형태가
##증후
좌절
보컬
현역
이길
제17조
##공은
##있어
상대방이
염두에
##비서
끌어올
사운드
##와이
선착
하고요
전인
목적에
공용
대응할
횡령
보이지만
우려를
관리할
먹으면
예의
##농협
빈번
하려
송파
##무늬
불명
열악한
조례에
덱
##수산물
고등학생
매뉴얼
일선
너머
저한테
담당자
실장님
두번째
누락
##촬영
송달
찾아와
버리
될까
기자회견
컨트롤
회의에
하셨습니다
자격증을
##조제2항의
##급으로
##년을
여유가
서울에
수시
면담
산업통상자원부
쓰여
##림은
나타나지
○부
##링을
##항목
농장
##협동조합
우호
영등
지방선거
정립
##기간에
##강화
맞았다
##낮
##카를
##객이
일방적으로
소정의
개조
쾌적한
웃는
특별자치
상류
밤이
근절
##르르
##죄의
할당
중요하게
bo
실질적
##미사
비비
##판사
안정적
제한을
투자유치
맥주
도둑
알고리즘
전력을
나주
차분
차려
##념이
수납
의류
12시
제거하는
나이트
최종적으로
지루
어렵지
여기에는
sap
와중에
신체적
벤치
간혹
##신고를
##보로
방과
30일까지
관료
고충
##심리
21년
타는
단호
8만
inter
관련해서는
고장
하세요
독려
병원에서
사례는
이곳은
이름1
뇌의
##떨어
##어질
파손
자연의
권력을
거리두기
공단
전기통신
원활하게
##됐지만
다채로운
생일
국토부
##야마
개최된
클린
그거는
도지사는
주인공이
버튼을
##모임
방송에서
일본이
슬라이
제임
등산
염색
오염물질
전시회
##다이
##티스
측의
우크라
사유를
있는지를
침투
##제약
요구한
중국과
##슨은
##리우
달라는
나한테
글이
보여줄
놓아
경쟁이
4개월
##부르크
국가를
삶은
##38
##라니
채널을
초음파
그랬
취한
마련된
이노
회사에서
##주신
000여
교통안전
붙은
움직임이
것들
호수
안팎
출토
사도
불공정
반해
##비용을
납치
유역
시선이
위주의
평가는
해피
##령은
걸리는
##기나
막고
하셨는데
사무를
상품이
넷째
##ᆯ릴
계약이
##셀러
##ca
대기오염
구매할
##코의
##때문에
잠수
wik
전차
##실시
실린
##작가
주관하는
14개
##루는
하겠다고
일들이
직권
계획으로
판단했다
##hp
##정책의
솜
달고
공간으로
워크숍
##led
##지거나
앞의
##미와
가지게
방광
정해져
제한하는
##운의
프로그램의
다이아
1명이
##등기를
특혜
전쟁이
##처분의
원래는
음원
##스트가
없거나
많다는
효능
고집
주변을
##준이
##천은
벽에
##7명
지냈다
정산
##병에
##자와의
쪽이
독립운동
입술을
좀더
구성을
군대
추진에
##측에
명의로
민간위탁
##일수록
추경에
미수
소개했다
상식
##56
설명할
19세기
##진으로
시일
인데
갈등이
##2호
##아와
##등은
랭
##건대
##준은
가전
##본부장은
아시안
고스란히
헤이
미처
봄이
경사
##키스탄
쏘아
상부
무안
분열
달한다
주시는
잔류
버리는
생각으로
걸음을
##먹고
##경찰청
조건이
교실
정신건강
모듈
##저축
연계한
한마디로
준비해
나오는데
##카는
전도
견제
자진
아베
약화
의결을
일체
1996
돈은
환자를
##계와
홈페이지에
대전광역시
옆으로
##었으면
##편본
##변호
연결된
##z0
같다고
##정부의
학생의
up
넉너
##션은
지낸
겪은
불구
될지
비슷하게
선조
허브
실태조사
900만
제반
여론조사
전과
제사
개정된
프레임
##으러
##바이트
아사
조만
판단하고
평안
홍수
시리아
의미는
##기관과
말씀하시는
간이
##받는다
얼굴은
광산
스위스
000원을
##후에
우크라이나
##으려는
브루
3조
대도시
운영되고
많기
집행잔
선호하는
프랑스의
현저히
##지나
국민권익
현저
탄탄
##버트
구청장은
##선택
##환경연구원
떨어질
내구
200여
사라지고
전국에서
대학원
밝히고
##소시
뱀
인테리어
##해줄
됐고
피부를
##gr
##종에
##석으로
랩
##드레
예시
둘은
##학은
##직에
표정이
등장했다
영업을
##표시
##야지
개인정보를
백악
지적하신
짐승
산화
우아
일하고
온다
냉각
없는지
그때는
국가에
음식물
리뷰
만족도
감안하면
##던가
로보
주거환경
##34
dna
피해자가
##ult
전당
##곳에
부분들을
시행할
원유
신청이
##감소
el
##라며
속성
자신들이
줄이
전이
교훈
영동
제공한
##대기
형식으로
##주며
##체적
##홍보
##te
##티를
지방자치법
나서는
##녀의
이행을
자랑하는
아니할
##요원
표명
네트워크를
시리즈의
##대고
신혼
안에는
##ii
사막
조직이
근본적으로
이관
실은
용기를
싸우는
이대로
공모전
res
이유에
##행동
초에
##대교
변화와
지시를
컵
##잡이
제조업체
이순
능동
터치
적용례
함양
나무를
##시설은
거리에
입양
만들어져
##두를
##복이
##타르
문이
가격으로
도발
신천
아버지를
af
##데스
룰
자체에
제시하는
호흡을
육상
구분하여
기성
##란한
민족의
심어
##적이었다
##전력
해줄
##ᆻ음에도
농림축산식품부
예산으로
##수칙
일으킨
##편으로
제4호
##able
all
##이월
##러스터
성숙
협상을
학과
원형
예산편성
환자들은
유익
적용하는
##기며
취지로
hd
본다면
추격
시작하여
##취소
사양
생각하며
특검
##담한
암호화폐
주셔서
두었다
죽음의
이별
가톨릭
##결산
개장
현존
분석해
말아
##적으로도
드리도록
자세로
2년간
이르렀다
속이
##들보다
범위가
중국에
밸런
제18조
해서는
원본
저서
아니라면
##업소
것이죠
lov
변경을
냄새가
달콤한
그보다
정책과
주요한
경남도
냉동
##ᆻ거나
영남
반납
##밸리
6명
전달하는
이뤄진
##난을
저희도
##자리를
일시적으로
거둔
이뤄질
왈
##윽
##내역
손상을
든든
지정한
##보육
환승
컬렉
한양
그러던
질의에
역으로
##손을
직원을
발견하고
##보도
있기를
##교육지원청
셋
유럽의
지가
합산
끌려
##윤리
귀가
공조
와인
탁월한
감탄
시행에
원심은
도입을
##음으로
부탁드리겠습니다
있듯이
0으로
##ᇀ이
약정
여성은
무리가
분석하고
길고
대안을
귀여운
그루
##실점
마쳐
##였으나
##계열
복사
밝혀졌다
진행해
##co
아이에게
##ᆮ는
권리가
##59
##만치
구로
분당
##모는
사용되고
##빛이
모두의
말라고
무언가를
안돼
힘써
환불
선진국
서비스는
##소화
3위
일할
들어가면
납득
입장이다
시간도
##포니아
##시장과
##5호
중이며
사랑에
##뿌
움직일
공군
영토
학교는
옳지
오스트리아
##어에
##용지
##부장관에게
외식
진행이
이마트
##테일
연재
위치해
않았기
엄마의
핏
메모리
##분께
who
##란은
수돗
제39
제40
쌓여
실험을
##시절
뱃
1학년
여자를
여러가지
유한
이룰
포토
lg전
직원의
##층에
확인했다
되니까
##움에
등에게
노트북
기대할
##장도
걸었다
##슴
떠나는
##루미
지켜야
참전
도에서
국고보조
2학년
##합을
##표가
내쉬
##드리는
##갱
국편본
계통
적용한
##했어
원망
##였다는
종일
인과
생기고
##신과
자본주의
##부족
##ans
##제일
##대학원
##아트
흘러나
형이
##신으로
임직
국민연금
##응답
꾸준한
수상한
발걸
사소한
행동에
##운다
북한은
대한항공
##공사를
절실
영등포
##속이
세계적
검찰이
##르다
자국
실수를
##성적
시범사업
최강
입구
공간에
조화를
장관의
##cl
댄
말소
##더라면
고작
미성년
wiki
##무지
후단
침수
장갑
공청
하나다
안녕하십니까
그랜드
가능하고
발표된
특성화
시키는
경험할
컨테이너
하남
##푸드
자가격
지극히
부친
걸리
스트리
인정을
활동하고
해봐
콧
##스텔
##관찰
경우와
##실태
토트
백혈
##꼽
처한
우회
##상황을
##자재
##위해
영산
##레를
환기
헝
규명
일요일
투입해
강화하기
훗날
국회에
지역과
멜
생명의
이용해서
비교하면
하이브리
장성
아이템을
방법도
##제품을
측이
##매도
재미를
##증에
타이어
빠르고
다하고
나가야
나중
실리
포르투
민원이
##디는
스파이
피고는
1992년
##정원
기여한
○건설
##활용
비틀
단어를
금연
허리를
인성
효율성을
더더
##기업에
실려
승부
##응하는
트러
달라질
쪽에서
##실장은
비주
##아파트
순회
조사하고
##과세
후계
금감
tvn
거라는
조언을
##산으로
기업으로
15만
정보보호
##동에서
대학에
메이크
도박
##중이다
첫번째
재난안전
국민을
비닐
##와도
갑상선
회복을
##로만
##정예산
##백이
시스템은
제한이
준비한
일찍이
부른
##셨어요
3루
압수수
전진
##작의
작가는
이행하지
증거가
잉글랜드
구속영
편의점
니코
##인데도
##시대에
증가로
출연해
의장은
질서
##내에서
이용자의
아니고요
##ame
지난번에
모으고
내비
주장한다
마시는
선물을
당의
##환이
##안으로
레스토랑
##오리
먹지
뚜렷한
시집
##시키며
개관
##받게
##모토
##하죠
축산물
한국이
##말이
##병으로
8년
않았는데
다르지
모양이다
##기업을
강제로
##49
##근로자
지도자
##ign
원씩
##징수
이뤄졌다
베를
헌재
##증으로
피의자
광화문
범주
본부장님
집행이
돌아오는
리버
없으십니까
인형
##혈을
제3항의
웃고
엘리베이
안전행정
이내로
한의
침체
##럽고
##66
마지막에
##시리즈
물량
취미
soc
##들여
오페라
세척
제국의
##분으로
무림
##뛰
##코자
항목을
되돌아
충주
딸을
헨
해고
##츠를
번이나
카테
편리하게
##트워
c1
사업화
피하는
불거
전망된다
jtbc
대회를
##합격
##로워
주를
##채용
흡입
토크
곡을
차량이
믿지
표현이
반입
##요구
사건으로
먹거리
항생제
3개의
유상
레베
##방재
##ula
김성
날카로운
사이를
안녕하세요
##툴
원이나
것입니까
올라온
휠
##pt
국적
설명이
##ud
##자책
사이가
숫자가
##뎌
##결정을
개개
아이콘
불만
##킷
겨냥
내배
##대금
도시를
불쌍
평소에
##ᆫ다는
구성해
##우주
구사
영문
시그
지원금
타격을
택지
##방해
해당하지
침략
정답
노력하겠습니다
대통령을
풀이된다
##ma
할지라도
죠
##모씨
문서를
##콕
후쿠
관리와
업무추진
##ence
##안내
##텍스
아메리카
팬들의
##행사를
쳤다
##디를
잘못을
당사자가
##사항은
주어야
인재를
긴밀한
무릎을
년간
거북
서남
##속도
동경
차량의
접종을
##주자
영화는
성형
막는
##폭이
부모님
벌어지는
##았기
합법
##ᆫ은
있은
산업부
##취업
세분
가꾸
##축을
봐서
연계하여
패턴을
것보다는
금메
미만의
크리스마스
##일자리
팔아
거잖아요
면이
##턱
살이
##채는
프로그램으로
대쉬
개최되는
조사가
##저리
방을
##청년
지속가능한
긁
다큐
##어내
안된다
숙련
옴
업체에
부회장
본사
댄스
노숙
##천을
개발된
잠실
따라가
##녹지
##요양
여러분께
수당
동아시아
##즈로
같다는
##주시기
운영해
프리미어
보는데
어째서
##그룹은
450
죽이고
나타남
비밀을
설마
남용
경찰서
사흘
##키를
시뮤
멜로
해소를
출국
2대
그리고는
사실과
gdp
##발성
원칙으로
구강
대법관
캘리포니아
수차례
발표를
물러나
애를
맞을
결정적인
엔지니어
익숙한
브랜드를
##유효한
내며
이레
매치
사형
탄소중립
##으면서도
대응하기
다시금
요구하고
한자
##오면
것이지만
제안했다
느끼지
##플랜
9억
5m
협업을
협력해
비례대표
기록물
조사는
지역구
시작된다
1991년
전하는
집행유예
거느
조에서
##천이
1994
그쳤다
##인지는
발현
올해도
일제히
경제를
의무화
딸이
○이
상법
인터뷰를
##급한
산다
##군수
##임대주택
제19조
도로를
##ifi
여기저기
답변이
작품으로
정돈
않은가
후보를
고양시
비판을
##법인의
##교실
간신히
한수
캠페인을
벗어난
담당하고
역설
놓았다
한류
오리지
##ens
제37
필요하지
설치하여
말투
제6항
여파로
##심사를
일주
행하는
국민건강
방제
양극
시스템에
행안
과학기술정보통신
수단으로
하반
검사의
체제를
설치해
##대회를
##기관에서
65세
명문
저가
중에서는
##무기
##척을
적절하게
대책이
##게이
주제를
운명
자리매김
닥터
빠졌다
##요소
막혀
초반에
내시
설명하는
##자원의
간섭
##사업과
업무협약을
스프링
##af
당했다
양평
12년
타이밍
##효과가
위치하고
호응을
##온을
디바이
##절이
매출은
일어나고
조속히
변론
아세안
##외선
민중
대회의
##세기에
직원은
##화될
주제에
영원한
세제
##티드
one
달러를
##냉
취지를
##즈와
원심의
열차
천하
##퍼센
드러난
증거를
##리라는
한편으로는
소개해
##퀘
등장인물
기재된
태어났다
이동통신
○○
##반도
대출을
비정상적인
어떨까
대비한
방탄소년
##작으로
신산업
요즘은
##yl
가정의
외출
안전에
받았다고
모양을
##공헌
의약
사립학교
현실적인
자신감을
경향을
원만
지분을
탱크
##료가
어렵다고
##켄
이바지
영장
##코는
우선순
유성
패러다
수만
5배
##출산
메시지
지수는
도비
무소
시작되었다
##ide
차례로
성경
두지
돕고
강행
넥센
##pm
##대상자
선교
##질서
병이
2명이
사랑과
휘두
상세한
선원
##돌을
##산업단지
시작하였다
표현한
##노총
활용하고
##ᆻ기에
##부장관의
##네트워크
묶어
인스타그래
원심이
fe
##참을
담았다
의사소통
##vp
임산
버릴
학대
폐업
입체
씌
경기는
동맥
내려와
경상북도
##벤션
빠져나
각성
##회사에
뚫고
##velop
비단
쥐고
푸드
난민
##운은
앉았다
비하여
##분은
청구를
후보로
업무보고를
대국민
##분과
##출원
##ᆻ네
##ime
원심판결
##해석
##겠지요
싶어요
생체
##조제1항제
2105
소금
증폭
싸움을
베이스
조례안을
##수출
일어나지
특징은
남성이
##노미
팀장
캐릭터가
내달
##방법을
##애를
바이든
펼치고
수동
과시
챌린
측면이
벌이고
##칭을
##행위로
오디오
장기적인
오라
인증시험
##조성
수출입
요구가
##공시
##브이
1월부터
꽃을
부양
인류의
적대
급등
종사하는
○여성
##검이
법조
제네
되었다는
담배를
건가
전입
##오로
책상
##쑥
##동생
도청
때문인지
떨어지고
6회
○복지
그쪽
것이지요
폐수
사장이
행정기관의
개선하고
미용
원시
##능한
기획재정
소를
구토
2에
날로부터
##후를
설문조사
물질을
##돼지
##여부
배우자
##사리
##호흡
성희
##우에
##브랜드
주위를
기업인
결정된
##달러를
곳도
발로
재택
체결했다
##겁
##학원
면밀히
전승
##조와
베네
똥
장시간
받도록
입에서
##고객
향상에
한인
한결
112
기본법
앞으로의
무늬
##학에
운영과
##으로만
조금은
노하우를
dmz
##보관
되므로
105
일반직
뜻한다
##워하는
##들에게도
이유도
친구들과
매출액은
데이비
각급
늙
회담
행사할
##201
솟아
도봉
##유는
##싹
농약
르네
말씀은
풀려
뉘
참가한
됐는데
불린다
교육과학기술
저당
못하도록
##tr
짙은
##일로부터
과태료를
거뒀다
소용
남도
찾아온
취약한
의아
콤
승점
관해서
인근에
불평
위해선
상태였다
너도
##카르
전극
ind
상습
##론과
장기적으로
상품의
최후의
##사들은
##용수
이름의
##더스
1년이
입는
이어가
##ei
##우로
루이
##환을
##했듯이
##박이
##ction
위원의
##ᆨ스의
현실에
##판으로
제품으로
직제
##리나
##슈타
요인으로
싶다고
##라고도
가이드라인
습관을
서울시에서
인제
생산을
못하
##투스
박근
cc
방식에
순간에
고유의
13년
쇄
##안과
##포가
했는지
폴란드
평가할
서비스에
접어들
국제적
이차
트위터
하나이다
제20조
당신에게
농업인
연중
시작되는
##인증시험
##면과
조문
모시고
더욱더
보호하는
##하다면
수상했다
그해
잊어버
지칭
고리
아일랜드
##혹한
1등
##분쟁
생기면
무시하고
##ast
##분할
전문가가
하라고
피어
##직자
##기관인
##쓴
한중
여태
##발전을
녹지
고창
전장
##처가
지원은
평상
전문가들이
장소에서
자아냈다
develop
##회사는
000명
3000
판단한
다가오는
이루어진다
마비
##신에
같지
병을
델
부르고
달이
어렸을
개선하는
차에
##ᆫ의
차트
치환
유지관리
경우에만
##쭉
동력
읍면
도중에
##ᆻ으니까
##다니는
의혹이
백신을
폭풍
일회
50여
하늘이
바람직한
##구니
##소판
기후변
정류
##교육과
조만간
내역을
##종과
시세
눈은
세계가
##3호
세일
종합적인
##ᆻ지요
듯했다
죽인
끼고
##홀에서
서울대학교
분석이
정상회담
기탁
지을
##프리카
명백한
##ain
도의회
보호하고
분의
진행되며
##학년도
##사업법
무사히
##튀
편리한
중앙정부
##십을
##정통
정보와
동안의
빌딩
##질로
싼
음식점
##구역의
수립하고
##설정
돈으로
국민의힘
시술
대회에서
알렸다
상호작용
진압
이번에도
적당히
##라인을
못해서
선거에
유발하는
펌프
형편
##스테이
아닌지
1993년
항해
사자
외곽
마다
같지만
때문이라고
넘쳐
칙
인내
들었
적극적
조상
##책으로
##가락을
버그
##숭
유흥
개최하고
말해서
검역
기능은
##ical
회의는
주셨으면
집어넣
##래프트
##조의2제1항
보시
컨셉
##매체
방식이다
위기가
폼
##과학원
남기고
정량
한눈에
여학생
있긴
목이
##문에서
양주
올해의
##업체의
k리그
차로
형을
삶과
박탈
##벌레
덜어
##기상
##용의
의견도
4번
구호
만나서
파악하는
룩
더한
실력이
공급이
제자
필요에
국민에게
얘기는
마른
수행을
빛의
제23조
##액으로
뮤직비
듣기
##정당
들어선
##8호
대비하여
감찰
##준의
역사와
열릴
##품으로
목의
##황을
당사자의
실현을
사직
##디의
때면
출제
시청률
##다나
##내야
##변에
요구되는
못하여
안면
공직선거
쑥
##업은
##목은
영주
##정보의
강조하고
활발하게
##사들의
생각하는데
바다를
객관적으로
##외교
수치가
##세스
걷는
형사소송법
4개의
##각의
왔는데
요청에
필터
발견할
주택을
##동맹
사용된다
추가적으로
있어서도
알아차
총회
##고와
##군에서
유선
##래의
드레
농경
견해를
인력이
매력적인
##움은
##핏
##블유
##자금을
핑크
##이나마
프로토
안전과
권유
기술로
아니요
남편의
베풀
외무
상황과
성사
삼성전자는
제3차
나눈
목재
저술
##보세요
##기소
1990년대
점프
순차적으로
##뿐이다
##마케팅
탐방
맞물
##로와
제안한
사드
밀착
대가로
포함해서
그늘
보여주었다
불복
선보일
유가족
국유재산
방법과
친구들이
##퍼런스
##지던
##스톤
##대원
##연하게
##츠는
dl
##푼
리얼
막내
치안
##ite
해킹
##에겐
체력이
응모
길러
형성하는
ir
##시에는
가이
악의
영상이
##손으로
잇따라
##벤처기업
천주
##ᆻ느냐
지경
부위
연산
감성
선정해
##사실을
왕은
##ook
전국에
##드에서
##망의
이렇듯
날은
##됐습니다
싹
여덟
주장에
구성하고
달라진
##경기에서
위조
부족으로
휩싸
sd
일들을
피난
명으로
고립
##ga
lc
실감
확대하는
##공간을
윌리엄
##억원의
절제
당기순
##론에
##ational
돌출
##료의
소유권
##가리
창설
사천
일입니다
불이익
뺏
사나
##밴드
안드로이드
투자하는
한옥
심층
쓸데
##당하고
하우
연결되는
된다가
경찰관
소속기관
다듬
않더라도
임진왜
학생은
소리에
못했고
더더욱
성폭
금번
##한이
업체의
##양은
강력하게
제천
목에
낮춰
대치
여는
##귀를
바꾸어
고려하면
회의록
조례안은
공개한
##십자
슬퍼
신하
위원회가
##도다
압수
떠날
전성
주며
해남
물품을
말의
##잡을
위원회를
건축물의
##백화점
다닐
비슷하다
뺘
##시킵니다
실어
가압
##ox
대하는
시기는
고민이
소문
친구를
##성에서
참여하여
평화를
##개발사업
##32
##거리고
##들에서
무난
##인치
죽었다
불가피한
ser
온전히
쓰다
귀찮
위원으로
##pr
##집단
마이클
##ies
##보단
지나가는
##커를
노력하는
지난주
침대
대표적
##ile
시즌을
광역시
##버릴
##잔을
##코가
185
요청한
기초로
명에
##정책과장
##샵
대변인
한우
병원으로
귀농
에드
des
##교도
서울고
너무나도
어떻습니까
기능성
지질
##시켜서
이원
수입이
출연한
##5000
##ᆻ음을
이야기하는
##ly
##유형
현직
살았다
실버
업체를
몰고
net
개발하는
확보한
by
국한
신성
선정을
원과
우린
있으면서
설명회
주방
어마
활동하는
시험대비
확인되었다
##나갔다
궁금한
주기적으로
우측
로이
##명에게
영유아
달성하기
ab
포트폴리
고용노동부
폭이
처음이다
##여자
그랬다
믿어
거꾸
저절로
##ick
나라에
##개국
http
##간담
##듯한
환자에게
언제까지
2로
거래가
오락
파일을
질투
누구든지
사태를
되니
경제성
능력은
ke
마루
방문하는
창출을
모른다는
##무의
매출을
시행된
기관을
##부인
##추는
자연스러운
유포
##린을
효력
비전을
##켰다
국도
##line
살던
예비비
이윤
##루스
필요도
끄덕였다
가급적
헤아
미얀
##마와
피하고
환경오염
오사카
보류
모금
##7호
주자
대신에
불과한
##아아
##소개
합니다고
12월에
받았던
제주특별자치도
##멘트
못했
넣는
마리아
산림청
사면
##과대학
선천
살균
칼로
##산에서
진영
명단
##커녕
목표가
소문이
레전
어이
피하기
동두
됐다고
증축
비웃
묵묵
크기의
있었어요
포함된다
장점을
스탠
정리해
벽을
압력
접촉자
살펴볼
성수
##교육감
##있을
없음을
40여
하이브리드
##줄을
##지방법
대놓고
심각하게
토론회
광장
기소된
오리지널
달리는
돌보
마늘
따라서는
땅이
##추행
권한대행
##솟
객관적인
오기
##사업본부장
4천
##음과
대공
문재인
##삐
##화해
계속되는
시작을
출시한
##기게
업체는
풍요
##줄이
주의가
##토는
##업체가
##인가를
세력이
##락한
사랑은
문화체육관광부
##층은
주연
부동산에
낡은
즐거움을
##렸던
계획하고
측에
군대를
두기
날로
크림
##학교를
캐스팅
물의
시점이
계상하였습니다
##아도
##추천
군포
잡기
최순
스미
힘겨
전라북도
마음껏
추정되는
##주체
##석과
전일대비
지침을
미생물
재검토
영역에
하늘의
계단
받거나
섰다
내놓은
한달
아냐
##설치
##생태계
도주
상징하는
##사스
이번엔
맞춰서
유치를
출하
변이
저희들도
말씀드리고
위를
친척
gm
여기까지
아래의
넣었다
승격
거쳐야
단속을
##약이
벌였다
해주고
제도는
한진
않겠다
##포장
토지에
##온의
정보에
이전에는
##ᆻ듯이
구성이
행정부
##그리
속을
걸렸다
특징이
제갈
##시간은
집은
통보하여야
##ome
교육비
예언
##집에서
##ug
오산
교수의
결정한다
do
내성
못했습니다
##으로의
안타까운
집필
000원이
a씨가
te
고종
○환경
식이
딱딱
툭
앞당
쫓겨
조금도
권위
주장하고
과징금
이번이
##인정
##맥을
쓰인다
케이스
텔레비전
증가에
형성되는
교육지원
지켜보
교육청에서
마을의
무궁
파급
고개
시작했고
1980년대
줬다
이명
킨
작업에
검사와
충실히
##함의
18세
10년간
짐을
방문객
제21조
7명
##놓을
영역에서
료
아군
처치
제22조
최우선
증설
트럭
어디까지나
가면서
세력을
마을을
유럽연합
탐구
단체의
##공으로
금고
나가도록
세포의
상정합니다
취지에
김대
판단에
전달했다
##사관
##공에
느껴졌다
##갸
##터미널
##민과
촬영을
부엌
##훼
##per
공예
할아버지
방으로
##농도
밤을
내륙
김일
걱정을
시절에
##니스트
기체
키가
올라가는
예민
의미의
총력을
미네
##거라
출시된
기사가
이라크
많지만
힌
그릇
##64
물은
번쩍
재벌
##공유
확보가
개최를
보기에는
아이스
과기정통
판단은
4급
주유
빌리
##설립
당하는
무언가
다중이용
초고
부작용이
##트랙
파악하기
거고요
ev
일의
지속될
서귀
장미
면서도
경기도에서
1988년
추가된
귀에
깨달았다
임의로
지킬
##cp
모조리
없었지만
쉬워
3의
철수
125
##위원회와
##조절
분석하여
필름
석사
자활
치료에는
강조하는
1989년
##댐
##반이
풍경
여호와
변경된
보러
베타
##놓는
위험에
구조조정
잡힌
##산업을
표현할
변해
##분양
원산지
##통화
불리한
얘기하는
개발해
##되었기
급격한
##그룹의
미비
##티아
진지하게
거냐
본청
우리나라에서
걷기
확보하는
쉬는
formula
소변
##당하는
imf
객관적
크로스
##무라
##ont
과실
바꾼
그토록
감염을
판결에
떠오르는
발자
몸과
늘어났다
마세요
성명을
선정하여
수월
대다수
아나운
##form
##ire
야마
##레일
취지의
찾아서
사회공헌
거쳐서
있습니다마는
##침해
명심
성희롱
뇌물
의원을
지친
게이트
울려
텍스트
##도지사
주민이
##보유
전망이
가열
경계를
##련을
신청서
핀테크
있다며
소리로
##앱
##썩
기다렸다
장병
공격력
회원국
읽기
치료제
지구의
조심스럽게
##시설과
5000
효율성
기울이고
##시지
단장
1을
day
##ᆯ런
##았어요
사실입니다
정면
감동을
##도르
##드림
2는
##파일
내기
명은
포용
인조
괴물
유언
검토가
3월부터
때만
발생하면
편안하게
학력
##wm
전문성을
간염
넓게
세부적인
약속했다
지방자치단체가
화염
지나친
##정하게
##네스코
사진이
##섬유
저자
20분
찾아야
영화가
with
소개하는
언론에
##공인
굵
학업
##조제3항에
2기
얻지
접촉을
##지원금
##돈을
내용이다
##가루
땀
공사는
즉위
국악
하는가
떨어진다
서울시의
하차
##올라
향하는
##봉을
비교할
심사위원
바를
공무원을
뒤집어
의문을
산을
아내의
투자의
아르헨
귀중한
자발적으로
일산
재가
##숙이
수려
##역과
##팝
규정하는
##진행
설탕
하였음
부적합
하나님을
참고해
팔레
미술관
##어업
이우
시설은
봐요
여주
강화에
예보
녹아
노인복지
국가적
사건과
변경하는
2호
##포의
높아질
##석에서
이보다
##후는
그러지
220
덤프공부
이곳을
##집은
주한
신안
리스
##하에서
마신
내다봤다
매진
고도화
이집트
경선
사용에
별개로
진술을
갇혀
##관리공단
##넬
근저당
##겠어
테크노
소재를
문체
법에서
예상치
##더를
##65
##하기만
역학조사
무엇일까
##훼손
##타리
증감
의문이
말씀드리는
1주
##계약의
##사이클
처벌을
림프
있을까요
건을
비교하여
sn
평년
##례가
패치
하수처리
##류에
적정한
닮은
것만으로도
변호사는
정식으로
몸으로
소개하고
무방
바꾸고
단점이
남자를
취하는
올해부터
무형
터미널
울고
알렉산
제출할
##정책관
난방
보이는데
불어넣
흥미로운
병력
수지
활동은
아내는
가리지
메리
조례가
주목된다
##츠로
들어가고
조성에
자생
경우의
더는
치료와
차등
크리에이
예정된
인정하지
##법원에
특성이
누나
1사
##지휘
##툼
지장이
##내용을
지원센터
30억
##인식
계획이라고
대표와
의견수
요시
##덧
##트륨
필연
독성
##95
박근혜
##소기업
##태가
##퉁
기대가
덤프데모
인물이다
뚜꺼
나오기
##총괄
##ᆲ게
확인이
충성
슬픈
개선과
신고한
여성을
사업입니다
설령
못하였다
##들이나
개최한다고
추진한
되었던
뜻은
식민지
닌
컨소시
다리가
##스케어
민주화
전투를
속한다
확보해
럭
행동은
탐지
qu
##이동
많았고
법적으로
자란
압력을
##재와
##날을
알바
신사
확보에
가져야
지상파
함을
생각과
대표를
누구보다
1987년
##렉스
##측은
옹호
부부가
오신
벌인
수원시
##받기
##초가
확대에
pe
##포트
행복하게
옮겼다
미친다
남궁
##ᅪᆼ
ro
라틴
새로이
형성되어
덴마크
##안에서
신청서를
부풀
병상
경기장
거기다
압도적인
감자
검거
쓰게
살아야
혼란을
이념
불안한
신체의
드문
22년
경찰의
4인
중요하지만
##졌다고
아르헨티
##유니
일으켰다
시너지
##물질의
설립한
흥미를
##열에
구조가
전까지는
사항입니다
거꾸로
내용도
교과서
##68
##공격
2030
##퇴근
##가에서
명할
북구
##진다는
러시아의
학사
평가에
##교육장
선착순
비즈니
##내려
붙임
커피를
가평
크기를
5급
환수
이사장은
경기도에
동호
소액
20세기
##노트
살면서
이루어져야
농도는
##셨으면
단계별
수수료를
##문제가
지각
##집으로
초콜리
4조
화산
횡단
##ys
##사진
인가를
채팅
##지식
조건에
한방
##농업기술
반영된
가깝다
##시다시피
전하
체험을
돌고
보건의료
##강이
##교육청은
같음
유네스코
신은
오바
실시해
여권
장애를
##몬드
단수
열을
##블록
비리
학계
수행하기
고친다
##됨으로써
##화물
펼칠
##스틴
지인
##사나
##노조
공무원은
효과적입니다
아저씨
단계적으로
##저런
전라도
학생을
고민하고
##정책에
경연
유류
없으니까
지방공무원
총을
##캐피
정리를
##권자가
지능형
행한
##oud
##였을
주둔
협정
##운드를
재학
메이저리그
배출량
사업자가
주름
그도
가로막
친일
선보이는
운전자
○부위원장
##ᆨ은
손님이
풋
##문화의
##ros
##직으로
정신과
##타수
##질랜드
##물질을
##블리
어디에서
푼
##처에
공간에서
유니포
2108
완주
권리의
툴
안심하고
이어갔다
저격
성능이
핸
미나
수감
이어가고
작게
줄은
입시
##화장
##협상
##채가
사람이라면
##ark
자녀를
공감을
##배가
건강과
에서도
2tv
##랭크
##당사
나라는
##전에서는
아르바이트
토트넘
추진계획
바라며
내뱉
꼽힌다
환원
손바닥
지정되었다
잃지
연체
껴
##나서
없어도
타워
##카이
부드럽게
투명한
과거에는
있더라도
##락의
##이었으며
간사
달랐다
##룬
학생들
동방
함께한
포르투갈
중앙에
서귀포
구슬
외국어
sl
그리는
연인
봤습니다
##비도
로켓
건물에
표출
단체가
일러스트
2세
유전적인
임금을
부분들은
세계로
주문을
기대감을
##공화국
○의
치과
##예고
중심에
연계해
3연
주전
##stem
1명을
기관과
뭡니까
##ement
농축
주민자치
그림이
##자원을
대인
##보존
방패
항체
산업혁
살아있는
##특별위원회
시행한
그제야
##보살
회상
##서식
##오던
좋아서
동대문
8회
딜러
신재생에너지
재난관리
교류를
말했음
따라야
3px
car
제출된
후퇴
거창
주위에
독창
인구는
질적
개발사업
##할때
##졌습니다
홈페이지에서
연구에서는
전재
로컬
##훈련을
대부분을
본선
##복구
##관계의
공모를
인위
##그레
mri
재임
전문성
답이
여당
과도하게
##복무
##곡이
포기하고
중앙부처
##으라고
##었으니
힙
싫어하는
##ple
지워
고난
조사에서
콘크리트
##건물
지방재정
##라와
##황이
휴양
개인적
예방하고
아동학대
많다고
아테
레저
##오기
구성하여
104
발견했다
작품에
지내는
##취약
포인트를
의사와
##전부터
자신에
범위에
원거리
양보
어플
##미로
봉쇄
출신으로
맺은
취해
어느정도
억압
것이오
좀처럼
밑에서
해가지고
되살
##카드를
틀린
방향에
흰색
##제3호
에프
사이에는
10월에
##지출
##농정
감정평가
##터널
발레
##졌다는
검토할
min
중학생
예방하는
규범
○감사
중세
연다
헌법재판소
제임스
협의가
이의신청
들어와서
##녀를
실리콘
로서
문제다
보석
##산성
제공되는
지녀
성남시
에이스
fif
날에
까마
값이
개선할
누구에게
교역
##eth
rad
##결합
##기술의
##유입
108
샤워
##백과
글자
##ified
##디에
산악
판결이
계열사
##군다나
3명이
종류가
노벨
바뀌는
개회
토요
카메라를
기업들은
분명하게
##나라에
방침을
십자가
박사는
윌
##보게
변화하는
대형마트
##조사에
사업도
협의하여
##재무
측에서
혁신적인
가입자
1993
지식과
조절하는
단계로
##nc
업무상
다릅니다
2가
공기를
##야는
중국을
넓혀
뉴질랜드
친화
마련이다
설계를
나타나며
구축해
##기간의
클래스
다뤄
살아갈
기쁨을
##로스
소스
##교육법
레인
놓치지
##이었을
숨겨진
붙인
new
cert
모욕
공장을
##단체의
부여하는
시내버스
온통
디자인이
인프라를
##리안
##찬을
##ᆺ과
강우
기운을
##기면
가능하다는
타게
159
##열의
중이
에어컨
기를
영업이익은
노선을
##일간
##버넌
대학을
##쏘
기능과
도에
##항만
어지러
수축
교직원
민감한
1박
세액
##end
3점
화해
love
수성
##켈
이런저런
신형
살펴보고
민자
잃어버린
##교에
계약의
나라에서
원인에
그라
수중
군사를
마련하는
iii
##뜸
요청하는
##직업
사용해야
완도
여부가
당하고
불만이
111
시절의
##츄
300여
주목할
관습
##어린이
암흑
연일
세상은
##작업을
타카
##정리
##회원
##스톱
구성된다
선정한
##방식을
병원을
표준화
조직에
노원
티켓
직급
##멍이
화제가
싸울
##칼리
적용하지
공평
단절
##렉트
않았다면
##ne
##현대
맡게
중년
이따
시험에
##채의
##치면서
피부가
##결한
특히나
해결해
가정을
따르지
2000년대
식품의약품안전처
##있습니다
강동
곳곳에서
##하진
불쾌
감안하여
있기는
쏟아져
50년
스트라이
##ᆫ터테인먼
이영
도리어
복부
str
활발히
##분쯤
배척
금년에
##조제5항
나옵니다
질환의
최근의
##레이터
급수
##리조
지원한
##맛을
나타났으며
정직
얼어
##당했다
동지
치우
금액의
추산
좋지만
번식
주민들은
암시
현대자동차
신을
기록되어
화순
##집의
##총을
나열
덕분
혜택이
##이라며
자동화
가져온
다자
##식에는
며느
듀얼
넷플리
bod
##웠던
요리를
반응은
연도별
성분이
죽일
8명
mic
생각된다
9월에
신청은
360
뮤직비디오
패스트
승려
행위로
운명을
연말까지
##ory
인원을
##오르는
##민주연합
##기초
##자다
##업계에
세븐
치료하는
##칫
에디
락
사생활
##물고
##뿐이었다
주변에서
힘들게
경작
대구광역시
스카이
##광을
연구기관
환경개선
##께서도
이밖에
농도를
이라면서
##번이
##강도
##고시
댐
##것은
초상
정도면
허나
자동차를
상세히
토로
언더
우체
##설에
활력을
이종
방한
보여줬다
선정하고
이렇다
##였기
수있는
##주의에
유전적
뻗어
##냐면
3월에
1970년
내부에서
연락이
바른미래
해와
아버지와
재빨리
업로드
쪽을
걸쳐서
유기농
##등록을
if
찔러
하죠
유희
교양
들렸다
발표할
변경할
상승세를
##림에
벨기에
위상을
가져와
##저가
두뇌
섹
환산
민방위
설명한
합동으로
연쇄
판매가
깨어나
##목록
날인
모호
##사상
##들과는
##내어
보고는
일커
제2의
독도
부동산을
습격
1기
마련하여
##손이
퀘스트
싶은데
○소방
잦은
##짖
##진출
갖지
문의하면
##량한
남편은
멋이
##orea
이용객
변화의
자와
행정심판
거짓말을
최하
립
자문을
둘레
익산
##ᆻ네요
만들어낸
경험한
해당한다고
18개
의미합니다
사용료
눈치를
대금
재배포
갑니다
##들하고
뿔
cf
공사의
합의가
##증상
지급한다
어머니를
방안도
달려가
국제협력
당원
극본
신중하게
애정을
ks
직결
모델은
않으므로
뭔가를
전역
##밥을
자택
사원
토목
##대리인
1건
연천
##길로
##만큼이나
오케
해변
##방문
##00년
강력히
사과를
이르게
기꺼
선명
##오면서
mo
20명
중에도
사이트를
예술가
##벨트
마나
했었다
광범위한
국무총
고기를
##두로
반갑
실시한다고
##쁨
고요
##첨단
이만
##선도
##옷을
102
떼어
욕을
달성할
커질
내년에는
제기된
##인이다
##족이
앞뒤
제5호
##티는
##민원
군이
있겠는가
##티즌
초창
섞여
돌아올
##67
정체를
단계는
방울
온천
개선하기
퇴원
dj
해준
한편으로
농림축산식품
##강에
강경
가져올
던졌다
pdf
##탱크
나쁘지
##락에
햇빛
장교
##쪽이
월간
구입할
대학에서
재정적
##용은
사후관리
생산성
준비했다
##부하
화제를
내지는
초보
서울로
공무원들이
고품질
지으며
남아있는
돌아갔다
도와주는
이방
##어스
##골이
어마어
여건이
관계부처
제안설명
그만두
지점에서
##권자는
농구
##나지
자금이
이의를
기온이
제24조
아토
부추
만주
들러
동남아
어선
##조류
특화된
환경과
코치
관광국장
##해볼
도시로
신청에
5개월
##전형
장차
전염병
성균
마술
##검진
##막의
실패한
라면
##ere
침착
남았다
##판에서
치명적인
시카
##우면
##점유
##야가
산업을
나타낸다
가르치는
##되나
제2조부터
##커스
##예를
15억
제42
송부
득표
##화되는
전문의
휩쓸
아뢰기를
##마루
##파이어
##볶
3시간
시효
게임에
인물로
##터에서
인사청
##궈
##경북
##쉐
흘려
##광이
##심의위원회
분노를
##베이션
유재
뿌려
대강
아니지
##티가
유학생
##닝을
감사관
저수
##분해
동물의
호에
친근
결정은
1991
바라고
상황에서도
##르면서
라운드
싸움이
따랐다
##박물
예술의
상에
예선
로부터
내로
##당으로
범위는
25개
마을에
군에서
좋아한다
안은
이유다
다다
뭐야
퍼부
ha
##i는
지금에
##뚱한
드렸습니다
공격이
##설은
좀비
입단
불이익을
jo
##°c
하단
top
의식이
항공사
기능에
핵심은
생각했던
들어가지
보리
해에
나서서
1945년
선거구
순조
열대
##너지를
##통일
소득이
연습을
벗어날
##84
장흥
1000만
##바의
건담
통산
전쟁의
cov
범죄를
조형
경보
실장
일상적인
##루션을
여부와
규칙을
##입찰
정책적
##수술
김태
상황입니다
##시설로
폭로
적에
망가
##사업자가
처음엔
더군다나
인간과
5인
mod
부위에
도교육청
돌아서
함에
점과
이용자가
짤
벙
##차고
금요일
제45
졸업하고
##고로
네티즌
7회
박차를
##바퀴
일상을
소울
부문에서
말레이
자연환경
##정책국장
의욕
##동원
버스를
합작
적용된
가리키는
안경
크기는
수립을
세우는
184
해적
재료를
메카
예방할
성공할
fifa
##ry
청탁
대마
##보라
##동향
언어를
mp
중점적으로
꿈꾸는
재능을
##3개
해리
##하여서는
문명
타자
경제에
집중할
바다의
벌어졌다
끔찍한
경기도와
낭만
기법
걷어
자영업
##했는
관리자
처우
전투에서
발굴하고
책에
랜드
저자는
전복
##셨는데
날씨가
췌
대목
재미있게
정치를
##동맥
##포스
7월부터
##렇
점진
액체
실정이다
다음에는
위치가
##줘서
모형
혁신도시
시청자
##연구원은
청소년의
독자적인
이리저리
##해주고
##필이
31개
출연했다
헤매
참모
##덮
밤새
##어머니
정글
성장하는
아들의
추징
##사고를
낮다
공격에
과거를
수자원
##때로
공유하고
그중에서
좋은데
##인지라
조율
활짝
모스크
비춰
부위원장
##센터와
아까도
##벽이
도를
차질이
하루를
##리얼
말자
남성의
걸그룹
##늠
가치는
키스
한번에
##벽한
잊고
베를린
수단을
##국적
##ᆺ지
서기
신년
해야만
##츠의
##보호구역
##wor
구하기
호테
per
강하다
##기본계획
운이
일본인
##내의
꼽았다
동거
##타이어
아산
왔을
힘쓰
비어
179
주체가
송도
장애가
oh
##매입
승용차
##파와
##상도
##편에서
조치는
먹었다
미뤄
전문가를
##19년
우주의
친한
##유플러스
생각해서
넘어가는
성우는
##망에
아홉
학급
손꼽
미국을
성장이
일기
##으리라
##부패
새삼
##즈에
뜨고
아래에서
멀쩌
귀한
않았으며
##비용은
##하늘
과의
장거리
system
그룹의
한나라
역동
##가공
계획이며
좋다는
한다를
##터와
축복
적격
소비자들의
자가격리
제25조
부분으로
##시브
할로
의의
변하지
##날이
개정되기
##ian
##암이
끝을
##중국
##드리도록
필수적인
성의
심해
지급한
창의적인
가지의
발족
검진
1점
휴대전화
물건이
넣을
행사로
그치지
##제어
둥근
고인
질문이
높습니다
마르크
자산을
축사
년이
구조로
도입한
제기할
비정상
미흡한
##ius
위원님들께
국왕
높다는
##공사에
부르며
관악
언젠
##구조를
차마
##면역
텅
능력과
적재
적중
##장소
되죠
되풀이
##프라이
성장과
공이
##눌
##조제6
포함되지
##ary
봤는데
종로구
추운
혐오표현
##조약
김씨는
모습과
가결되었음을
3분
part
##개시
행위의
스킬을
##장치를
살게
주셨습니다
기록은
##기보다
전교
##프레이
ktx
##팜
시킬
생활이
##색은
보답
##래를
강북
세울
사인
추상
활동과
##gm
달성을
##연계
뭔지
부합하는
생활의
적정성
말하기
##play
이마
이어진
자녀가
ko
##다녀
그중에
##치다
선수는
증명하는
버섯
독거
역사에
##림으로
보임
##졌던
동정
##피가
2025년
낮고
기해
##가인
편견
술에
모리
정부를
건강하게
전한다
##커가
깨닫게
하셔야
국민과
법률상
##봐도
가정에서
스테이지
상회
발생하여
##환은
게임은
바둑
##ve
출퇴근
의회에서
마이크
계정
있었기에
임상시험
후유
##셔도
공유하는
하늘에
쌍용
##랑은
난이도
##케어
벗어나지
##환의
피상
홈런을
찌푸
○경기
연내
유지를
각국의
세월이
백화
반전
대해서만
선수들의
오전에
운동이
##하네
필요하고
8월에
새정치민주연합
##법규
6월에
오오
4월부터
##db
여인
여건을
아바
점용
각별한
##창출
##개발원
예방접
이완
##에프
나만의
##지사는
건설을
기호
통영
발표하고
못합니다
지정하는
장학금
더했다
메탈
올라갈
선정했다
극심한
2연
입었다
닉
벗겨
##로봇
오르고
국가보훈
이미지가
위안부
이글
감소하는
공유수
##적일
딜
제4항에
단단히
묵묵히
os
거래일
부분이다
믿는다
견딜
해병
소리는
상황으로
웃음이
##위치
시책을
다루고
다큐멘터
심장이
##백만원
경미한
환경의
극복하고
간략하게
##매가
답변드리겠습니다
개선해
정의당
알루미
##교육에
9회
데스
대표적으로
요청이
고찰
##ᆯ레이션
##마일
현상은
월급
##로이드
21세기
예상했다
상자
##발로
본관은
먹기
건축법
아니더라도
보복
해준다
굴러
##했으니
##종일
rayong의
수긍
설정을
내년부터
금융회사
여기서는
##오나
영수
##임은
일본어
자연재해
근로기준
기재되어
분야로
쿠팡
전념
아시다시피
sk텔레코
신곡
갖다가
필사
그림자
330
##대부
일조
지원으로
종양의
##제출
고흥
수익률
녀석이
##공공
##경부
145
지리적
인구의
일이라고
##앨
연구결과
수준에서
성매매
##투쟁
벤처기업
과천
##중에서
부산의
##운동의
이십
세정
##이었다고
하면서도
##노의
눈부
##특허
톡톡
9만
##충전
보도에
제대
소유하고
깨끗하게
##륵
사용되며
옥외
선제적으로
근원
50억
웃어
이끌었다
카카오톡
##킹을
역사는
사회적으로
예산결산
제2조제1
카라
동아리
한복
가칭
##력발전
밑으로
받아들이지
넉넉
##가능한
1970년대
대표로
보호에
이윽
훑
베팅
도덕적
라면서
심포
##창이
##ater
##류와
500여
충청남도
필요함
제41
평생학습
##오와
당내
##됐을
구성됐다
살아온
##ᆸ의
올해로
지나고
외국의
갸
##든다
밀접
피고인은
##통은
수량
명목으로
240
시ㆍ
정유
##분권
##클리
보은
개별적으로
##롭고
비행기
##나들
기술에
comm
정제
영어로
제6호
마찰
##번의
쿠키
먹는다
일반인
마냥
남다른
밀양
졸업한
직선
좌측
오렌
소급
기관에서
둘러싸고
##품은
쌓인
향상과
판타지
협의체
처리가
##릇
##통의
시작하고
##탄이
논의했다
고취
##재활
사라지는
병합
5월에
국제사회
##지법
##업자가
내각
전철
적힌
6차
##재배
##피는
짙
거기는
각하
힘은
##폭을
스스로의
팬들이
가방
하우스
법인세
적다
리어
거세
우는
강진
사용했다
##강점
백두
아동의
원상
##녀는
황제의
관광지
부지를
##라이트
통보를
것에서
카메
노력과
지름
##ᆯ리스
부담하는
검찰의
##강은
넘지
브랜드의
##레나
기꺼이
때였다
범행을
접근할
이니
예결
##모습
급하게
논의할
영감을
길이가
컨설팅을
gen
발생이
식습
##89
##신한
기억에
없었을
운영의
체결하고
##ition
중형
오일
사회보장
굳게
##사단
##펠
모릅니다
##ee
업계의
##ᆨ스가
귀신
이르면
화면을
##ication
##테리아
테슬
##완벽한
시와
배열
주저앉
설명으로
##50만
인디
기분을
##레저
애정
수요에
중량
이룩
스폰
초중
사랑해
역할은
형성하고
모여서
뾰
꼼꼼히
바빠
재래
매장을
139
청구항
코어
개정안을
좌석
의원과
##이라고도
suv
기장
##ero
직원들은
증진을
시작하면
양도소득
기차
국민적
제거하고
늘리는
##커니즘
수익이
지키지
스며
1985년
대표자
발전시켜
몰수
##개선을
자체로
통찰
제27조
죽이는
기관지
중소벤처기업
##방법에
##고인
원어
지원사업
##여부를
어머
##씨에게
발탁
lg유플러스
바로잡
만나볼
계약에
모방
포획
단어가
전방
경우로서
한국당
사업비를
신상
나아갈
곤란한
가늘
중국인
계란
타협
부담금
107
안개
흐름이
수은
숨은
군주
챔피언스
##독립
보고서는
대회는
벌어져
있단
퇴적
기본으로
유지했다
##4호
석면
제주도는
##ding
##올리
##기능을
1986년
시원한
향토
기자들과
영암
재학생
선택이
방사능
##히게
회의가
놀랐다
골을
##00억원
달갸
속에는
적법한
사명
##모리
##정수
##하자고
해소하기
직업을
표시하는
##상거래
아니었
sec
##센티
상처가
enu
##거야
만하다
비용으로
질환을
합리적으로
가늠
##트러
왕복
공무원으로
##이기에
제의
##겸
조성된
아내를
##질은
자폐
대가를
소장은
면모를
반영할
것이라면
움직이지
에너지가
사임
간직
동조
눈높
최상의
논란을
급한
폭스
절단
없었기
실전
##황의
못했지만
변경이
수행한다
소프트웨
깡
##되지는
쓰인
모자라
미스
7월에
명성을
리조
의원들이
보상금
전부를
의자
뇌졸
단독으로
##겠느냐
100명
의안
남구
해운대
애초
시급한
##지니
이해와
법과
돌을
접수된
한성
간호사
눈치채
수의계약
부인이
##패로
마케팅을
아니하면
건에
알킬
##즈베
이해하지
용병
방향이
##차관
##표의
##범의
자동차의
용량
제게
하드웨어
고부
ds
아파트를
아빠가
##82
상설
영하
당할
구축하는
##이노
권한이
벌이는
수험생
##되기를
개원
바이러스에
지식이
유머
감고
죽지
강화와
비용의
끊어
뜰
##요지
대사를
이것에
자이언
##쑤
115
독재
기록해
##피안타
공식적인
째
편한
스타일을
그동안에
답변은
아이스크
심지어는
##들처럼
동결
마켓
##킬로미터
미끄러
포지션
15분
삼았다
몰두
묻혀
##거니와
공기가
1992
근무를
cloud
##인간
못한다는
강호
이용이
위해서다
##슨의
1루
6천
호평을
노인의
연이어
발명의
##타자
알려지지
순간을
기적
부도
에릭
kn
이태
관해서는
근로자가
추천을
설정하고
노인이
일간
다이어트
##으려면
인문학
입금
농사
띄는
농식품부
이상하게
어쩐
시작됐다
도로가
소유권을
다시보기
플러
나서야
4월에
##rayong
흔적이
일제강점
색다른
잉여
소재지
작아
선거에서
##클래
통하는
만나면
##저를
파우
진한
편에
믿음을
인스타그램
성동
모양새
느린
○자치
생각하기
##주의가
아크
서비스업
파격
인플레이
취업을
여왕
사무처
도울
가능하다고
말씀하시
엘리트
차관은
분을
리스트
경제활동
##해준다
것과는
끼워
깨닫고
전속
연구에서
발산
변하는
의사표
본래의
경전
이야기다
상고를
##빡
##럼을
손수
##으로서는
주장한
##유기
피부의
127
종합하여
마이너스
##리던
법리를
제43
소나
묻지
하러
유지해야
지적한
임진왜란
룸
사본
##들이었다
작용을
변수
##비행
항복
이야기도
미만인
심심
금세
봉인
감안해
##저감
##교육이
원고에게
상고이
개정규정에
진정으로
판교
전하고
##린다는
인사청문
실시설
치즈
판매한다
퍼펙트
##플랫포
경로를
학살
정읍
##cs
##공고
나오게
폐렴
있겠습니까
질환은
없이도
뜻기
여러모로
경기북부
##노는
행정구역
역할에
저출산
되겠습니까
##족을
##켓을
시설과
##나가고
불투
##희를
제공하여
40년
괄
가능성에
##틀러
##경제의
##휴양
##시책
수사에
소수의
식품을
융복합
기습
##달러로
우울증
보여줘
##곡의
마이너
생각됩니다
환상
숨이
1984년
다가와
##제국
증시
팀에
##프와
##uaw
피청구
걸림
##사회복지
##빌딩
줄어들고
타인에게
송금
lng
도급
열정을
활동의
지역에서는
병력을
##uawei
저질러
싶었던
##복지국장
##돌아
법률을
개최하여
끼어
##젝트
썰
##과목
확고
제4차
장소로
볶
원동
치솟
표를
##ung
##성능
법률이
연루
##사업자의
시행된다
저에게
##티오
중국어
##olog
흩어져
##테르
시작해서
시민과
문화와
6개월이
빚을
실효성
##추가
업무는
소비자에게
##하더니
##철은
멈추고
106
##iss
##들까지
##츰
지지하는
것이어서
하였는데
##2000
##령에
cv
과제로
경력이
의회의
별개의
2018년도
흔적
쓰러져
##용량
입이
발생해
109
했더니
센터를
135
의제
거제
알려주는
반영하는
미얀마
a씨의
코르
##회사를
은폐
보고서에
따뜻
압수수색
구인
##하겠음
고객은
행사에는
bor
퐁
##가게
되었으므로
멘토링
##연습
연구와
고마워
내정
bac
때때로
한다가
배임
모습도
해외에서
수입을
##유로
랜덤
부득이
##수련
##루와
기금의
움켜
높다고
##위원장이
공격하는
하셔서
보이기
4가지
유난
후임
데에는
미라
조경
채집
사안에
직계
읽은
작용할
행정소송
쪼개
질병관리본부
수변
##증명서
##룰
##통에
분장
학교폭력
쌓은
확대와
남원
인원은
우정
성적이
금품
스토리를
수로
기온
제3자
바뀔
##ᆫ이
알려주
해야지
작곡가
거버넌
교량
단원
한국형
곳의
커서
품질을
하지는
동작을
개최된다
제품과
국토의
##76
수없이
일정이
빠지는
변경에
우물
사례로
직전에
##택시
##병상
세련된
##사업소
모빌리티
##경기에
1960년
불합리한
환송
틈을
콜센터
##ti
욕구를
도로교통
퀄리티
다목적
성실하게
통지하여야
마산
쪽은
말했습니다
대관
우스
##오게
##테면
슈팅
규칙적인
안건을
##외의
##하느라
##차도
연소
길어
자녀의
##ᆸ기
기출
침범
부장판사
사쿠
동월
감각을
발굴해
정원을
##현을
mb
기점으로
아이들과
이온
##최고품질
대명
점유율
sol
필요하며
항목에
배부해
ka
겸손
ng
출품
않았으나
조항을
##관측
##oci
쌍둥이
cg
##주거
산성
시도를
##노라
인플루엔자
##훈은
김재
##드리며
죄책
훌쩍
부평
평화와
이윽고
더듬
분자
128
물질이
한껏
했음
lv
저주
국공
주인공은
가뭄
##사키
항구
담임
##주의자
받았을
##킥
협력하여
차는
##광주
안이
계량
받으면서
##셀로나
의한다
개념으로
##텨
기본권
낳은
당기순이익
검찰총
장애인복지
주부
물과
겹쳐
수산업
##라이더
측정하는
헌법에
닦아
맞습니까
차량에
##슨이
검토하여
시절부터
고고
lpg
참을
##론가
생산된
인터넷을
전달할
비율로
정회
##몸
주식의
폭넓은
달했다
사이클
3급
상응하는
포위
##경으로
129
무의식
디젤
국민들에게
강조한
배후
경성
못했을
##ᆸ다는
키움
전립
있어서의
전자상거래
##제3항
산학협력
아껴
오게
##팀에
실태를
다가왔다
##인프라
향하여
##ᆯ리아
##구멍
22개
육성에
벌여
금리인
red
##불이
bmw
##가량
어드
##복지가
##곳의
오염된
간판
의사결정
받아들이는
##권자의
19세
##택을
재산의
##격에
않으면서
찍고
##ics
친구의
예뻐
흑인
규칙은
재편
##걸음
예치
손자
##림과
부족하다
종교적
상대방에게
##길은
가문의
부상으로
##네가
##ank
##간다는
식욕
도시가
시트
외부의
티셔
워터
##사전
요원
##스에게
김동
평일
눈의
분명하다
##흉
농수산물
모니터링을
##표는
데이터가
민주당은
##수수료
조항에
##중은
선거를
지내고
교회의
##념에
먹이
물질의
위협을
시키고
의견에
울릉
##부산
행정처분
말미암
솔루션을
간과
##하자마자
미워
왕자
##행위는
내버려
##두리
강화된
##탄의
##기일
##느니
성장한
죄가
고객들이
주당
있었는지
##맛이
##질에
시행될
도끼
추억을
물고기
결정하고
분야가
여전
분들도
##데이터를
바이러스가
##농산물
##지지만
남양주
투자할
고맙습니다
이끈
오만
##정책실장
건물은
정회를
은근히
재량
들리는
놓는
1위에
##버드
노는
얇은
제26조
의견으로
증빙
정책은
쟁점
3종
의회에
클러스터
페널
기인
cb
##하듯이
##돋
아니므로
##ᆫ다고
설치가
양해해
##댔다
경우로
달성했다
잠복
면적은
이어진다
이상적인
##영화제
##09
중으로
면적이
개최하는
얘기다
##셨습니까
재심
끝났다
씨와
인접한
신원
멈추지
##43
잣
보기에
건수
##책임을
누군가의
무상으로
##티어
후보의
소멸시효
영혼을
디즈
상권
치면
##홀딩
##일드
늘리고
드라이브
갔을
상단
당국
책에서
뇌전
##기다
나간다
규정되어
기재한
##ᆻ으므로
조직과
품질관리
수단이
##청구를
기반이
205
건의를
##기부
경제적인
지자체가
developer
뮈
##gin
##란에
선서
참여한다
섞인
사신
않던
3주
##기록을
겪을
##조사는
식재
esg
냉장고
제46
성격의
명도
성도
##책은
됐을
##들끼리
##버스터
발이
머니
생활체육
바이어
증상과
데미지를
##포로
##수소
##점도
제47
괜찮아
미쳤다
모셔
##법에서
번갈
느껴진다
임기는
마련하기
2017년도
무한한
트랜스
##남부
나타낸
소비자들이
팀원
##86
##h12
부담으로
##키퍼
##ᆻ소
지역별로
실패를
수해
##궁의
핸드폰
display
심부
잔을
예전에는
국토해양부
정주
밝혀진
휘말
체결했다고
케어
주가는
다룰
대화가
원도
##근이
키우고
플레이어가
당초에
직장인
잘하고
탈북
흘러내
설립을
부득이한
마실
소리와
##방향으로
하든
보았
상황이었다
##기후
정차
만남을
##휴가
##밑
부분적으로
추가경
이하인
##업체에
온라인으로
리드
이데
구조적
감사드립니다
공부하는
대내
##대변
이후로는
##표에
조례로
교사가
입문
설명한다
재정비
시민사회
믿음이
##려야
안전점검
선택의
연계를
질소
##중계
청각
귓
힘들고
##처의
##판결
아이와
달라진다
중견기업
특색
여인이
생명과
##있는데
같고요
##작전
적용될
부드
받침
던진
것까지
컴백
이화
##율의
치아
대청
부응
##죄를
걷고
차이로
관제
나중에는
5조
섭취하는
##총액
can
블라
직무대리
뜯어
적에게
반려동물
##검찰청
가도
동요
진료를
농수산
버린다
##론적
테라
꾸미
덮어
과세표준
알면서도
제29조
친족
터트
소지가
##물인
요한
않으니
성장에
소진
명백히
부위를
기억하고
##m로
대상에서
제시된
##해라
있는바
식탁
갈색
효과도
전날보다
##렸고
제44
##창의
##미에
재앙
속해
##ᆻ거든요
##항은
##타점
소개한다
거치지
대위
듣게
가파
각국
훔쳐
##물품
##택트
제28조
바다에
##주시고
##fl
주파수
등교
##절차에
지위에
따름
음식이
##덤프는
들어서는
톰
이를테면
##압의
도마
필살
선거관리
랑
의상
공공의
이론을
유보
##괘
협동
용어를
존재하고
오늘날의
연구하는
국가공무원
1급
불분
상공
급락
여성들이
포기하지
##믹
등록한
제목의
미혼
##넥
##병과
커졌다
코로나19가
##란시스
면을
수에
선수를
##철의
기업가
깨끗이
간접적으로
2023
범죄의
서방
12억
##자료의
##조제1항제1호
고성능
##건만
민선
##애가
안되
장단
부당하게
발부
원리를
살펴본
숫자를
개방형
9명
그쳐
분들을
준비에
##ber
지금이
요인을
때나
칼라
##맞춤
##희망
가려움
##퇴직
같은데요
짠
##부채
떴다
반영하고
칼슘
농촌진흥청
중이던
한국은행
##계획이
예방과
##방향을
그레
##4개
처형
섞어
앞세워
4위
자연을
보름
##경로
알선
##부담금
아랍
##눔
예상하고
최순실
156
승부를
찾아내
위키
과정의
캐릭터의
유감
##순간
##서에서
방언
계기
무심
##막에
평균자책
저마다
##강한
##해져서
5천만
제3회
##자유구역
##ᆻ자
11년
일본을
기록하는
해석을
시연
바뀌고
365
고을
##하이니
클라
##득점
##똥
##도어
이례
캄보
확인되지
중산
결핍
수행한
지자체의
승낙
##널리스트
소유의
정의를
직영
말씀대로
개정에
체험할
sf
##정부가
패소
##자료로
##시험에
##화도
개월
조치에
남이
디스크
##산업진흥
##꼭
세션
즐기고
##화에서는
표시를
##제이
화재가
배고
사회는
석방
현실이
##골프
바리
##업으로
잘생
형님
알아볼
장과
##주시면
기회로
생물학적
고유한
##졌지만
##매출
닛
##은은
불문
법인이
추진하기
나왔습니다
위태
##공식
##실습
관할하는
##ᆷ푸
##신용보증
cop
2사
##리거나
##교육국장
펼쳐진다
국정원
해라
위원들이
한국산업
벚
한전
성인이
김장
투자에
익혀
가치와
off
제조사
변함
종의
등급을
테스트를
체인
##빈은
개발제한
175
자꾸만
공간의
해수욕
적었다
평화의
자극을
넓고
나서고
양상을
##학교에
하자는
인연
제50
변한
처분의
업무와
글은
침몰
설정된
##술은
완료된
tech
거니까
부서에서
정체성을
제에
카자
##ᆺ밭
전락
데다가
가능해
군민
창업을
앓고
ep
공론
##생활에
국정감사
민사소송법
전문가들의
korea
주축
죽게
존재할
차지한
##중앙회
##9호
대웅
##됐는데
입자
부분과
모이는
자유무역
컬렉션
지시에
레전드
조카
싫은
본위원이
태워
##아래
경위
버텨
식중독
##과제를
본연의
##마당
##이었기
1963년
남편을
상태의
노력해야
함정
제33조
##있지
마련에
이뤄지지
나비
부지에
영조
삼척
##필을
걸맞
디아
쓸쓸
돋보이는
참여가
certified
로버트
현실의
아내와
개혁을
발생에
##특구
시상식
주민등록번호
소망
##하겠지만
관계에서
우리나라에
제작을
1973년
조롱
어려웠다
완성된
오프닝
기능의
아픔을
창건
사망했다
문예
자리로
##판과
제36조
소유한
총장은
보아도
메뉴를
동북아
또다른
그러고는
쉬고
해결해야
취급하는
무서워
화보
검토한
##부여
스마트폰을
##hz
결과와
##거는
승차
##조의5
##먹은
응급의료
제재를
순찰
사랑하고
갔다가
f1
지중
##42
고독
임업
##대책본부
하긴
##팩트
무너지
##육성
조직개
##톤의
pop
##면에는
않자
##측의
##정화
##국어
들으면
일본과
줄어드는
##반에
않겠다는
##레이트
제공된다
사건에서
투자한
콜레스테로
집의
##작품
##직은
##공예
##질과
##두가
##백의
선생의
기절
기금을
##주어
60대
시선
##극을
트라우
12월까지
의견은
바닥을
##궐선거
##미술관
##문일
골고
음악이
명예를
##찔
##해준
안착
math
103
블로
추경예산
바르셀로나
미루어
##자치단체
방송된다
분석이다
무게를
##블릿
명칭은
되느냐
마음도
고위공무원
##해결
장소가
진작
핵심적인
ns
코팅
담낭
태도가
백만
행정사무감사를
비는
보더라도
계기를
국회가
##지검
크다고
##했음에도
##당시
입각
절도
감소하고
2016년도
##터스
계수
##발명
파크
##끄럽
알림
판사
단체에
꿈과
주석
##ood
시스템으로
양성을
##보다가
기하
##하든
성질을
사업주
종속
김상
월요일
##보내
예정으로
자발적
고안
말라는
사이드
품에
자재
유키
스쿨
미국으로
##콘서
##부부
바디
빠질
각별히
30개
공룡
쇠퇴
associ
##주의와
요인에
먼지
뱉
투표를
형태는
팽창
##해하는
표면에
배추
천문
미미
4층
회색
국민안전처
넘은
##컥
달빛
##00만원을
##지방법원
받기도
배경을
500억
여과
허무
들려왔다
생식
##식당
벌레
스무
소외계층
강간
##변의
주문했다
##부사
4명이
##지향
##놈이
##율에
확인하여
드러내는
##소스
습지
자랑한다
사제
자영
메일
m3
##템
받았으며
대회에
내포
애쓰
##ᆻ어야
상소
##타와
천사
현명한
유튜버
상용화
보장하는
스피드
165
기숙사
##캐피탈
당국은
입수
##츠가
out
쿄
##여름
##터리
동포
육체
반출
말씀드립니다
딥
조사되었다
확산에
목소리에
장로
의미다
##한지
경제학
gu
사각지
아아
규모에
상관이
드러나는
##좀
도구를
편성을
##글라
틀을
상세하게
1심
지점에
##실적을
셀트리
깎아
##졌을
외쳤다
느끼며
바짝
##디다
sk하이니
실존
##픽을
일어
방학
접할
경부
연맹
외부에
##메가
경직
살리기
서비스로
않는데
생선
호전
둘의
사태로
봉안
고용보험
##장학
환경영향평가
##오카
lte
1세
##횡
오존
활용될
라이벌
2종
모아서
진지한
잔디
땀을
##round
청주시
안정된
타이거
매몰
접어
##채취
비판이
피해야
1979년
##대회에서
도무지
##더가
mr
만만치
담양
자유의
##방법은
183
기여하고
기상청
프로세스
사물인터넷
4단계
북한에
덤프공부자료
##쯤은
손실이
거시
평면
우리나라가
베이비
##복지가족
인연을
라임
정형
##비한
순간이
생각해보면
##분야의
##상태를
태그
프로그램이다
검증을
여기고
아시는
바우
유령
주위의
##수칙을
감사원
타이틀곡
##시까지
울트라
외국인이
주소를
방화
대입
##상수도
상사
비하
##단속
노력으로
##지노
##제도는
준다는
이용하고
흐름에
박람
데이터베이스
반대의
##되는지
##셈
보수를
호랑
컷
##500
나왔는데
조용한
공사에
아닌가요
c4
고산
##더는
조사결과
수준인
머릿속에
말만
1982년
생기지
정반
경청
김용
이어갈
##풍의
##부분에
1주일
##더의
외부에서
어깨에
가리킨다
##왈
방에서
2019년도
역대급
하라는
판단하여
##2개
재판장
곰팡
언젠가는
가습
일대에서
##협회는
채무자
선의
발휘할
##빼
일어난다
못하다
보였고
독립적으로
##세종
2분
##선박
##ax
가설
##월일
호는
안정성
차량은
높아진
2030년
여타
발진
문자를
이득을
그로부터
##인기
조별
인정받아
미래가
있지는
환경적
죽음에
곧장
잃게
320
##반은
신라의
탄탄한
제보
자손
나포
팬들은
선언했다
수치다
##사각
좀을
11월에
act
##제도가
아님
부당이
##벳
개최한
##비트
익히
##리니
가는데
대표팀
폭으로
자리잡
대리인
유난히
소주
적용하고
않으나
목적의
##신도시
○여성가족
경신
제49
월평균
울음
##ᆸ터
하하
정선
##귀가
휘발
해줘
##초의
오후에
반영이
##번째로
있었다면
전통을
비트코인
되새
스틸
이유에서
회의실
않아야
것이요
##렘
1990
다르고
인삼
비난을
설정이
##하였거나
##재난본부장
##었지
영상은
세계는
아모
펼쳐진
3기
가담
절로
##조사의
##리도
중성
끈다
##유출
금융위
제한된
스티븐
이룬다
참가자
아름다움을
##구치
했는
정착을
모노
중위
##군데
누구를
경제적으로
장애인의
추종
끝내고
일본군
갖추어
일어나서
뱅
바나
연관이
근거하여
되거나
##훈이
자로서
여인의
우위를
칩
정도만
만들어내는
안아
##태평
##점이다
살포
##브는
수준은
블러
증원
##자격증
말씀드릴
##값은
들여서
호위
합창
폐려
##장려
유격
##ᆺ잎
##지역이
##급히
국가유공자
그런가
수술은
억제하는
##램
짜증
짓이
질서를
상태입니다
##이치
미야
##처분에
도미
타고난
##차와
모양이었다
유교
양적
성장하고
종류와
엔터테인먼트
친구는
상륙
##타입
맛과
##이오
전에도
노력에
줄곧
입으로
##노스
집중하고
윈도우
위치는
##근거
178
지급하고
캠퍼스
간편하게
관리는
원로
북극
높아졌다
미래에셋
##하루
발전의
내세워
km
##체제를
발전할
전문가로
구출
통지를
##약의
확인해야
지정할
자유와
##ream
사회적기업
하류
##하기까지
행동으로
두터
오디션
##티의
##먼지
나뉘어
##모와
관리의
받았는데
세르
헌법소
팬데미
디자인의
##협력을
카드가
서대문
왔고
위원장을
눈써
상임위
지쳐
공손
전문가와
##ake
식도
서두
##관절
명사
##8년에
빈틈
가능하면
접근을
##다의
아인
내려온
부지런
지장을
아들은
퀸
##전투
우리와
##ene
##참한
꼽히는
대를
몰리
2015년도
##네의
움직여
론칭
놀라게
최고경영
##임에
사상을
스마트시티
내재
형벌
포함돼
경쟁력이
이치
하트
밝히는
주민참여
이동하는
영리
##나라를
만들지
1950년
맞추는
행정자치부
가깝게
바르게
##금액을
##광장
자체도
구간을
가마
플레이를
아이러
backg
남산
파이어
기반한
보건복지가족
약속한
절대적인
거거든요
##체계의
채권을
상대방을
원하지
##키아
마그네
행성
##디움
background
계약서
시드
한한다
##시키는데
홍성
##업체를
##위원의
단체는
아쿠
꾸려
##던데
개념은
신성장
번개
신청해
처리하고
내려오는
##2p
##덤프를
처분에
순서로
기획조정
usb
##달이
제시할
보여주며
##야를
##상부
원조
사유에
썬
백인
코로나19의
##도도
##혁은
생각해요
쓰러뜨
썸
크라
도움으로
예측할
##엉
누설
돼지고
조치로
##학교의
핵심이
스피커
피에
피지
불펜
군사적
##전에는
어떡
알기로는
제출하면
없었다고
가나
모로
생육
외계
##현장에서
##컨설팅
있기도
우뚝
골키퍼
법무법인
주역
통학
국제기구
4시간
섹시
건은
##례에
발행한
본부장은
사람으로서
채무를
관중
분들의
묻는다
브렉시
##a는
호칭
돌진
펼치는
반갑습니다
##시각
몰라서
s4cwm
명의의
세계대전
나뉜다
##dr
##구려
명령에
##dc
not
##것으로
문장을
음향
남에게
메커니즘
전략이
죽기
##상으로는
사람에게는
민원을
##스타일
첨부하여
##ize
근육을
정신적인
##실점으로
60세
말없이
산입
완화를
질의하겠습니다
청년들이
##닉스
##조각
팬들에게
가용
극단적인
결여
##등으로
##주차장
조그만
##1일
부부의
처녀
pol
않기로
##르를
이슈가
퉁
1천만
기법을
코코
건설교통
단단한
놀러
어딘
##자라는
##구축
구간은
##얼을
자라는
방침이
관리하기
##계약에
드라이버
##해충
부분입니다
world
sr
천무
신속하고
부문의
이류
말부터
##어갈
소설을
텍사스
대주
##교섭
보조금을
지그
사설
수익성
##경찰서는
벌떡
##시스템의
미생
성범죄
##출혈
강하고
창단
옮기
##선수권
헬스케어
##강제
용납
제37조
꼬집
##스러웠다
##맨이
해보고
현대의
신뢰할
1960년대
낫다
대꾸
##전선
현황과
##사원
뭐라
도입된
원주민
177
나카
경합
천지
○기획관리실장
장마
숙종
열리고
목적과
묘한
지속적
의심되는
명예훼손
하나님께서
예산집행
가끔씩
매력이
좋아하고
슬프
##상가
운영된다
알칼리
국민은
지속되는
접한
멸종위기
데미지
다하겠습니다
##평이
사무총장
##버튼
시간대
이자를
오디
스스로가
전기를
##소녀
성실히
필드
구축에
이산화탄소
기사는
구의
##내를
의원님께서
헬스
코미디
인도의
평정
##플러
대대적인
##연장
스물
긴장을
경력을
선비
사용합니다
활동으로
원래의
불구속
##6개
측근
축조
확대될
정신질환
인물을
기대에
##병원에서
언어로
뛰는
##하셔야
꽁
분뇨
##본은
격파
갤러리
마법을
상점
코를
태권도
##ree
보도자료
##학급
표현의
달을
장인
방송에
엿볼
부자가
비점
##태는
##바람
불완
서울을
존재로
사진은
의사에
세종시
your
이시
말대로
이래서
없으
속초
담겼다
##길래
기념해
채권자
어리석은
##전담
개최할
약탈
##막한
적용이
##주의는
억제하고
주어진다
##율과
##혈증
든든한
분사
휴가를
무너뜨
운영되는
복리
멀리서
##배상
##답을
판단한다
입주자
인센티브를
인허가
예에
국내의
조사대상
##납부
반복적으로
##up
연기가
감정의
##되었다가
##57
식구
풍속
니가
##거래소
박살
올리겠습니다
##끈한
추처
##알킬
보병
##분들이
반란
시뮬레이션
총리가
레알
##뤼
수계
##상이다
##타당
실시하였다
누군가를
##재에
##암을
구형
최후
##크와
아오
비축
##언스
##일인
##층에서
골고루
함경
##임용
업계에
어느덧
##4년에
oc
인지도
계집
대상의
구체화
부당이득
1983년
이르고
##앨범
##사유가
건수는
주택의
움직이고
원활히
##행복
상관없
난이도가
식약처
수위
세포를
cod
참사
탐사
가처분
##금고
횟수
읊
##세액
할까요
노력은
양호한
##대상이
##열은
브라운
자연과
통과한
##업자는
##두면
교육부는
제3자에게
##ink
##여객
일만
기간제
##6년에
안티
춘추
서울중앙지검
##교과
번거
산업에
효율을
문화관광
던지는
스쳐
현대화
##97
삼가
씨아
부모는
시청자들의
##63
책임은
##지하
##생으로
양식을
다양하고
##때는
바이러
이뤄진다
1962년
과감하게
##난이
##연수원
##ᆨ의
전격
##움의
불의
국세청
##ᆻ잖아요
어미
농담
온도가
뿌리를
##ah
마드리
생각하게
혀를
카를
삼는
규모다
풀고
후보자는
##work
알려야
추가경정예산
##net
기판
##특성
산란
바이러스의
##버스를
서울과
프로모션
개발하여
m2
##공모
증가하여
궁금증을
##테로
초빙
담을
##일반
신작
방통
##브의
치며
폭을
제1심
추진이
삼성물
욕구
지방에
재판관
##활성화
iv
##포는
생생한
서정
##었죠
##락은
정보제공
##뿐만이
이동할
부동산의
금지하는
시크
##당국
연차
##영역
번호를
주문과
이후부터
##사업자는
제30조
ele
##람을
##사회를
태블릿
부산에
전쟁에
재생에너지
팽팽
요동
올림
불과했다
##조에서
##품목
의용
##었음
넋
출신인
변동이
##처리를
##번을
나오면서
능력에
권역별
데모
제품이다
아비
포함하며
##텐데
엉뚱한
##안마
어른이
##전망
##색과
##흙
떠올라
일문일
헤르
벗고
고민하는
##워진
증거로
##공기
더이상
하여도
인출
구멍이
계속적으로
만들어졌다
깔려
자외선
박원
러닝
좋음
상태는
사람이었다
해소하고
거느리고
##주사
##어촌
##금액은
오가는
명명
닐
공유할
주심
그중에서도
사가
##분별
제작에
##했기에
살았던
사항과
100만원
구축할
유량
실물
##현아
선제적
보낸다
##1z0
책으로
계시면
스트리밍
차츰
체계적
들어야
중앙선거관리
입건
한국토지
마녀
주권
싶으면
##교육원
자산운용
모집한다
여쭈
체온
12만
보던
##연에
절벽
많아요
크기와
치료의
어휘
도로의
전남지역
본관
##층으로
출입국
한탄
장관을
발생되는
##미사일
의는
##소독
기업체
받아들이고
부흥
##박람
상대에게
실외
재촉
개발도
드리면
##사고가
##떨
연세
구는
대통령에게
던전
시민을
운동에
3일간
갤럭시s
공직선거법
나무가
pcr
자들이
역할과
작성된
2건
##ium
부부는
##래요
간격으로
감독과
본인도
쿠폰
##퐁
부는
진행되었다
눈과
개발할
죽음이
솔직하게
아가씨
직속
100년
이불
거리는
호소했다
ak
gre
누르면
제31조
싶고
상대는
##ash
대덕
##법인이
올라갔다
지적하는
##가면서
증가가
반영을
##경찰서
##ution
##공무원의
하기에
소명
##청정
공개됐다
허용하는
기와
식재료
입지를
사고의
민간인
가문
농정
성추행
##백은
불안정
밀고
상승을
의도적으로
내디
##메리카
희망이
도지사가
부총리는
##저장
##죄가
제도에
참가하는
연속으로
##자라고
뜻밖
1981년
악용
크루즈
##올로
중요하지
마음과
띠고
의도를
##간히
##7년에
영화에
정조
관념
취득하는
내국
인용한
수하
##산업이
이해해
그러기
배웠다
200억
주관으로
육박
측면을
2를
##장에서는
1과
맞대
진행한다고
연관된
정령
##조건을
inst
두려움
조속한
관상
지나간
친구와
직원들
왔으며
##kw
##경보
표결
지날
사업자의
제34조
브레이크
##적이라고
주먹을
약물이
증가를
분석하는
공급할
부스
소식에
군수는
이동을
##본이
극복하기
워크쇼
회원이
엄중
2월에
특성과
제32조
##스트의
사무관
##재산의
상당하는
##례로
펼친다
행정을
이트
전광
117
농어업
관리법
용적
서울시장
않았나
브라우
궁극적으로
높지
팔당
꿈의
##보니까
신청하는
들어가기
신고하여야
탐험
승리로
흐르고
7천
시체
여성가족부
언제든
유동성
점수가
김기
##분한
네트워
말씀에
늘릴
언제부터
bi
전망을
고아
부모와
보도가
155
##사지
제사를
##테러
췌장
##웅이
선정돼
##조제1항제1
모티브
특수교육
싣고
다는
회장을
투자해
1월에
하구
조업
필기
사회적인
##매일
##겹
##회사무
패턴이
소속된
##ᆸ곤
자궁내
자리는
2m
2위를
배에
기초생활
많았
운영위원회
##봉이
상품은
부회장은
고온
파기하고
개도
보충질의
규제가
기술력을
직관
대체할
더러운
##본부가
무작정
항일
사진과
신용보증
##루살
달의
##다시피
조정에
옷이
##랑의
효과로
소속으로
5월부터
말미암아
미주
추방
##ᆷ비
##ᆺ고
대수
예가
날마다
제41조
에이취
중심을
역세
클레
제기했다
자율적으로
끄는
2px
기관으로
급변
궁궐
산업단
##베리
구매한
굵은
원스톱
결손
알릴
개정안은
바이올
낱
도전을
불안을
무엇이든
3세
##원자
노리고
정책으로
목소리는
##1개
##도전
##종목
추천한다
힘에
복권
마음속에
국민건강보험
조준
생산자
지적하고
##견은
숨진
##딩을
소득을
파일러
자식을
장관과
학생과
상금
차용
##네는
증가와
요소로
주춤
정비를
아무렇
컴퓨터를
이도
##히며
천만
##베리아
데이비드
cent
거둘
질이
##째로
##째를
연예인
##인력을
의자에
신진
학기
올라왔다
노력한
서포터
기여를
장면은
##업종
처리에
꼬리
확진자의
진흥원
사외
한국농
화면에
쥐어
정보통신망
##아니
##랑을
##활동이
##ower
가성
밝고
지정하여
##ich
영업이익이
바늘
직거래
##anc
소홀히
##말에
아시아나
중요시
보이게
키울
부모를
엇갈
집중호
벌어지고
##들기
비자
못했다는
##맞이
나름의
9월부터
기도를
촘
일문일답
법안을
생각입니다
뒤의
##플로
도자
##물었다
중남
게을
##합동
##노가
그렇기에
문화재청
각계
마당
개선방안
무너져
벤치마
공자
마법사
튕
성북
##문화예술
되고요
훈훈
동일하다
##계약이
##보이
##했음을
거짓으로
골프장
피터
주장과
살리
모두들
##상품을
오해를
동래
##점인
건강하고
평가에서
고래
##공사에서
##삼진
유형별
방지하고
천식
평가한
다니고
섀
##98
기초하여
달간
활력
김경
##브가
마이크로소프트
실수로
rec
##병원에
편을
상황에서는
##필드
시끄러
무섭게
##치료를
##문화재단
국장은
체육시설
중금속
산업이
쓸모
넘어선
무공
있으신
##경쟁력
137
없었다는
##그룹이
##재난안전
다우
무대에서
평을
##군사
8천
정치인
2020년도
##짐을
독립된
뺀
직업훈련
자신감이
질병의
의회사무
최적화
이왕
사촌
판단되는
##클레
출시했다
좇
만의
##케미
##궁을
할리우
농기계
000원으로
시민들은
소방관
##자산운용
##말의
태종
유수
취소를
경제성장
따르고
##김없이
통계를
손목
확인합니다
찬양
안내를
한정된
정서적
꿈은
방대한
사용자는
##당해
사업비가
적용되지
발광
실체
했지
선보이며
들어섰다
전주시
풍경을
알레르
시험이
토마토
긴밀히
부총리
##기준은
명칭이
##교육지원청교육장
8강
법학
일대에
뒤에도
예산도
진단과
전립선
영향은
쏴
부작용을
##했죠
##ars
현실화
미소가
진전
##불가
사람이나
요구된다
##하냐
거룩
사업들이
경제부
되었지만
##호르몬
메신
##ade
##상위
나을
##0000
최장
국내에서는
되거든요
죽는다
품은
말레이시아
##임의
공개할
계십니다
증식
카나
신규로
한가운데
은은
칠레
##중간
심리를
##회담을
신고가
유효한
모시
내걸
크다는
호흡곤
지구를
##요인
##헌은
대법원은
결론이
발렌
##닷컴
동두천
오너
아니겠습니까
접착
갖도록
선생님은
들었던
범한
의무적으로
서문
##님도
젖은
낯설
대전시
이사를
##술이
공격적인
비롯된
지팡
녹화
외형
드러난다
##빈이
경호
##본부의
참관
##8개
##보겠습니다
특강
총액
제한하고
어디서나
아니하여
창을
##출자
방사성
경비를
재원
하기를
회부
탄압
얘기입니다
단독주택
8개월
공휴
노리는
경제협력
황제가
##바가
학자
보고하여야
베테
창의적
##교육은
있게끔
개인정보보호
서른
의도가
무신
오렌지
열거
태아의
##샷
추가되었다
감소로
결혼식
은혜를
목숨
##해보자
##수질
##진강
서로가
업체들이
빅토
##성분
독보
제48
보내어
은평
계획과
##5년에
상품에
끊임없는
왁
패러디
슬쩍
놀랄
차례에
일자리가
예상보다
달라지는
##게이트
자각
법적인
시즌2
객실
따지면
절대적으로
도립
무리한
##틀랜드
잠깐만
성균관
캄보디아
실명
##씨에
있는데도
##정보화
해결하고
희망의
비누
물놀이
##참가
공연이
장례식
bt
따를
플루
국립공원
소통의
구부
신한은행
좁아
##대도
##커의
랭크
키즈
뿐입니다
둘을
주최하고
그분들이
내주
누리꾼
한명
정년
재사용
허벅
소통하는
##이긴
##지라도
식품위생
##국제공항
##공사와
참고하여
신뢰성
부과하는
진짜로
동영상을
##린과
시작하면서
내용입니다
정치가
##리아가
##밸
선택하여
##뽀
피해자를
##ᆷ한
우월
통장
수장
그때부터
잃었다
흑자
부록
필요하면
가족관계
토지이용
kt는
##000만원을
##데다
유배
##피의
입안
##송이
손가락을
정도이다
생활습
##ᆺ수
인스타그램에
수년
운영하여
항고
##ᆸ스
하사
대사가
일깨
##영향을
본의
##츠와
고려하지
노래가
넘어갈
때문으로
명중
이야기에
기간의
특허를
마약류
자식이
근로시간
땅에서
마리가
##예비
접경
됐다는
##정보시스템
이야기로
간절히
11억
증강
설명서
염증이
##지부
채굴
않는가
고령화
##바는
많으며
##시키면
왼손
##조정을
산사태
사회서비스
느껴질
##저우
오류가
경찰과
감이
일종
게스트
됐어요
##비용이
##물이다
음성이
##바닥에
정권을
질러
그려진
등극
##포털
이즈
나이를
##느라고
##죄로
알아보고
wind
##und
##ᆮ날
생방송
##매립
상태와
건조한
위상
내서
양파
찾아왔다
##92
사라질
각오를
흘리며
갑작스러운
비명을
수술이
길이는
집적
타인
홈쇼핑
부설
##더라고
은하
했다면
○자치행정국장
##주에서
첼
##순이
수용할
확률로
구멍을
나니
감기
의장이
신학
장치가
아이언
똑바로
가락
황태
묻어
lg전자
그랬는데
건강관리
##건설은
익스
보령
못지
##절기
123
글과
이을
이기는
추세를
교육과정을
페미
수요자
생태계를
한라
유진
식생활
빠뜨
##캠퍼스
##섭을
##시아가
패밀리
커리
판매하고
전자정부
4배
##다보니
들으며
현대중공업
거란
서북
바란다에
1승
지점을
하시면
그은
##게는
##곳에서
##enc
##own
과언이
##방과
##보스
네오
백성을
최상위
##올랐다
영어를
올레
선거운동
우두
교향
단가
사다
comp
쳐다보았다
5번
규율
연구용역
갯벌
내부적으로
옛날에
반하는
과학기술정보통신부
과감한
우즈베
##매는
지방의회
감사하다
안타를
manag
통틀
중요하다는
가족들이
브랜드가
계실
협력이
번은
표현했다
스펙트
5단계
에르
후지
지속되고
공동의
pp
##했지
모델링
도시에
송치
깨고
알루미늄
같기도
##씩을
스타버
선고했다
계속되고
킬
있는지에
발명은
##에게로
마찬가지입니다
덧붙여
##전략을
##빗
##거리에서
않겠습니까
하는데요
욕심
민간투자
##mj
##갑을
물로
박혀
그것의
지배하는
2014년도
의심을
재화
##병원은
과정과
##황은
낙후
##책임자
있더라고요
중첩
이름2
만들면
##어링
알뜰
230
이경
소의
광해
구매를
판시사항
##뿔
회화
이뤄지는
실천하는
자치행정
##시죠
청년이
유가증권
모티
비를
개표
40만
소방공무원
저녁에
##근을
혼잡
pre
아야
쓰다듬
예루살
구매하는
자본시장
지혜를
순서대로
보십시오
거부하는
##단체가
취소할
사법경찰
그을
집무
질문은
되나요
일대의
##그로
다양하다
결혼이
인생은
##해주세요
단숨에
##어에서
불태
알리기
규탄
아낌
무소속
치켜
증상의
했고요
이루지
휴업
당당하게
구름이
체제로
해당된다
포함됐다
검은색
##모집
스티브
단양
용례
스킬이
##쫓
cou
##홈쇼핑
##소비자
불규칙
##테스트
##날레
지적도
딸기
거슬러
중환자
##카운
수행에
자원순환
바는
열이
지역개발
##말라
##산단
구한
##격의
입어
한국에서는
○한
찜
선수로
찍는
명단을
제도개선
##제4호
순위를
카트
거래소
시카고
##부상
로비
##겠소
9년
유우
심히
##편은
대문
치료할
수출이
##거늘
다양성
모델의
따뜻하게
종업원
과거와
급격하게
뷔
전화가
비료
카리스
그들과
그릴
내진
##들이는
##증가
문제입니다
총기
15일까지
사례도
##공산
후보자의
전달하고
즐거워
파악해
현지에서
접근이
1m
##41
##질적인
심근
보일러
랭킹
중원
18세기
가입한
옮긴
불에
조정이
##영과
종묘
##달러에
##버섯
적기
##키지
금년도에
구분이
부산시가
송신
단체를
육아휴
##대상은
마도
예는
계시므로
기회에
##남용
##sap
개교
했었는데
중이었다
시위를
터라
거부할
##po
마련되어
3으로
font
조금이나마
프로듀서
##오자
당나라
##량도
##절감
팔고
##수목
확고한
조사해
기대감이
##혼을
집안의
##조사가
국군
특급
타율
청계
##머리를
멧
##300
조성해
구조와
갖추어야
호텔에서
##시행령
차차
극도로
액세서
아름답게
data
화약
계단을
##권리
##본부에
벗어
##므
##스퍼
와의
쿠데
추천하는
원금
산이
뒤덮
접근성
h12
##분석을
재건
사람처럼
포함됩니다
전액을
구성한
둥글
##꿔
가정에
불려
손익
히틀러
엄마를
그것이다
사무소
기생충
오이
당면
카타르
재무제
##품종
##상대
##즈마
관광객이
수양
##까진
통화를
당진
##투자를
블룸
대나무
13억
금융위원회
이전부터
단위의
울산광역시
입대
심리학
벌을
진공
##외수입
##보증금
눈빛으로
보기는
견뎌
뜻풀이
촬영한
##협의체
말처럼
당초예산
방수
환율은
이것으로
혹시나
다르기
kbo리그
향상시키는
남기
작업은
연면적
성벽
문화에
않겠다고
서로에게
실패했다
sa
무분별
트렌
피해는
몸에서
금액으로
##작성
우리들의
근래
최고기온은
위험성이
바뀌어
교직
생활환경
이뤄지고
낮추는
독립을
##과로
선한
##태의
##가기
양은
캐시
브랜드로
끝나지
극복할
복지부
2점
##국장님
활성화와
전향
##행에
멤버들은
나보다
보고해
구성돼
말하였다
##계획서
어둠의
살림
조성하는
금액에
르네상
스페이스
그러면서도
##합이
지금껏
공화당
우리나라에서는
극복을
챔피언십
준우
##산업은
시대적
자전거를
카운터
강세를
스노
의료진
##ᆫ트
##님께서는
연구하고
보증금
화제
공감대를
오바마
bc
보도를
세인트
보호법
변화로
데이터의
본격화
level
##여행을
해본
존재는
참석자
제기되고
달리고
##위원장을
1도
운영은
제출하는
기여하는
엄격하게
border
금리를
수립하여
늑대
하반기에
##행의
성찰
소통과
영역의
좌익
소리쳤다
부적절한
문구
##부재
서는
무제한
초기의
126
##퍼니
##농장
대중의
입상
진열
##련이
##덩이를
oled
재위
인정된다
보편적
일각에서는
한참을
부안
감정에
아줌
악몽
어딘가
##센서
인정되지
##롤
분주
확대하여
##나기
조성하고
컨벤션
짐작할
께
##선물
스터
##자로부터
행감
2가지
통역
##렸다고
친구들
선생은
##ica
우량
변명
생산한
나만
코인
군을
##상인
##관에게
오키
프로야구
30명
##엔에
선박의
저와
##겔
##음료
효율이
##구제
준다고
구간이
dc
계획대로
땅의
##ᆺ빛
나쁨
농사를
시작했습니다
밝혀지지
##하셨다
달러의
떠오른
풍성한
거기에는
강철
굳건
지난해부터
##여명이
했어
증액된
##천에
위치와
딸의
관계의
##접촉
157
전문인력
드리기
삼촌
휴대전
공허
##변동
산업안전
추첨
행정기관
지적해
넷플릭스
중이라고
괴산
색을
요금을
칭찬을
얼어붙
wto
##할수록
공문을
시험패스
내놨다
정리한
예견
##경기를
##경험
동산
채권의
제공하며
6월부터
##셨던
레시피
통계청
투명성
##해지기
마리의
##경력
후보자가
하룻
뾰족
루시
체계가
inline
사업체
하나님은
모스크바
유휴
영향력이
합의에
봉사활동
냄새를
##보면서
원코스
많았던
광학
##계수
##산업에
징계를
국립중앙
닿는
md
##바탕
##애는
##계획은
월세
영의
대신해
##아들
구도
연신
##번은
숲을
##프린
시장과
##안고
발목을
반하여
체력을
굳은
촘초
##무형
행보를
다르지만
찾는다
어려서
##ous
종류에
##일까요
캐릭터로
##적에
알았는데
참가해
명시된
sns를
작물
되나
반등
할을
직장을
철학을
우려되는
##ᆸ습니다
대학이
모습이었다
빡
급제
맞추고
지탱
어음
##동계
오시
돌격
이세
##기업은
생각하
##개는
제1항부터
시정을
맡는다
##닭
마리오
왕국
예비후
반복되는
위협하는
상임위원회
유능한
동안은
게임에서
기념식
##사다
##직의
##파워
##상공회의
##세포의
물적
참작
전년동기
부탁드린다
호랑이
저탄소
입장에
기준과
자연스레
센터는
남편과
데려가
150만
다니면서
낳고
##법원은
온도를
브랜
꼴이
아미노
하자가
##크래프트
촉진을
나스
흔적을
##티에
졸업생
time
##저의
##여금
활기
잘할
단말기
해금
들었는데
지켜보고
인슈
위해서도
##전사
참된
##자료는
함이
성주
커져
여성들의
##봉은
미래창조과학부
보너스
##조작
티브이
와중
토벌
어쩐지
##렸다는
세입예산
##거부
국제적인
인천공항
##하였으므로
절차는
없어진
거나
한국전쟁
hr
대유
제기됐다
##라기
관점
소실
그동안의
##ave
벚꽃
북서
선택하고
끊이지
##볕
판단해
갖추지
도착했다
바람직하다
제치고
외화
##론으로
않고도
경영을
인생이
줘서
애로사항
보호할
안정성을
맺었다
보탬이
정권의
##드래
1972년
어울리지
상반기에
##제주
정면으로
남게
양천
사항으로
##혐의
번만
안전성을
162
마찬가지였다
촉진하기
ls
됐으면
지적이다
의혹에
휘둘
##수업
##수집
대구경북
무기력
정전
모친
지향하는
공공시설
구제역
교감
드러낸
도깨
##ows
메이크업
##제안
해볼
의회가
둔화
주기를
소원
피자
라인을
지원하여
##감치
##제품의
자발적인
##증후군
방재
용수
##전달
누르고
마우스
분홍
일시적인
유저들이
주기로
확보했다
안나
선수의
##오며
한다든지
바라볼
많았습니다
##치도
불균
질의하신
구입한
##요건을
##요청
가지며
태도로
특별위원회
챌린지
지원했다
걸어서
디저
감당할
114
학교와
보이기도
하급
##무효
##ᆸ지만
##배의
높아지는
중얼거렸다
의왕
유지하면서
많으셨습니다
덤프샘플
여론이
사사
내심
대통령에
법률조항
실적은
중입니다
산에
매장에서
시설관리
진단은
##덕을
수출을
눈에는
위탁을
바지
##석유
조합의
방해하는
##서에는
측량
##비밀
##히기
활용이
##었을까
소재의
그려졌다
지침에
수제
##atch
아주머니
쑤
##다를
##체스터
보고한
##블로
##2일
조장
공신
##극장
서비스와
##뚫
국공립
추진될
제35조
1971년
##곡으로
경기도지사
충분하다
소방안전
##허용
예산과
멤버들이
수록된
##테크노파크
##서치
##받아야
파이널
○평생
전압
경의
##네스
넘기
##손해
운전면허
아름답고
##94
##듣
사망자는
소방시설
어머니와
여느
원통
##커는
ost
##서류를
##품에
필립
여유를
명나라
ge
##위성
필요성에
pb
될까요
##컴퓨
템
위원장의
영향력
들어오고
주면서
것부터
##수화
고객들의
자세하게
해석이
##지시
##금리를
파악하여
알면
접견
말이지
질환으로
##노동조합
출고
21개
들어오면
구조의
간소화
기자간담
저수지
정원이
##구역을
시조
벅
사용하게
앤드
개발자
##국립
하셨다
사야
알라
편익
불편함을
b2
##과가
##면세
텃밭
획기적으로
잠재적
제수
경악
중요성이
샐러
판촉
했다가
참여자
마을에서
##법칙
작전을
##ype
주제는
생명이
##격은
##개발을
즈음
##유해
관련되는
그려져
av
##예약
구절
우아한
거행
지나는
표현하고
기부금
동남아시아
혈당
오피스텔
압박을
지금까지의
보도록
밀폐
5개년
대박
##하였지만
##사이드
##카메라
김현
4강
##침의
치른
강을
민주노총
엑스포
##뜬
양성평등
##분야에
로또
않겠나
마블
관용
##측이
사이트에서
닮았다
건설업
차장
산하기
앞바다
프로필
해결이
##ᆸ다고
여동생
##네마
##일지도
말하자
신분을
희석
구축하여
조사할
의구
버는
순이익
일상의
지방이
재정경제
나가면
가족은
##옥은
젓
기록된
물으셨습니다
김진
흡사
분도
불상
관련되어
##문제에
##태평양
복수를
163
노력했다
##엄을
##정에서
구하고
걸린다
##저는
귀여워
##센티미터
쏜
주상
못한다면
주민들에게
지게
직위
##승의
사이트에
어린아이
없애고
주주총
아이디어가
모서
빔
두어야
제출해야
동계올림픽
퍼포먼스
현실에서
##이어서
처해
드러내고
펼쳐지는
##뻔
호환
하겠지만
나나
활용하기
꾹
수질오염
잠겨
옮기는
##디지
구성은
발매된
정맥
that
etf
힙합
##추를
기본소득
친환경농업
출혈이
노골
검체
변호인
의료급여
불타
배로
업소
의미와
##ish
걱정하지
이전을
##치아
부분들에
##틀을
페이스북에
##설명회
경복
낀
완화하는
##증권은
##동부
돌리고
인간에게
유상증
##해제
두들
머신
144
입법예고
##미세
개화
짱
마는
공학
않다면
1500
##회의에
일주일에
##리아의
기획관리
알아채
##적이라는
##후견
생각하세요
시작은
그리워
세워진
묶여
서초구
보려고
증상으로는
최소화하기
웬만한
##디스플레이
사정에
전남의
현실은
##현황을
15명
그것으로
부산에서
##시픽
천명
##보와
김민
집단감염
뚜렷
트렌드를
5차
##해지면
있소
주인공의
획기적인
대응하고
##매의
파업
할머니가
댓글을
번을
2020년까지
위에는
필라
15일부터
5도
공개적으로
오름
##시청
해왔다
여호
쿵
수사가
청년의
구분할
인상이
못지않
5위
집단의
로열
평가다
씹
기대하는
바뀐다
상계
##액과
margin
##기구의
주에
배타
양양
보고가
##규정을
##상황에
##딴
##전남
속도는
다니며
협조해
도축
태조
반박했다
시기의
본질을
##업체인
##학과를
기쁘다
강박
쉬지
공유수면
사용은
개구
잘해
인계
물음에
##ᆯ레스
바람직하지
2021년도
보스턴
1개의
##성이나
휴일
npc
서사
이름과
물량이
명실
열흘
장관에게
최저기온은
##의견
##보급
##혁이
소속의
방향과
아쉬움을
봄철
요령
19개
섬세
부문에
자궁경부
여기가
##라고는
##손실
연꽃
또래
##억이
축제를
이야기할
다짐했다
대담
문화유산
직원들을
근무하고
지시했다
행하여
찾아오는
놀고
면세점
비핵화
추진하여
부담한다
그간의
전출
두려움을
새벽에
어류
##하기보다는
학부
협약에
일체의
플래그
가던
의심할
##시도
숙지
언론의
스테로이드
hs
주게
##르와
생산이
대처할
##정부는
철새
일으키고
양해각
##꿀
이색
직권으로
청량
페르시아
아르헨티나
섹스
##셨을
가방을
분석에
감사드린다
##걸리
##샘
특별자치도지사
##프란시스
학교로
플레이오프
직무대행
a형
합의했다
우러
##강사
##대학의
절을
##의사
공급하고
쪽의
er
이병
병에
까닭에
##ᆻ었는데
##간은
폭주
##톤을
파악이
sch
정원은
##신라
사용하거나
읍면동
경구
만난다
size
오타
감행
말씀입니다
새겨진
bus
수화
보드
교회를
당대
인물은
재산이
##처리시설
이튿날
##펌프
##bp
##조명
예상을
힘의
플레
선생님의
주셔야
##73
하소서
구획
조정할
옥천
아기를
현명
리튜
베스트셀러
설정한
저조
미팅
세대의
떨어지지
싱크
##요령
사라진다
이상에
배치된
모음
단서에
사용하며
들어가야
청구에
달러로
##인이라는
보았을
##당할
회기
들어가게
##웰
##지원국장
v1
##라비아
발발
##센스
합의한
맑고
베테랑
cap
가운데서
안쪽
법으로
손잡
준비할
업종별
재수
시행되는
부과할
사지
자기들이
○행정국장
김수
존엄
낙관
서너
남자와
가지지
행정의
강화하여
풍성
질병을
포함되는
하마
오인
마련이
삼성전자가
##있다는
##귀한
수문
차원이
##렉터
포함될
##끽
시의원
내놓고
시간당
공장에서
pad
##파리
소득세
오케스트라
한모
##왔습니다
의석을
공짜
지난해에
제출하지
사내가
동등한
도시에서
수록되어
없죠
속삭
악기
가속화
radius
현물
136
다르다는
지장
##물며
무주
날개를
귀환
거두고
노선이
이름도
대응에
죄다
다이아몬드
당겨
충실한
168
루트
보장을
농작물
발전소
취급을
교육생
기관별
무기로
심폐
했죠
대상인
##도시로
해주세요
제목으로
par
##히면
얼룩
먹어야
이제부터
여긴
질의하여
소개한
##판에서는
펑
mvp
##거주
촉촉
겪었다
##ok
##자리에서
떨리는
연고
목록을
12개월
##넨
공동대표
tw
언급하며
터뜨렸다
##리칸
우익
##복은
창문
캐리
파악한
색이
한식
##동력
조성과
옵션을
나이는
충원
##링크
섬세한
진다
##군인
한반도의
맛집
교육장
규정의
레버
주목받고
가드
지원도
뛰고
##유치원
##교와
감소를
행자
코엑스
흡착
털어놨다
구속영장을
##민들이
올라오는
운동과
심상
행안부
증발
목걸이
나루
함평
얻어야
영산강
코트
면도
나가지
오가
cor
이제야
물량을
간선
121
세수
논문을
임금의
햇살
○의장
하필
다방
건수가
##것입니다
맛있게
출구
항문
과장은
med
교재
##적이지만
곡성
##빈의
iso
##활동의
트윈
1종
연초
안건에
##교로
옥수수
##man
##즈키
받았다는
제왕
##럽을
지역적
##행성
올라간
스태프
aws
유권
겐
걱정하는
##pe
서열
주민과
붙이고
##상태에
어필
보시고
##검사는
애로사항을
카자흐
##2의
##청사에서
유방암
1948년
3명의
왔다고
거두었다
과기정통부
##역량을
태양의
2급
궐
웨딩
낙하
그림은
##묻
진리를
포유
현재로서는
글씨
노출된
섭취를
않은데
결국에는
총독
학교급식
궁금해
붙잡고
내에서는
##번지
입장은
산후
있었으면
147
빠지게
확대되고
샌프란시스
보상이
대구의
결합한
##iew
1세대
공탁
##에게만
과정으로
초과하여
이양
화이
##시기를
공백
##방사
##결정에
요양병원
이토록
거에
전보다
##로부터의
것뿐
##보좌
빌라
빠르
아시안게임
자긍
혼돈
공부하고
상수도사업
##글로벌
##me
유병
면책
만족도를
##으세요
서운
##개에
강화한다
제7항
전경
표현은
회사와
우세
113
##기야
키를
부족하고
##물질이
대상자를
##공단은
##연과
매운
세미
##렌즈
국장님이
화석
누구의
확산으로
놀랍게도
##노이
결정된다
유럽에서
향상시킬
##등급을
동문
취지는
##셨고
통해서도
장으로
이것저
협의해
2013년도
앨범을
저택
대응이
도모하기
장난감
##ster
해석할
##상태가
실정입니다
기쁜
공문
선정할
키워드
신음
표방
제39조
공간은
경고했다
5개의
이광
시진
시신을
##중소기업
결과의
6조
##실록
사업소
격투
휠체
숫자는
da
[...]
